ffffe0a4
000024eb
fffff2d5
fffff137
00000d8e
000026b0
0000182f
ffffec43
00002a3a
ffffe709
fffff786
fffffb03
00001543
00001bfc
ffffdce7
000025b3
00000c22
00000a07
00001fa5
0000156a
ffffe86c
0000117e
0000230f
00001a8b
fffff75e
00000c42
fffff201
00001cd0
ffffe12b
ffffffa4
ffffda0e
fffff2b1
ffffec05
fffff3a6
00002191
fffffce3
00002568
ffffeebf
ffffec12
ffffdf3e
fffff9b9
0000183b
ffffd96f
fffff0a8
00000db7
ffffe19d
fffffc6c
fffffd5c
00000a90
ffffe6e9
ffffd704
000028ae
fffff3c3
00001eb6
ffffe058
ffffd81d
00002086
00000276
000020c0
00002255
fffffbf5
00001a7d
fffffd6a
000016a1
fffff66c
ffffdbe4
00001e2b
fffff359
ffffe86a
0000244b
00000b5b
ffffd9e5
fffffa5b
ffffe9a0
ffffd694
fffff6a4
fffff765
000023f8
00001050
ffffddfb
00001d90
00001c2c
000000c0
0000261b
ffffee44
0000021c
ffffdb60
fffff744
ffffea08
00000505
000008c9
00000d3e
00000dfa
ffffe065
ffffdc2d
ffffd8a3
ffffd2a4
ffffd62e
0000188a
fffff400
ffffefde
00002b92
000026ab
ffffe2aa
00001e69
0000175c
00000f08
000008a5
0000019a
ffffe1dd
00000162
fffffec8
fffff815
00000bcb
fffff19b
000013d7
ffffe8ba
ffffdf73
00002620
0000188a
00001315
000022fc
fffff1cf
0000120d
ffffedf5
ffffe72a
00001435
ffffe3b4
fffff0ec
00000c2d
00001700
ffffe3a0
fffff84a
fffff77b
000009f6
ffffd45e
ffffd688
ffffe366
00001bb7
ffffeff4
fffff0fa
ffffe327
0000209f
fffffaca
fffff2bd
fffff02c
000004d0
fffffa1a
ffffdc79
ffffef49
000015c1
ffffe6e3
0000262a
ffffe402
0000155f
fffff419
000002b2
00000ce8
00004c1c
000038ea
00003363
ffffe5bc
fffffb08
00001118
000013b4
00000578
ffffd66f
000005c4
00002a22
0000214b
ffffd5c5
000002c1
fffff0c6
ffffddcb
00001a91
ffffd2a0
fffff4e5
00000bf7
fffff31f
00001cfa
ffffdb46
fffffac2
ffffff50
ffffe2f0
fffffe02
00000027
0000358f
00003ddf
00000358
00002fb8
fffff364
ffffebe4
fffff78a
ffffecb4
00000642
fffff2cc
00002b02
00000add
ffffe67f
ffffe16b
ffffdc29
000013d7
fffff252
fffff7ed
ffffd544
0000135d
fffff5a7
00000798
fffff1ff
000011d6
ffffc392
00000287
ffffdf9a
fffffae4
fffff37c
0000404a
00001c9d
fffffd4a
0000248b
fffff719
00001af0
000019ce
00001929
00001832
000026d5
00002231
ffffd6ca
fffff272
00000719
000018fa
000026e7
000025f1
0000114f
fffff622
fffff8ec
00000650
00000325
fffff9ef
0000150f
fffff939
fffff31e
00001df4
ffffd9e6
fffff006
00002cc8
000029d1
fffffe94
00001498
ffffe4b3
0000066a
ffffed79
ffffef7e
00000792
00002472
00001254
fffff5ad
00000292
00000480
00001abb
000002ae
00000591
00001823
ffffd2cb
0000118a
ffffe40f
0000173b
ffffd8c6
ffffe3a3
00001bd9
0000192f
0000090a
00003915
0000489e
00001d60
00003d87
0000203c
ffffd50f
ffffd37e
000017b4
ffffe190
00001cc9
fffffd81
000027fc
ffffeda5
00000215
000017e9
00000a52
fffff368
ffffd568
fffffdb2
0000095a
ffffdb2d
0000114e
00001407
0000315d
00000825
ffffe007
000020e1
ffffd69e
00000229
0000148b
000003b8
000045a8
00003594
00000b15
00000ccf
fffff599
ffffecc8
00001730
00001599
ffffe67b
000023d1
00000578
00001d06
00001d6d
0000002d
00002622
0000112e
ffffdb71
ffffc837
00001415
ffffddf5
00000832
0000344e
00000087
ffffd4f9
ffffd77e
ffffe2dc
ffffe4a8
fffff4a0
00004057
000005cc
fffffc2b
00001a1e
000020e6
00002535
ffffef0e
ffffda9d
000008af
ffffe895
000002dd
ffffea80
000011eb
00000aa3
fffff868
00000ae7
ffffd937
00001b09
fffff034
fffff379
00001abc
00002473
00000220
ffffc5b6
ffffc5d7
ffffcb09
000002dc
00002018
00003254
00004987
fffffbba
0000214c
0000214f
00001ca0
00000504
000005ce
00000642
00001952
ffffeaa1
000000dd
00001a73
000037ae
0000185d
ffffd792
00000ee6
ffffedbe
fffffebc
0000088e
ffffeebc
ffffe54b
ffffbc41
ffffb8dd
ffffef6d
ffffcf71
00000be1
fffff2f3
00001ed2
000024fe
000012cc
ffffdde2
fffff183
fffffdd4
00000b8c
00001c19
000026b2
000007e1
ffffe385
fffff751
00001b05
fffffd51
00000607
00001040
ffffe759
00000b7b
ffffe831
000011c6
ffffe97f
ffffbf9e
ffffc586
ffffd883
fffff976
fffff864
fffff0ce
00001821
00001e12
00001847
000028c1
ffffe347
ffffff9f
0000178b
00001e4d
ffffd997
000024c6
fffffe39
0000181e
000010cb
0000251c
00003319
ffffff42
fffffc7d
00000fd6
fffff5ab
00001581
ffffe478
000001f7
ffffeaa2
fffff6ad
ffffdcdb
ffffd720
000014ed
00002624
00004484
000017ef
00003563
00001f26
ffffedda
ffffd645
ffffeb62
0000187b
00001580
00001643
ffffe87c
ffffe465
00004a1e
00003162
000024cb
0000187a
00002647
fffff5d0
ffffff1e
ffffedbd
ffffff11
ffffecd4
ffffc886
fffffc1c
000005cf
ffffd77f
fffff39b
00000645
0000401e
00002a8e
00001bf7
00001284
00001bb6
00001d08
ffffe79d
00002089
0000204c
fffff7ab
000001b6
00002dae
00002d1a
ffffff83
00002340
00003635
ffffff32
ffffffa6
ffffffcc
00001cde
ffffd5a6
ffffd2c1
00000e51
ffffe769
fffffdd7
0000133d
000006fe
00000dca
fffffe34
000040c3
00001403
00002fe7
00001071
ffffed05
ffffef95
000019dd
ffffed13
0000071e
ffffeb03
00001800
0000166b
fffff5b3
00001a78
000043da
fffff09e
ffffd379
ffffe99c
fffff4d0
ffffdc0c
ffffcb32
0000128a
ffffd5ff
ffffe4b4
00001cb5
00001e49
00001c18
fffffa11
fffff45a
00000634
ffffe8f7
000005c9
00002478
ffffe3ff
ffffed14
ffffdacd
ffffe081
00000b81
0000206e
00003e11
00000686
000030b7
00002606
000007cd
00002573
00001588
ffffd5f9
ffffd72a
00001f04
000013f2
00000213
ffffedc5
00001829
fffff068
00000d40
00003ea0
0000178f
ffffe5a0
ffffd666
00000cd2
000009e3
000013c0
ffffe703
00001f51
fffffafe
0000215e
fffff022
fffff781
0000252a
fffff66a
00003ed6
ffffed6a
fffff22f
ffffd1c9
ffffe5f3
00000796
0000056d
000008c6
00000df5
ffffe00b
ffffdad1
fffffd81
000015e1
ffffed6e
00000848
ffffe3b5
00002138
00000374
000026e2
00001476
ffffdb47
00001962
ffffdf57
00000daf
ffffdcab
0000341f
00003ac2
fffffcb5
fffff554
ffffed0c
000012fe
ffffdf42
ffffbff8
ffffecff
fffff9b9
ffffc572
0000233e
000005d2
ffffd030
000011ea
000013a3
0000209a
ffffeadd
00001a1f
00001891
ffffecac
ffffffb0
00000f8d
00000661
fffff320
ffffff00
000019ff
0000180e
00002516
0000243d
00000f7d
00000569
00002dd6
0000037d
fffff67c
ffffcea9
fffff1fb
000008bc
ffffcff4
fffff3d4
0000020c
00000c6b
ffffe64b
ffffdfdc
ffffd404
0000116c
ffffeb24
ffffe8b1
ffffe78a
000008e3
0000153d
ffffddc4
ffffe1ee
00001aa6
0000091a
ffffebb8
000020d4
fffff574
00000299
0000328f
000013ce
00002232
0000254e
000019d6
ffffd439
ffffdaf0
ffffe30c
0000209e
ffffed71
fffff85c
00000690
ffffecaf
ffffd4f8
00000e46
00001024
0000065b
00001fba
ffffe59b
0000255d
000003f9
ffffd9c0
ffffdef7
00001f4a
ffffdb69
ffffe23f
fffff387
00000de9
000019ed
000023c5
00002da3
00002979
00002183
0000102c
00001aee
ffffd50b
ffffeb33
fffff49c
0000149d
ffffcaa8
ffffda2b
ffffce79
ffffed63
fffffbe0
00001fa9
00001b01
000015f6
ffffe80c
0000260f
00002485
0000040f
00000b05
fffff423
ffffe321
fffff7b0
fffff21d
000003c0
fffffc65
ffffe636
ffffe95b
ffffe9a7
00001c68
fffff262
fffffb30
fffffee2
fffff62b
ffffffdd
00000c9d
000017d6
00001a21
fffffacd
fffffdf8
00000dd9
00002547
000019ec
ffffdc96
0000187d
0000264a
ffffe447
fffff136
0000297d
ffffd928
ffffd56a
00002591
fffff568
000005b0
fffff11e
ffffe1e8
000009af
00000f2a
ffffd62b
ffffdbd8
ffffdc45
000014d1
00001bcf
ffffe010
fffffe8e
ffffe6e9
fffff91d
ffffe0cd
00001ed0
ffffd8c3
00000445
00000f88
ffffe0e7
ffffddd3
fffff3ac
fffffc1c
00000c8e
000018fe
00000be3
fffff0da
fffff6aa
0000236f
000023e0
fffffe63
ffffffbf
ffffdadf
000014cb
00000899
ffffdb30
fffffae7
fffffcc2
fffff13f
fffffdc0
fffff2d9
000020b2
fffffff3
ffffe806
000006a2
fffffa85
ffffd5b4
00001ba6
000021ec
000010f5
fffff683
ffffe88b
ffffe67a
fffffebf
fffff956
ffffface
ffffd5f5
fffffb51
0000145f
000021e3
00000fb5
000027f4
00000a5a
000005e5
fffff230
ffffe234
fffffceb
000022e6
00000ed5
ffffeadf
000001e9
ffffe5e0
fffffb75
00001dab
00001d7f
00000a98
ffffd627
ffffdf1b
0000223d
ffffeb1f
00000c2a
ffffee62
ffffff1b
00000bbf
00001ff0
fffffaa1
00001c6e
ffffe24a
ffffd8d1
00001b1d
ffffde70
ffffda5b
000028a8
00000f18
ffffdf9c
ffffe57e
fffffb99
ffffe914
fffff2f2
000008fb
ffffd569
ffffd781
fffff497
0000299d
fffff5e2
0000083d
ffffd5ab
ffffe917
00000f05
00001e74
ffffeda5
000016eb
00000191
ffffd7aa
ffffdd95
00000c5c
0000204b
0000115a
000016fd
fffff698
00002a2c
fffff5c1
ffffe637
fffff58b
00001c83
ffffd7ac
fffff0ec
fffff564
ffffe7ef
000028c8
00001fbe
0000038e
00000a18
ffffdc5a
00000f79
0000238d
00000a0b
0000071c
fffffd9f
fffffb9b
ffffe094
ffffecad
fffff189
000029ca
00000329
ffffe92f
00002936
00003104
000009df
ffffee8d
000011ce
fffffea2
00000650
ffffdffd
000005c6
ffffe753
ffffdacb
fffffbd5
fffff6a9
0000073c
fffff518
00001c8d
ffffffb0
00000cbc
ffffea86
fffffbd3
ffffd93b
fffffb15
00000819
ffffe597
00000369
00003b53
fffff94b
00002110
0000096c
000002c5
0000340b
00002a28
000002a0
ffffedfe
ffffe180
00000cc1
00001aea
fffff728
00000030
fffff211
ffffe4b0
00000258
ffffee8f
000010f6
00001e48
00001c02
000017ec
00001a22
0000045b
fffff84e
ffffd41f
00000507
000006ea
fffff0c1
ffffdef3
000001ca
ffffeb54
0000386b
00002555
00002951
00000490
00003ce3
00001aed
ffffd39f
ffffd389
fffffddc
ffffe345
00002188
00000e94
00000667
ffffef5c
00000000
fffffd87
00000c4f
fffffe58
fffffd06
ffffd2e1
ffffd191
ffffc8eb
ffffa84f
ffffdbb3
ffff9fc1
ffffc1ba
ffffed49
00002d89
00004168
000064c4
000059bd
000039f0
fffffcd6
00000c58
fffff812
00000681
ffffe50d
ffffec47
ffffe477
000015eb
00000268
ffffdd6f
ffffe463
00001245
00001ab4
ffffde86
000008fc
00000bf0
ffffc6bd
ffffaa4b
ffff9129
ffff8393
ffffb8ad
ffffc132
ffffecd5
00000dca
0000390a
00004da5
00001c41
0000153d
00001e1e
fffffcab
ffffec65
fffff030
000005af
fffff1fb
ffffdf2b
00001aa0
0000012b
ffffe6e0
000011cd
00001713
fffffc48
ffffe8d7
ffffee1e
00000514
ffffbc7b
ffffa7ef
ffffba75
ffffcffc
ffffe765
00000ab1
0000080f
000003d1
00003bb1
000010f0
000018e7
000000e4
0000164e
00000b7a
00000bc5
00001547
000019c6
000005d0
fffff08c
00000f78
00001fe6
fffff72e
0000129f
ffffdf3d
fffff46a
ffffe19c
ffffc651
ffffa90a
ffff94d0
ffffbfdd
ffffe1f1
ffffe8b0
000004ed
0000247c
0000027d
0000366e
0000101f
ffffe6e3
000011a9
ffffe9fd
ffffe986
00002953
0000133d
ffffed36
ffffea5f
00001ced
ffffedcb
00001b94
fffff057
ffffecb7
fffff566
ffffd7ee
fffff98c
ffffc636
ffffc51d
ffffd2dc
ffffe433
00000a32
00000d85
00004359
00000633
fffff9ce
fffff7a5
00001890
ffffca7c
ffffcca8
fffffcf8
00002a34
fffffcde
fffff31f
00002b3d
00001e6b
000023c0
000009b7
ffffe355
00000fb9
ffffe772
fffff01f
fffff047
ffffd706
ffffffa2
00002043
fffff357
ffffd1db
0000153c
00000e56
00003aef
000012aa
fffff3c8
ffffc42c
ffffccc9
ffffcf98
fffffdba
000003a9
ffffffaf
00001b6f
000031f9
000007fa
00001104
00002c08
fffffeb4
0000073e
000002e9
00002a91
00000ae3
0000162a
0000068a
fffff477
00002099
fffffcdb
fffff45e
0000069f
ffffea37
000023e0
0000043f
ffffb5d9
ffff6b9d
ffff846f
000009b1
00000869
0000221c
000018d8
00004294
000059e6
0000476a
00000cd4
0000300d
ffffedb9
00002a76
00002545
fffffa05
00001aef
0000160a
00000a53
ffffed93
fffff74f
fffff9af
00002543
000000cc
00000aa2
00001832
ffffeb9a
ffffe1bc
ffffbc1a
ffffdb9a
ffffde8b
00001656
000026ee
0000222e
00004508
0000397c
000039e8
00000606
00001504
ffffff2c
000003a3
ffffed59
00000db3
ffffe39a
00001710
ffffef4f
00001f52
00000e50
00001ffb
0000193a
fffffc4f
fffff4d8
fffff76c
fffff26e
ffffeddb
ffffd90b
ffffe6fd
fffff084
000008f5
000053c9
000047be
0000495c
fffff616
000022a2
ffffe4a4
ffffd002
000003ce
ffffcb4a
ffffda6e
0000114d
ffffeb48
fffff287
fffff99d
ffffd6fa
ffffdd94
00002242
0000101c
ffffea56
fffffa54
ffffef6c
ffffbfed
fffff71e
ffffd907
fffffd28
00001817
fffffdbd
00005171
00002c45
fffff9d6
fffff8cd
00000f63
ffffea59
00000862
ffffc797
ffffe6e0
ffffd3d7
00000679
fffff9d9
ffffd2bb
ffffee23
ffffd611
00002856
ffffd959
ffffeece
00000e25
00000caf
fffff3c0
000025a1
fffffbdc
ffffe4f1
000036fe
00001922
000023b8
00003209
00001d1f
ffffe02f
000028c7
fffff835
ffffe1c2
ffffc421
ffffd1e9
ffffcfcf
ffffca09
00000194
ffffea1c
ffffd59c
00000c2d
00000b54
0000030f
00000277
fffffcdb
fffff467
00001ee7
ffffeea9
ffffe3ac
ffffe62f
000016fa
fffff814
00002eca
000026cd
00005db0
00005207
00000a66
ffffd614
fffff901
ffffff1f
ffffd0e3
ffffbe4b
ffff9c74
ffffc288
ffffda8d
000011c8
ffffd1ed
ffffd60f
00002d24
ffffedd1
ffffde4c
000020ce
ffffe915
00001cbb
ffffe686
ffffe322
fffff259
000007ee
00003167
00001c0c
0000355c
00001f78
00003ce3
00000eb4
ffffbe53
000012ad
00002097
ffffd870
ffffcc3c
ffffd8e0
ffffa8cc
ffffe8e7
fffff790
000017ad
ffffe436
00002051
000025e8
ffffd852
00002351
ffffd581
000015e3
ffffef6d
000009d9
ffffed92
ffffd352
ffffe4a1
fffff8a0
00002bfa
000032bd
00000064
0000035e
fffff648
ffffee26
00000621
00001bfb
0000148c
fffff48e
ffffda37
ffffe2f6
ffffee0f
ffffd743
fffffbff
fffffebf
00001583
ffffd849
ffffe3f0
00001839
00000d4a
ffffe657
ffffd878
ffffef11
00002590
ffffdc42
fffff64e
000037af
00003422
fffff19f
fffffe2e
fffff995
fffff936
fffffea2
fffff66f
00000653
00002065
0000047b
ffffeb4c
ffffe855
fffffc88
00003292
0000104d
fffffcb2
ffffe560
00000b24
000022ed
00000c84
ffffdb20
ffffe198
ffffe330
ffffeb00
000018f0
00000720
00001f21
00001b23
ffffeb93
0000000b
fffff1c1
ffffc3c8
ffffda80
ffffe6f6
00002fdc
fffffade
000004b4
00001dec
0000339f
fffff82e
00002615
000001a3
000010ab
ffffdb53
00000a13
00001105
00000dda
ffffe759
000000c8
fffff81f
000016c0
000012af
00000887
ffffef75
ffffe7f6
000013d8
00002486
fffff55d
00001e03
00002092
ffffc85d
fffff3b6
fffff0ea
00002932
00001e6f
00002715
ffffe546
000031af
000008ad
fffff684
ffffdd5c
fffffb82
00000bab
000026b3
000021ed
00000092
00002273
000004f5
00002a25
000005ad
fffff8d3
0000036f
00000453
ffffca49
0000024c
00001a5c
00000134
fffffa9c
00000dd2
ffffd836
fffffb5f
ffffdfe9
fffff438
ffffd58e
00000b9b
ffffe324
ffffe0ca
00001357
000010f6
000029fb
ffffde51
00000ddb
00002abb
0000244c
fffffe34
000003da
00002074
00001c4a
ffffe5f0
ffffe8e4
00000c92
000005ba
00002896
fffff833
fffffa76
ffffed1f
00000b8f
00001dd2
ffffff87
000033d9
fffff68e
ffffe524
ffffe3b7
000002ea
00000b04
00001e1d
0000063c
ffffee34
ffffd9c2
fffffd3d
ffffdced
fffff99e
000009da
000022e1
00002a13
fffff891
ffffdd91
00001028
fffff6f8
fffff64c
ffffea24
fffff770
fffff306
ffffdf4f
000034f4
000003b4
000000de
00000664
fffff721
fffffa61
00001681
000018e6
fffff325
ffffdadf
fffff70c
ffffed98
000012e4
fffff2d1
fffff599
00000405
fffff324
fffff8e5
00001a19
ffffeecd
00001925
fffffdb8
fffffd03
0000264e
fffffb9b
fffffd8a
00000018
00002a3a
00000b5c
00001253
00002eee
00000aa4
0000356d
ffffe69c
00003361
0000113b
00000813
ffffd8c5
fffff761
00001143
0000092e
000001fc
000001b5
fffffc39
0000021c
fffffa51
00001053
000003c2
ffffe17c
0000181f
ffffe572
00001021
00000d1c
00001f87
00000413
ffffed76
ffffe52a
00001ed4
00002765
0000096b
fffffbbe
00000479
ffffe4d6
ffffd9be
00000e67
ffffe58a
ffffdad0
ffffdee9
00001095
fffff83d
ffffdccf
ffffe933
ffffe2b9
ffffece2
ffffed5a
ffffd920
ffffdddf
00000de6
000024a1
0000120d
ffffe952
00000eb9
ffffdf52
00000fc6
0000053b
fffff757
000015bb
000008c5
0000286a
ffffed79
00001b33
fffff67b
00000702
000028f3
00001836
fffff670
ffffe17a
000006ea
00000237
000005a3
00000099
ffffd8c1
00002aa2
00000c63
000004b1
ffffef7d
ffffe452
000018e3
00000181
000011e3
00000dd7
00002709
ffffff32
00002afb
000015aa
fffffa7e
000010fe
0000249d
ffffd690
ffffe8f0
fffffb04
000011e7
00001e34
ffffea33
fffffcd5
000001d4
ffffd84b
ffffed0d
0000222a
fffff8d0
000002c8
fffffe87
ffffe057
00000449
00001ab4
00000fa5
fffff5f2
fffffca0
ffffd69a
00001c65
0000185a
00000404
ffffed55
00002469
000034e9
000024de
00001f58
00001523
00001852
ffffe467
0000143c
000000d8
fffff071
ffffda88
ffffe8a7
ffffe4ca
00001ef1
000009cf
00001915
ffffd6d0
fffff273
ffffde6a
0000194e
000028fb
00000792
ffffe175
000007e7
fffff66e
fffff37c
fffffbcc
0000108e
000007b8
000013fb
00002896
0000198b
ffffe26c
00001fe7
ffffccd6
fffff2d1
0000190d
0000227c
ffffd868
000006d5
ffffe414
000018aa
00001a86
0000046b
000010bf
fffff600
00003551
fffffeba
0000097d
00001878
ffffe9ae
00004090
ffffef92
000010fd
0000264e
ffffee53
0000236a
00002e72
000022a2
00001a72
00000c20
ffffecfa
fffffe9f
fffff3cf
ffffeab9
00000766
fffffcdf
00000fe6
ffffe1f4
ffffd806
0000009e
ffffe0ef
00002028
ffffe90d
fffffafa
00003b6f
fffffc92
00002736
00001c07
00000bc9
00000403
000019cd
00003027
fffff999
00003e4d
000026d3
0000475d
000004b6
ffffd2e6
000003a1
0000020f
ffffda1f
ffffe489
00001070
000029d3
00002571
0000137a
0000168d
0000068d
000003f2
fffffee8
00000146
00001642
fffffd1e
00000067
00000394
fffffc6d
00000e0b
00003742
00004daa
00001bb5
000030be
00000fd5
fffffff4
fffffcc0
000028d3
fffff762
ffffee7e
00001818
ffffbe31
fffff7f1
00000ad9
fffff3bd
0000179e
00001eec
0000049c
00000ad9
ffffe83b
00000fdd
000016b8
fffff0c9
ffffe3a5
fffff2de
fffff3a9
fffff180
000020d9
000003e7
000033f1
ffffd69b
000007e5
fffff316
00001894
00002456
ffffe3fb
ffffb0ac
ffffe74b
ffffd434
ffffd81b
ffffcd95
00001aa0
fffffacd
00002117
ffffec72
ffffdaba
00001ed8
ffffeea1
ffffebcb
ffffea24
ffffd0d9
000017f3
ffffed86
00002157
000016f0
ffffe667
fffffef5
fffffb0a
fffff645
00000c90
ffffff79
ffffec80
fffff69f
ffffd685
ffffd330
ffffacca
ffffbaed
ffffc9a6
ffffc343
ffffea44
ffffe3bc
00002a68
00002264
ffffdf84
fffffc08
0000260c
0000213b
00001cfb
ffffd4f6
000016bb
ffffdbbc
ffffe001
fffff42b
00000ea2
ffffeae4
00000d1e
00001dd7
00001190
000019b6
00002110
00001a35
000000b4
ffffd155
ffffd93a
ffffb07e
ffffe210
000002ff
ffffd22e
0000132b
00001834
00000867
ffffd5e8
fffff1cf
ffffd680
00001f79
00000261
fffff6d1
000002b8
000001be
ffffde01
ffffc830
ffffe401
ffffeb7f
ffffe87e
0000367f
000050e8
000040ce
fffffe76
fffffb17
ffffc8dc
ffffd5f7
ffffd897
ffffc9da
ffffe16b
ffffc03c
ffffe484
fffff142
00001b8f
00002038
fffffc6f
0000251d
fffffca1
ffffe57e
fffffbb8
ffffeb88
ffffbb47
ffffe1f3
ffffc832
ffffee52
00001a0d
00005a15
00006263
00007d9c
000038f6
0000403f
00002d66
fffff7ce
ffffd9c4
ffffd3d5
ffffe212
ffffe014
ffffec44
ffffe24c
ffffd14d
00000265
00000016
00000313
00002050
fffff652
00000743
000023d7
fffff864
ffffe434
ffffef48
00000606
ffffff23
fffffb77
00003736
000023a5
000035a8
00003447
00005dfc
000003a7
000008cc
fffff230
ffffd396
ffffe604
ffffd4dc
ffffde5c
ffffc633
ffffc23b
ffffef9d
000001c0
ffffe5d2
00002125
00000a84
ffffdd32
ffffe587
0000088a
00000729
fffff604
ffffd0aa
000006e8
0000140d
000046dc
000014ec
00002d8d
000028d9
00000a3c
00004f15
ffffd912
000011e1
ffffde99
fffff711
ffffe1f4
ffffc203
00001708
00000d48
ffffd4d4
000018ab
ffffed3b
000001c3
000002b6
ffffd7d5
000001ca
ffffe56b
00001050
fffff90f
fffff1ee
ffffd09d
ffffee6c
ffffe408
ffffe134
00000460
00000603
ffffd5d6
fffffaf6
00000f63
0000094c
ffffda6d
ffffd6cc
fffff69a
00000cd3
00001204
ffffed02
000009c1
00002b89
ffffdfed
ffffd980
00000ea6
ffffd5d7
fffff3ef
fffffbd9
ffffe6e5
ffffffd7
00000682
ffffc270
ffffeabe
ffffc836
fffff00b
ffffdcd4
ffff962a
ffffbdc7
ffffd242
000005b5
00001db0
fffffa68
ffffe2cc
fffffef9
0000282c
ffffe015
ffffef56
00002743
0000077e
000020ba
fffff5d9
00001bbd
ffffd442
ffffda61
00000e7d
00002824
000018a4
00000018
ffffd2c3
ffffae36
ffffad59
ffff9bb5
ffff8b0e
ffff7aeb
ffffab89
ffffa7e6
ffffa45d
fffff350
fffff4ba
ffffef61
ffffc276
00000587
000011f0
00001d22
0000487a
00002ba5
00006988
0000297c
00001eb9
fffffc6f
00000ba4
ffffe565
ffffda3e
ffffe652
00000f75
000019a6
fffffb3c
ffffd2a6
ffffcbc9
ffffb49f
ffffe363
ffff9deb
ffff5e19
ffff69ca
ffffa0b0
ffff886f
ffffdb73
ffffdb36
000013e4
ffffd8e4
ffffdeb8
ffffec84
000014e8
00004ac4
00003253
00002684
00000101
fffff33d
ffffe1b6
ffffe320
00002a81
000006a1
ffffe086
ffffe65f
ffffe54a
ffffcd5c
ffffe59d
ffffd061
ffffee95
ffffbfdc
ffffb54a
ffff9d79
ffff8380
ffffbaa1
ffffdb61
ffffdcf1
fffff9b4
fffff801
fffffa13
00001f34
0000411b
00005903
00000f94
00000007
ffffeccd
ffffe440
fffff96c
fffff4c5
0000296a
fffff671
ffffe263
00000fe4
ffffdc68
ffffe486
0000051c
ffffe70a
0000111d
00004420
00001047
ffffedd1
ffffb3c8
ffffaf1a
fffff1f9
ffffca6b
00000957
ffffe5cb
00001a43
00000332
ffffff68
000012ae
000028bf
00001e1d
00001a8c
000003b2
ffffe090
00001e3e
0000136e
ffffe745
fffff909
000017fe
000027a1
fffffda6
00001cbc
00003568
00006522
00002cc7
0000490d
fffffe11
fffffae6
00000cfa
ffffff3d
00000d90
00000038
00002934
0000136e
000030c2
00000f14
000023ab
00002f45
00001512
fffffe51
fffff0de
00001ec2
ffffe0fb
00000a11
ffffeb02
000006d2
ffffe8f0
00000209
00002775
ffffdff7
fffff3cb
0000430f
00002dc1
000036b4
00001199
0000040d
ffffe901
fffff2e8
0000095d
ffffe23a
ffffe403
000010a7
00003184
000035ec
00001852
ffffce3b
ffffeddb
ffffecdc
ffffee5d
fffff5af
00001712
000017b1
000001d2
00001f12
00002c66
0000146b
ffffe8e3
000005e5
ffffe564
ffffe913
fffffaf1
fffff38c
ffffffa4
00000b05
ffffe4a6
ffffdab7
00001f47
00001203
00003152
00001a25
0000110c
000023dd
ffffc893
ffffe2f7
fffff29a
000021f1
fffff0e7
00001d44
ffffdfab
ffffdc27
fffff627
ffffe8fc
fffffe86
000024cc
ffffe6f8
00002a97
ffffefa2
fffff079
00001f8d
fffffe36
00002aae
00001c48
000029de
ffffed63
00001d3f
00002bd6
000026b9
00000cad
000004f0
fffffae7
fffffe6a
ffffe854
ffffe3a8
00001ce4
00000385
0000153c
ffffe432
ffffdd89
000018e8
ffffd766
000022c6
00001e4e
ffffe8aa
fffff852
00001e79
ffffec2e
ffffe615
000016d2
fffff896
ffffe9e9
ffffea07
00000df1
0000078d
ffffdd9f
ffffeec4
ffffe1bc
ffffc58b
ffffff7f
00001339
ffffcdba
fffff85a
00001892
fffff137
ffffd72b
ffffe6af
0000271f
000003f8
000000b0
ffffe646
fffffc56
fffff2d3
00000cfc
00001bf2
000021d9
00000c1f
0000362e
ffffebb5
00001a97
fffffa26
00000ac4
fffff606
00000f1f
00001252
00000734
ffffde6a
00000bae
fffffb30
0000234b
fffff64d
00000987
00001de0
fffff87a
00000238
000014f1
00002afb
00000db0
fffff8fc
ffffe29f
00000995
ffffe264
fffff51a
00001743
0000242f
fffff278
00000a2a
ffffd684
0000051b
000019be
ffffe8bd
00002757
00002539
ffffe841
ffffebbf
ffffe7f9
ffffd7c3
0000007b
0000072d
00002720
ffffe98f
00000455
00002ac3
ffffdc66
fffff704
ffffe3be
00001ccb
00002693
fffff7c7
fffff338
ffffe601
0000190c
00002860
fffffcc0
fffffde2
00001199
00001b46
ffffd5db
fffff0ed
fffff20a
fffff541
fffffa83
ffffed8a
00001167
000029c0
fffff6e2
0000229e
ffffeae7
ffffeb32
000001ab
00001a9c
ffffef0f
000019d8
00001a2d
ffffe1e5
fffffbba
00001791
ffffd928
000010bc
ffffd9d3
00001bff
ffffdc94
ffffdd69
fffffaf8
ffffee55
ffffebca
00000c76
000023df
00001672
00001844
ffffdd34
00001143
0000043f
fffffbcb
fffffa68
fffff545
0000238e
fffffd19
fffff264
ffffee89
00000029
ffffe73f
0000213f
000009b7
ffffe50e
00001447
00000216
00002087
fffff3f7
ffffed84
ffffdcb6
000010ef
fffff580
fffff3e8
fffff2ce
000019d6
000011a5
00000b0f
ffffe55f
000027fe
00001112
ffffe970
ffffee35
0000142a
fffff58f
000019f5
00000081
fffff8fd
00001861
00000e41
ffffe07c
ffffe189
00000557
00001115
ffffd951
fffff3be
ffffdc90
0000075b
fffffff5
0000255b
0000145b
00000adf
ffffe58e
fffff6bf
ffffecea
ffffda56
000013d9
ffffeb59
000002a4
0000259d
00002322
000011d4
00000115
0000183f
fffff2cb
ffffe800
fffffb66
00001cb1
ffffdc7c
00001ecf
00001f91
00000de1
00002265
00002eec
00003a4f
00000972
00000508
00003f9c
000023c8
00001e75
000008d1
00000be2
ffffdf21
fffff30d
00000380
00000ca5
fffff91d
ffffe45b
000021d3
fffff59b
000009df
ffffdf6f
ffffe3bb
ffffe1e0
ffffd86f
fffff743
fffff0b9
0000257a
ffffe1c5
000029da
ffffe566
00004438
00002d53
00002135
00003c1f
00005bc3
00005ad9
0000339d
00000e25
fffff670
ffffe409
ffffe572
ffffe66d
ffffd60a
ffffd786
ffffeec2
00000666
fffffa1f
fffff2c6
ffffdfa5
0000058b
000021e6
ffffe1d6
000011b2
00000a69
ffffeb30
fffff672
fffff115
000015ac
00004318
0000089f
fffffbd9
0000473a
00000b07
00003104
00000613
0000139d
0000028d
ffffe420
00000d88
000008cd
0000228b
00001fb9
ffffcea1
ffffdb66
ffffced7
000003a5
ffffe6d1
0000183a
00000326
ffffe30c
ffffd790
fffff99b
0000035f
00001c31
ffffe18d
00002dee
fffffa5d
00001aab
00003293
fffff994
fffffb87
00002362
fffff83f
ffffe5e9
00001926
ffffd448
000008a7
fffff936
fffffed9
ffffd14e
ffffccf7
ffffd9cc
00000b62
0000249d
00001d3e
ffffec67
00001755
00000df9
00000c3f
ffffddd0
0000323a
00002c4f
00002028
00000d4e
000002da
ffffeb92
0000116a
00002162
00001943
00002921
fffff9c6
ffffea39
ffffd9e5
ffffdc1a
ffffff6d
ffffcf22
0000149e
fffffc2d
ffffbf75
ffffe3fc
ffffdbe3
fffff6e9
00001d8c
ffffe785
fffffe8c
ffffeec1
00001c0c
ffffe6b8
fffff618
00002b6f
0000131b
000023cd
00002227
00002f45
000026ff
ffffe9e6
ffffea9a
00000189
ffffdbb1
fffff392
00000380
ffffdfaa
fffff5d4
00000b74
ffffff41
00001131
ffffd92f
ffffd0c0
ffffae6b
0000120c
00001e26
fffff7e7
0000177d
fffffcb8
ffffebc3
00001d17
000002e9
ffffe874
000005fe
00000065
000007af
ffffde93
ffffd808
fffff330
ffffa829
ffffce12
ffffef8d
00000e2e
00003476
00000824
ffffef64
fffffbe3
00002c63
00001c43
000010c1
000000c4
ffffbac2
ffffed4a
000001ac
0000065f
ffffe32e
ffffdf82
0000048f
fffff66d
0000310d
ffffef84
0000152e
000005ae
fffff6da
ffffd97a
ffffcda7
ffffca24
ffffa30d
ffff94a0
00000e7e
000024ed
00001ebc
fffff4b7
000047c1
00000bff
00001c61
00002ffd
0000199a
ffffdba6
ffffe706
ffffc8bb
ffffe09e
fffff8b9
00001c0a
000024f7
fffffec0
0000204f
fffff442
fffff0c8
0000010e
fffffdd8
ffffbe3c
ffffb013
ffffaae2
ffffb76e
ffffbb2e
ffffe014
00000bd8
fffffc32
00000df1
00001f07
0000093e
000041ad
0000214c
00000107
00002186
000009f2
00000df9
0000292a
00000e01
00001037
00002303
ffffd84c
ffffe963
0000048a
ffffd278
00000325
ffffefef
ffffe7ba
ffffb027
fffff259
fffff362
ffffc834
000008f5
00001a93
00002ce4
00000d3d
fffff257
ffffe7e4
fffff7a7
00001e6e
00001c4b
ffffd43d
000016a2
fffff63f
fffff469
00002857
ffffe0a8
fffffcca
00001847
00000e13
ffffe312
000005eb
ffffdef4
00000b23
ffffefe8
ffffc28b
fffff66d
fffffabf
ffffeecc
00000d3d
00001d45
0000341f
00003bd5
00001539
00000f68
fffffdc9
ffffd453
00000160
ffffe5e4
ffffd594
00000372
ffffcd78
000017ed
00001c5f
00001a96
ffffe8f7
00000f24
0000225b
00000463
fffff3f6
ffffe495
fffff79c
ffffd79f
ffffe037
fffff271
00001790
00000463
00000ddf
00006474
0000711a
00003619
00002623
00001790
ffffe380
00001023
00001327
fffffbee
ffffe6c2
ffffbc2f
00000ab8
fffff611
0000228f
ffffe3a4
ffffe61c
00002312
000012d2
00001a59
00001bfc
000000fc
ffffffc1
00003600
00002d2d
00000cd0
00000b74
ffffe487
000010f3
0000287f
00008a25
00006481
000047de
00001628
0000031c
ffffdc70
00000ce2
fffff048
ffffee03
ffffd6ca
ffffe180
0000043c
0000392e
00001de4
00000d43
ffffeda6
ffffdc99
00000bd6
fffff851
00001be3
ffffeaf1
fffff15c
00001d5e
fffff688
00001984
ffffd55f
ffffde4b
00003844
000046a6
00001e23
ffffe265
00001fa0
00003a43
0000136a
0000067d
0000084c
ffffce1e
00001fed
000018d3
fffff721
00002eff
fffff44a
000021cb
ffffd811
ffffff9b
ffffea78
fffffb15
00002c33
00001eae
fffff89d
000009df
ffffeb5a
ffffe679
ffffde95
ffffe083
00000e3b
0000459e
00000d24
00000cd8
00002494
00003970
000019f5
00001230
0000176f
00002b8a
0000228a
ffffe482
000019bc
00001479
00002ace
ffffe860
ffffe0a6
fffff6f4
0000285d
00002d56
00000a2d
000020ce
000018b1
00001357
ffffb8c5
ffffe4c6
ffffe9bb
fffffac7
000002ae
000000b8
00001dea
00001f31
0000515b
0000363b
000031ef
00004546
ffffed16
00000c85
00000ab9
00001d08
00003acf
fffff7e1
ffffe460
00000786
00000ffe
000025ef
00001e53
0000310c
000026c7
00001848
ffffec36
000033e8
ffffcc46
ffffb3a2
00000724
ffffc0f1
00001910
00002bd6
fffffcc9
00000a18
0000384c
00004783
000037d2
000049b4
0000291d
00003fa3
00002d43
00002544
0000374b
000006a8
fffff317
ffffe211
0000089b
000009e6
00002712
fffffb17
00002904
00002df1
000014f5
000011f1
00000f39
ffffca47
ffffe2fb
ffffc524
fffffb7c
00002091
00001b8d
00001848
ffffd4e7
fffffd5c
fffffdcd
00002548
00001850
00004552
00003968
fffff968
fffffd45
fffffe98
fffff9d0
fffff142
fffffd2a
fffff7fa
00002317
00002813
00001b9d
00001f91
0000340d
000013a1
ffffecc2
00002079
ffffcd28
ffffe3bc
ffffe81d
00002798
000010d4
00000747
00001fc4
00000006
00003741
00002043
00002dd8
000025b8
fffff24d
fffff989
fffff39e
0000178a
00002a9f
ffffe7b8
00002377
00002819
000022ce
00000eee
00001745
00002979
fffff56f
00002b66
00000824
fffffdad
ffffe4ea
00000700
ffffe085
fffff076
ffffdacc
ffffb49e
ffffd60d
000021a9
ffffec7c
fffffb2c
000039a5
00002f4d
0000143d
00001558
000015a9
0000209a
000008ec
00002616
ffffd9a7
ffffd6bb
00001f39
0000035f
00001b99
0000313d
00000c17
0000342c
000033e4
0000179c
ffffe42e
0000118e
ffffe6c0
000001ed
ffffee52
ffffe9e5
fffffafe
fffff3a0
fffffc8c
00000b2d
00002c45
000001e2
ffffff7a
00002635
ffffe6ad
00001f56
fffffb12
00001a72
fffff9bd
ffffffbf
ffffdbc5
fffff8a1
ffffe098
000026eb
ffffed80
00000ac4
00001ab3
fffff393
ffffcbd1
00001936
ffffd9d7
000011a4
ffffd5d6
fffffa47
fffffdab
00001000
ffffd72c
000023d5
00000c5c
00001acc
ffffeedb
fffff356
ffffd8aa
00001f35
ffffdbce
fffffead
000003ea
00001e97
000005c6
000010c8
00001dac
0000021e
ffffe798
ffffe3cf
00002bc3
ffffff9a
000026a3
ffffdd88
ffffe706
000015c0
ffffe589
ffffe113
fffffa63
00001c11
000021bf
000013f1
ffffdaf3
000016d7
fffff44c
fffff76f
000010b9
ffffeb95
000019f6
000011d5
00000625
fffffa2d
fffff8c3
00002a8f
ffffd510
ffffeb1d
00001612
ffffebfd
fffff0ce
ffffdb3f
000011f8
0000180c
00000308
0000242c
ffffeb4c
000019e9
ffffd447
fffffe23
fffff56b
000006a4
ffffdbdb
0000157b
fffffbb8
ffffe23e
000028d7
000001d2
000016a0
fffff682
00001a8a
fffff758
ffffd82b
ffffee52
00000497
ffffdd81
00002089
00000fc7
fffff33b
000015ba
00002298
000011ad
ffffe5aa
fffff5fb
000021f6
fffff980
fffffe92
000024f4
ffffdc32
00001eda
ffffd99c
ffffec2b
fffff7f0
000018a3
fffff5a9
0000295f
ffffec65
ffffe7e1
000003e6
00000219
fffff5ea
00002a20
00000ea7
ffffebcf
ffffe856
0000214e
ffffdae3
00002b0c
fffff0c3
00000111
000022a4
00001b05
fffff849
00001957
00001292
00002493
0000267d
ffffd6e0
ffffd626
000029f0
0000186b
000019c5
00000977
ffffee59
fffff6d0
0000219b
ffffd9f6
ffffe4f4
00001c4f
ffffde6b
00001926
ffffeb64
00000fb6
00000967
0000256a
ffffea41
0000006c
00001175
ffffddb9
000011b3
00001f41
ffffd5d2
00001f3f
000029c0
000027e2
ffffe696
ffffeba3
ffffed29
ffffd771
ffffff93
00000779
0000205a
fffff368
ffffe04c
fffffd36
fffff242
ffffeaef
00001680
ffffe25c
000000b4
ffffe222
00001966
00001ce0
00002232
000004fb
00001c04
00000ace
fffff774
000029c3
fffff483
0000165d
000036fb
fffff2d2
0000060a
00000aa0
0000145d
ffffee80
fffff582
0000004e
fffff7c5
ffffdc45
0000116f
00002286
ffffea25
ffffe856
ffffff79
0000161f
ffffdbcf
ffffe8b0
000018e7
fffff733
ffffe649
ffffff58
fffff881
00000221
00000e10
000005f1
00001efd
ffffe3b9
00001936
0000214a
00002408
00003021
fffffc6a
00002ecd
fffff8f1
0000216e
ffffea75
0000035f
00001e7d
0000093c
fffff525
ffffd959
00001f53
000002bf
ffffee5b
fffffaac
000007bb
fffff152
fffffc58
00000eb3
000016b5
ffffef70
fffff0a9
ffffb82a
ffffc87c
ffffd5c8
00001759
fffffd06
0000008f
00001bfe
00002bf5
00001f44
00003f33
00001852
00002d1a
00001e0e
ffffffb8
ffffe7c0
00000042
ffffe9b6
ffffd790
000008fc
ffffe392
ffffec69
ffffca2a
00000f41
00002aaa
000034f7
0000375c
fffff721
00000c6b
ffffde6d
ffffff1f
fffffa87
00002c30
0000151f
fffffc1a
00002ed2
00000418
000012c5
00003097
00000adb
000039e1
0000297b
00002278
ffffe550
00002723
ffffe9a2
fffff76e
0000193a
ffffeecf
ffffcd58
00001128
00000832
ffffbdd9
fffff824
0000183e
ffffece7
fffff299
fffffaeb
ffffe960
0000032e
0000016e
000034ad
00003c34
00000cb0
00002ed3
0000511b
0000102a
0000435d
00003572
ffffe599
ffffda1f
0000219e
00001085
ffffe535
000009a4
ffffe469
00001bd5
fffff4c7
fffff3ee
ffffd743
fffffd05
ffffd0dd
00002485
ffffd2b6
ffffbf59
00001092
0000108e
00001c3c
00003780
00002264
00003124
00004421
00001e07
00000c26
00001dbf
000026cb
000036b7
00002a69
ffffd530
00002251
0000298f
ffffdc9e
0000229c
fffffb91
fffffa89
ffffd9b6
ffffe7fb
fffff62e
ffffde35
00000239
00001904
ffffd9c7
0000086f
00001493
000022cf
000018d5
000015d7
00001d10
000016f7
00003523
000038f5
fffff3da
00000cca
00003722
00000b6d
00002b3e
ffffdcd3
0000024c
fffffb01
00001564
00001780
fffff345
ffffd792
ffffe4af
000015a2
ffffeb67
ffffc290
00001694
ffffefab
ffffff1f
ffffe5f4
00001e60
ffffefcd
fffff63d
ffffdb93
ffffd9b5
ffffc353
ffffa791
ffffc141
ffffb7b0
ffffec11
00000a02
ffffe222
00000d13
fffffaae
ffffe6bc
00002244
00001937
000022bb
00000bcd
ffffea2a
ffffd61b
ffffcc84
ffffbec6
ffffdbb8
ffffe697
ffffab58
ffffcf20
ffffe23b
ffff9fff
ffffb15b
ffff8fa0
ffff4e10
ffff520b
ffff491c
ffff6336
ffff77eb
ffff7fcd
ffffb4ef
ffffd7a7
fffffdaf
fffffd3f
ffffe71c
0000180e
fffff4f5
fffff05e
00000aaf
00002493
00001982
fffff3aa
ffffc9aa
fffff4e9
ffff9bec
ffffb4ea
ffff9aaa
ffffd6fa
ffffebef
ffffcea6
ffffbd75
ffffde70
ffffbdfd
ffff94b5
ffff7e93
ffff6853
ffff6875
ffffb8c5
ffffa4f8
ffffc899
ffffed82
ffffe8bd
ffffeedd
00000341
0000268f
00001544
0000026c
00001b36
ffffeeba
ffffe02a
fffffad1
00000f30
ffffad7a
ffffe94c
000000b1
fffff9e0
00000530
fffff1b7
fffffd50
ffffe0ce
fffffebc
ffffc918
ffffc95a
ffffa850
ffffa407
ffffcc5c
ffffcd9f
000012a1
ffffeda0
00000076
fffffabf
0000141f
ffffeda1
ffffd808
00001a28
00002920
ffffd080
00002b03
00000341
ffffc786
ffffedbb
00003594
fffffd49
000013fa
000044d7
00003dda
000028e4
00001f54
00003584
0000026e
fffffe87
ffffb052
ffffd8ee
ffffb4a8
ffffdc62
000019c8
fffff9b1
000026e0
00000237
ffffd95a
00002417
fffffd0f
00002616
fffff32a
000007f8
fffffafe
000012f8
ffffdaeb
00000f24
000028c7
000027b8
0000273a
00001bbd
0000274f
0000235f
00001ecb
ffffe3e9
00001d43
0000179d
ffffef45
ffffee3b
fffff177
ffffcf53
000004bd
fffffe68
00000216
ffffefd1
ffffe24f
ffffdedf
000003f3
ffffebe4
ffffcc94
00000c83
00001f05
ffffdaa8
0000111b
ffffe38e
fffffdb9
ffffeeb4
fffff051
00001471
0000164e
0000121a
0000072b
000051e6
000043ea
00002064
00004804
ffffe01e
000002a4
ffffff70
fffff3bd
00000b4e
000004f9
ffffeee0
fffff18b
ffffff82
ffffe1e6
ffffdfc8
ffffd858
fffff55d
ffffe2a6
ffffdc25
ffffe4de
fffff225
ffffc231
000012e0
ffffd0f1
00000d14
00000944
fffffdd8
000032c7
00004333
000011b4
00003c7c
0000145d
0000332c
fffff3ee
00002ca7
00001990
00001dc8
fffff301
ffffe76a
00002438
ffffdfee
00001eb6
00001305
ffffe6f9
00000f06
ffffe4ef
ffffe147
ffffc9c7
ffffe546
ffffd88a
ffffea4a
ffffda97
ffffb9e8
fffff65d
fffff2ef
0000280b
00001a7a
00003bed
0000227a
fffff483
fffff8d6
00000f11
fffff34d
00000ad9
00000504
000003fe
ffffecf9
ffffdf48
00000ec6
ffffe678
ffffe572
0000193c
fffff581
000014f3
00000e56
fffffbb5
00000f33
fffffaa7
ffffe2eb
fffff071
ffffe395
00000f51
00002b39
00001e2e
00001bff
00002551
00001f5d
0000170b
0000248e
fffffa43
0000000b
000017d7
ffffe7e2
00000a6e
fffffc94
00002149
000027e5
00002076
00002876
000034c9
00001443
fffffc78
fffffdf2
00003338
fffff7f9
fffff8a4
00000a6e
0000436a
00000648
00001d43
00001380
fffff713
00001935
00002698
000030bd
00000474
00002254
000033d3
fffff877
ffffebdf
00000e18
00002983
00001c3c
00000698
fffff267
00000b30
00002ef1
ffffeb79
0000187b
fffffd8d
00000d37
0000445d
000026fa
000030aa
0000096b
00001398
00004a44
00005e00
00003426
fffff369
000012bb
0000131d
000020d5
00001f1d
000024c4
00000f7b
00001b2b
000005ec
fffff3f6
00002055
00002a8e
ffffe484
ffffdc82
ffffd8ed
00001fef
00002cbd
00004438
ffffee4f
fffffcec
000019d5
0000578f
000032e1
00003aab
00004fec
00005bf6
00003c5b
00003418
00003be3
00000ecd
fffff2d0
00002c5b
00000b93
000041b6
00003c3c
00000015
00001f50
ffffe835
00002ae9
00000867
00002a5c
fffffff3
00002c02
fffff41e
00002151
ffffec82
fffff921
00002b46
00002a22
000016b8
000041e2
00003a2e
00003d24
00001b62
ffffef6d
000001c8
000012dc
ffffcf8e
00000c41
00001e37
00002710
00001150
fffff68f
fffff148
ffffea15
ffffeedb
00002252
ffffe876
000001a1
00001094
ffffea20
00001172
00000174
fffffd5a
00001d87
ffffef74
00000731
000010a1
0000111c
00002b59
ffffb854
ffffe269
ffffd7c1
ffffd95e
ffffe169
000002e6
ffffd868
ffffc49f
ffffecf5
00000f1d
ffffde00
000001c3
ffffecd3
000013d5
ffffdbbe
fffff58e
00000386
ffffe522
ffffed69
ffffef8f
ffffea5b
fffff672
00000ec8
ffffda31
00000cec
000018ad
ffffdcbf
ffffe6ac
0000179b
000008a1
fffff089
fffffc2a
fffff3ab
ffffcde7
00001d74
ffffd68c
fffff08d
000021ef
ffffe29f
fffffdfd
fffff551
ffffdf34
0000257b
00000e78
ffffdf02
ffffdff2
ffffd6d1
0000127f
fffff8a2
00000c85
ffffd439
00000f52
fffffcce
00001c1f
ffffdcda
000005ab
00000c66
00002423
ffffd65b
ffffed3c
0000137e
00000afd
000021d5
ffffff7e
00001854
00001dd9
0000165d
ffffda84
fffffd4b
0000245d
fffffbd4
ffffe2ba
ffffde21
0000041a
00001c35
fffff4a8
000003c2
fffff8de
00002143
ffffece9
ffffd237
fffff163
00000aa6
fffff4b6
ffffe952
ffffde8e
000004a4
00000699
ffffddff
00000919
0000116d
ffffe57f
ffffdfb5
000011d0
fffff69b
ffffdc3a
00000c4c
000007b6
ffffe7c3
000005cf
00001df6
00002978
ffffe69a
00000570
fffff44a
ffffe505
fffff5a1
ffffdb89
ffffe3b1
ffffe8c3
ffffdfa2
0000006f
ffffd956
0000195f
ffffec0b
ffffdbc9
00000084
00000630
fffff40a
ffffe6da
ffffe740
ffffeb18
00001141
ffffe627
ffffe3f0
0000055c
000000a9
000009e0
000013f0
0000082b
000020f5
ffffeb1c
00000d10
0000214e
fffff8d3
ffffe244
ffffdd5c
00002a1f
ffffdee2
fffff949
fffffb17
00000b8d
00002347
00000f95
fffff5b5
00000859
00002068
ffffe2c2
ffffe43e
00000245
0000126c
00000ddb
0000047c
fffffb1e
0000161d
0000294f
000020a7
00001391
ffffd648
000023da
00000c31
00001970
00002008
000011ff
fffff843
ffffec32
000007ec
ffffed28
000016ea
ffffe5b7
0000095d
fffff29b
00001ae0
ffffe16d
00001327
ffffd6e3
fffff12f
ffffebff
fffffd49
ffffd6c3
fffffae5
fffff402
0000037c
00001011
000011b0
ffffdaea
ffffd592
0000297d
000008a6
ffffe21d
00000815
ffffe550
ffffe1c4
fffff2b4
fffff69f
fffff933
ffffdf01
00000393
ffffedc0
ffffd853
fffff1a7
00000bbf
ffffefe2
ffffef56
ffffe136
ffffd757
000005b6
00001865
ffffedb4
0000280a
ffffe8f9
ffffef93
000003ce
00001199
ffffe6b1
000019b9
fffff8ba
00002410
000020e8
0000256f
000028e0
ffffd476
fffff8ba
0000022b
000002fc
00000411
00000962
000012a5
000014cd
ffffee2b
0000231e
ffffd680
000017ad
ffffe474
ffffdb61
00002a2b
ffffdab5
000021c2
ffffdfbd
000028f3
fffff157
ffffd8c0
ffffff0f
ffffeebc
fffff504
00002698
ffffd3ed
ffffed72
0000129e
00000c2f
00000713
fffff3d8
ffffda55
ffffd3a3
ffffe6c3
fffff8f4
ffffddf6
fffff6a0
00001453
00000725
000003c3
00001341
ffffd5a7
ffffef57
00001a14
000019ec
00002756
ffffd587
000019de
fffff7aa
0000029e
00000f21
00001caa
00000751
ffffd898
ffffd766
fffff3e3
fffff8ce
ffffd2f5
ffffec8a
00002caf
0000225b
000000d6
00001b77
ffffd7f8
ffffdc93
ffffe60e
fffff877
fffff346
00000f41
00000012
ffffdae1
ffffe4e4
000007a1
00001b7e
000000c1
fffffe20
00000a19
00001eca
0000173d
ffffd374
000006d6
ffffcea3
ffffe687
ffffc51e
00000727
000013fe
ffffffdf
00003512
00006434
00002443
0000111a
ffffdf12
ffffebd9
ffffd2f8
ffffd60c
ffffb945
ffffe1df
000009e8
fffff1bf
ffffe631
ffffd3ac
ffffe802
000024ce
00000082
ffffd812
00001761
000009de
ffffdb8a
ffffd997
0000035c
fffffc5e
00001a18
000002bc
0000312c
00003971
00001dba
00001c41
00002df4
fffffb6b
ffffe4ec
ffffbd5a
ffffeabb
ffffbc90
ffffdfd4
ffffba78
ffffd818
ffffcadf
fffffd0d
000011ce
ffffe283
fffff95d
ffffefa9
00000169
fffff310
ffffd33e
fffffcf4
fffffa20
ffffc8ae
ffffdc1f
ffffec04
fffff4d4
0000243f
00001da5
00000630
ffffdb11
000007c3
00001327
0000223b
ffffe644
ffffece6
ffffdc90
ffffea47
ffffd0b6
ffffeb44
000002b6
000001b2
fffff61c
fffff510
00002a0d
ffffd965
ffffe50e
ffffd535
0000021b
ffffcba9
ffffd388
00001583
fffff49f
00000e04
0000304f
00000578
00000f65
ffffe86b
ffffd682
ffffd803
0000135f
00001807
00000fc7
00001221
ffffd970
fffffc37
ffffe08b
fffff9c6
fffff0b9
ffffd91c
fffff405
000022a6
fffff856
00001dca
fffff389
ffffd663
ffffffb7
fffff294
ffffdffc
00001366
00002651
0000343a
00002453
0000001a
0000004c
ffffb8b6
ffffd96b
fffffe05
00002504
0000352b
0000780a
00001788
00002346
ffffd32e
ffffbcfa
ffffff04
fffffb84
0000039e
fffff112
fffff6f9
00000600
fffff994
ffffdf84
ffffe55d
000018f4
0000043f
0000108f
fffff5f6
0000267b
000033d5
0000191c
ffffdbf1
ffffea51
fffffdf3
ffffff2c
000024ca
00001dfa
00003cf6
00008215
0000452c
fffff42c
ffffee86
ffffec31
ffffeb7b
fffffc6c
00000431
000017cb
0000150a
ffffe25e
00000711
00002080
ffffde0c
ffffe662
0000255f
ffffdce7
00001c2e
0000253f
00000d29
00000786
ffffd44a
ffffb0f8
00001b72
00001f2c
0000427e
00000df5
000011ac
000052bc
00000870
00001f3c
fffff18c
000010cb
000002aa
00000a7e
00000463
fffff36b
ffffe2ba
000021b9
00001cb5
fffff576
000011ac
ffffe9ca
ffffe17f
000008ae
ffffe0f6
00002e91
00000e74
00001900
fffff5fd
ffffe0d0
fffff9d0
00000114
fffff057
0000014e
0000352d
00004a26
00002206
00000b8f
0000003e
000003f5
fffff2af
ffffddf9
ffffe8fa
000008bf
ffffdfb7
ffffefd5
000007e6
00001890
fffffe78
000026f0
ffffdd9e
ffffe22e
000026f7
ffffdfe9
ffffeda8
00001878
fffff79a
ffffcf86
fffff375
fffff2e9
ffffde26
ffffc48b
ffffffb0
00000974
00000677
ffffbfda
fffffb70
ffffdda3
000003e2
ffffe81d
ffffe02f
0000195b
00000692
ffffe11d
ffffec91
00001c0e
ffffe17b
0000104d
ffffd7e6
ffffeac1
ffffffe3
00001967
ffffea9c
000013c9
0000011d
fffffdf1
00000a29
ffffcf23
ffffdb84
ffffc2c1
00001221
fffffa25
0000131c
00000882
ffffbccc
ffffee44
ffffc41f
ffffe53b
ffffcc2f
0000204d
00000227
000020d0
000017bc
fffff5a5
000023ed
00002528
00000f54
fffff00a
ffffd910
0000131a
00001739
000009e6
000021c3
fffff95b
fffff039
fffffaa8
fffffc85
ffffd0aa
00000d71
0000057e
fffffecd
fffff1b5
fffff7ed
ffffdb42
ffffbcb9
00000a6c
00000bb9
0000081d
ffffd474
ffffd70f
0000249b
000024ef
00002533
ffffe401
ffffffcf
ffffef3b
fffff70c
ffffd297
00002475
ffffdcb1
00002b3f
00002535
0000133d
0000046f
fffff211
ffffce30
fffff97e
000023f5
ffffdcb8
0000144d
ffffc9a8
ffffe532
fffffb0f
ffffe9aa
ffffca6c
00001bc3
00001036
00000ac3
00000be9
000000cb
00001e0d
0000274a
ffffd685
ffffef8b
ffffdae9
ffffd591
ffffdf8a
00001c6e
00002865
00001a47
ffffd3bd
ffffdbf7
ffffde48
ffffc4be
00000ec3
fffff111
ffffeea2
000014b2
ffffcbd0
ffffc87b
fffff504
ffffc457
ffffef84
ffffeabd
ffffffcf
000029de
0000012b
ffffe326
00000c0b
fffff982
00000619
00000a88
ffffecc7
ffffe7bd
fffff193
ffffd5bf
fffff031
00000de9
ffffdbf9
ffffcf50
ffffb4eb
ffffdc4e
0000103a
000014c5
00000a63
00003142
ffffd2a1
fffffaf9
fffff025
00000da3
fffffc56
fffff928
ffffd776
000003b2
00002932
ffffda90
ffffe4f3
0000069d
0000148f
00000616
00000703
00000db2
ffffff80
fffff5d2
ffffdd3b
ffffafce
fffff834
ffffe8d2
fffffbc0
ffffc1af
00000ceb
0000103f
ffffd6de
fffff2c7
fffffa3b
ffffe22c
00001433
ffffee14
ffffd982
fffff499
000025a3
00001005
ffffef16
ffffe7aa
ffffe433
fffffc9e
ffffe975
000019f6
ffffd8f4
ffffd278
ffffd317
ffffeac5
ffffe97c
ffffdc3c
fffffd8e
ffffee8d
fffffa5e
fffff6d3
00000edf
ffffd9e4
000011bc
fffffa07
fffff7a0
00001e11
ffffe25e
00000986
00001d99
ffffec4d
000017f5
000006be
0000114a
000027dd
ffffd709
ffffe46a
000024d8
000027bf
00001fb6
ffffc9f5
00001181
00000590
fffff968
0000045f
fffff30c
000022b8
ffffd6f7
00001aa7
fffff432
000034c1
ffffec49
ffffd8cb
ffffe26b
00001b54
ffffdcc6
0000254b
00002895
0000172d
00000203
00002766
fffffba1
00001c2d
00000e51
ffffecf8
000005cb
00000963
ffffd4fd
0000131d
ffffd06b
00001a1a
0000336f
000017f7
fffff51e
fffff3d0
ffffe88f
0000062e
00001a88
0000028a
0000388d
00002d75
00000d60
00001a7a
00000c32
ffffe3e5
00001ac4
00000d73
ffffee17
00002793
000007ff
fffff328
fffff2a5
00001750
00000bf6
ffffd639
fffffad0
ffffec77
0000118c
00001dd1
ffffee98
ffffdde6
ffffcde3
fffff52c
ffffde9a
ffffdea4
000025d8
00002cb8
00001de8
ffffe7e1
00000047
000020d5
fffffd3e
00002cd5
fffffe6c
0000263a
00000278
00000ae1
ffffde41
ffffe392
fffffb40
ffffe1b9
000020bb
00000746
ffffed33
ffffe000
ffffea3b
0000173e
00000a8f
ffffc7f1
00000273
fffffc36
ffffff47
00000009
fffff859
fffffe16
fffff9fa
000020f3
00000c0f
00000c00
ffffe77b
00001b07
fffffab7
000028c1
ffffe4d8
ffffe25e
fffff431
00000775
000017fa
fffffbda
ffffef65
00001c96
0000043a
00000406
0000052a
00001fc5
00002594
ffffe8b5
ffffefe1
ffffec3c
ffffe2d2
fffff707
000039f3
00001a58
000011b8
fffff385
00001270
00000afb
fffff968
fffff631
fffff2b1
00000f0d
00000fc4
00001f42
000014c9
00000cd4
ffffee9f
00000483
00001b7c
fffffdfa
fffffacd
0000159a
00000f9f
fffff3f0
fffffc8c
00000a79
000025d5
ffffd91c
000005ca
ffffd616
0000004e
fffff9d9
000007ad
00000128
0000246e
ffffdc39
000012d9
00001d0c
ffffeecf
ffffe924
000015e2
000016ea
00000a9a
00001fad
ffffe0ce
0000224c
0000250d
0000172a
000024ac
000015e3
000003bf
ffffdbe7
ffffea7e
ffffe8a7
00001508
00001340
00001b5a
000010b1
ffffe4b0
fffff705
ffffe3cd
ffffecb0
00002202
ffffd635
00000b9e
ffffddbe
00002895
fffff4e0
00002487
00000f60
fffffb13
00000fcd
fffff25b
000005bd
ffffdfc3
0000203c
ffffef15
00000ef7
000018d2
000011c4
ffffebd5
00000641
000008df
ffffd9d9
000002c9
00000c84
00001753
fffff925
00002451
00002007
0000139c
00001418
ffffe7b8
fffff90b
fffffebc
ffffe0ac
ffffe8cd
00002557
fffff2d9
00001dc8
000009e6
00000572
ffffded9
0000241f
ffffe78d
ffffe22d
00000481
0000046a
0000115e
ffffd319
00000d1c
ffffe553
ffffe6ca
ffffeb65
ffffd2ed
00000298
ffffdf42
ffffe9fe
ffffeda7
00000bdd
00000fc5
ffffeaa9
0000237a
ffffd96c
000006c9
00000708
00001f9d
000007b6
ffffe9d3
fffff1b7
00001a06
fffff7da
ffffdf2c
00000882
00001abf
00000f46
ffffdf5d
ffffe667
0000079c
00000e6f
ffffeb0d
ffffd9e7
ffffe857
0000164a
fffff2e4
ffffea08
00002ac8
ffffe97c
ffffdaa1
ffffd3b4
00001d68
ffffde23
00002366
000014a2
000018f7
00001c6e
00001baf
fffff2ce
ffffea0d
0000126f
fffff723
000006e8
00000a88
ffffd957
fffff2e9
ffffe97b
ffffe3a0
0000085e
00000140
000002d8
000038d5
00003272
fffff0d6
fffff4ed
ffffffa5
fffff397
ffffed80
ffffeac1
fffff264
fffff9b1
ffffe63e
000021f5
00002aa5
fffffbdb
00000e24
ffffe7c5
ffffeb13
0000165e
fffff244
ffffffe3
fffffe9d
fffff352
ffffe3d6
0000029a
fffff0fd
ffffda59
00001a66
000026ed
ffffef55
fffff495
00001461
ffffbd93
00000b78
ffffd273
ffffd9eb
00002699
0000132f
00001fd0
00001224
ffffdaec
00000242
fffff1ed
ffffdca8
00001375
ffffea29
0000066f
ffffe11f
00000240
ffffbb42
fffffabe
ffffd38d
ffffe34e
ffffe8a5
00002df7
00001043
fffff01e
00001f0c
0000155a
00000c84
00001570
00002a87
ffffe777
00003098
00000609
fffff811
000000a8
fffff720
fffffb3a
ffffe4d2
000019f1
ffffd97d
00001ac9
ffffdc00
ffffedc1
ffffc978
ffffcb87
ffffd394
fffff48f
ffffdc31
00001bba
fffffe26
ffffef7d
00001cc9
0000147d
00001838
fffff0ec
0000397a
000008c3
00003249
00000967
00001d85
00000bd6
00000353
fffff98c
fffff671
ffffd597
00000aaf
fffff039
00002aec
ffffda55
ffffd61b
00000cdb
fffff8e9
ffffbff4
ffffffe2
ffffc342
ffffca72
ffffdb7a
00000fb8
ffffdd21
00001289
00002149
0000296b
fffffb31
ffffffc2
ffffe956
000022e2
0000485c
0000111e
00005327
00000f77
fffffa65
ffffe899
00001538
00000959
00001e85
ffffebdf
ffffde9e
00000da4
ffffc897
00001095
ffffcaa8
ffffb999
ffffc96a
fffff759
0000277e
000008ee
fffff1c2
00002f9b
00000315
00001da7
00001b25
00002ee8
000029db
00003e1d
000005da
000038ee
00002bf0
000053af
00002fd8
00002629
ffffe75d
000014d0
000029fa
fffff249
ffffdc06
fffff10b
0000100f
0000140b
fffffeb0
ffffad4e
fffff28b
ffffdad2
0000270d
00001a3d
000024b4
000025f5
fffff7a8
00003327
00002542
fffff494
000010dc
fffff0f4
fffff688
00002ec3
00001d8c
00002307
000032bb
000029f5
ffffde20
000004d5
00000753
ffffda6b
fffff283
0000239e
ffffdd71
ffffebc4
ffffd807
ffffda01
ffffdb26
00001c1f
000023a0
00003537
00004ea2
0000403c
00000ac8
0000028f
0000013a
0000278f
000014fe
00001e29
fffff42f
00000927
00001400
fffff350
0000216c
ffffef39
00000492
fffffbdb
fffff73c
ffffeec8
000016c0
000002d3
fffff9aa
ffffe9cf
ffffd51b
ffffcbe9
0000106e
00001a86
00000182
00003e40
000017ff
00004048
0000332b
00001e82
00001c95
ffffe7ed
00000a26
ffffd00c
ffffbc6c
ffffe9a1
000006da
00001a36
0000246f
00000d7e
00001dc6
ffffeed2
00001359
00001fb1
000013ae
ffffee33
00001d54
ffffe914
ffffc5c4
ffffc63c
fffff501
ffffe364
000024ec
000045bb
00002149
ffffecf8
00001ab5
000016da
00001c34
fffff25d
00001974
ffffcd02
fffffe98
ffffcf56
00000ed0
ffffcb03
ffffe2be
fffffa02
000024c3
0000123e
00002753
fffffca6
00001bb6
ffffd57b
fffff040
0000001c
ffffe881
ffffe641
ffffe18b
fffffc85
00002850
0000313c
fffff79e
fffff352
ffffefb3
ffffd829
0000163b
ffffda83
0000061d
ffffeee0
fffff675
000001e2
fffff6ec
fffff1f1
fffff74e
fffffc90
000007b2
ffffe584
ffffe211
00002482
00001def
ffffe8cb
0000257d
ffffdc11
ffffdb9d
fffff071
ffffe079
ffffce44
fffff1bd
0000088a
ffffc014
ffffec3f
0000010e
ffffe247
000006df
000011fa
00000c42
ffffd92a
ffffe072
ffffbdc8
ffffd7a9
00000586
000011b2
00000663
00001ab2
fffff894
00000cfc
ffffe1bc
ffffd9c6
fffff989
fffffbe7
000003c5
ffffdb0d
ffffef80
ffffbbf9
ffffdf0c
ffffc7d1
000009f3
ffffcba2
fffff26b
ffffea0e
fffff599
00003e8b
00003697
ffffe1b7
ffffedea
ffff9a00
ffffbca4
0000085d
fffffd41
ffffe882
000001eb
ffffec85
ffffdd85
000004fb
ffffebb7
ffffeb08
ffffece3
000038bb
fffff8ed
00000549
0000008c
0000056e
ffffe318
00001354
ffffecb2
ffffd8d8
00000598
000011d8
00004cbc
00002606
00000e33
00000c6d
ffffa976
ffffae22
ffffe3b2
ffffed38
fffffe3b
ffffeff7
00000696
fffff9d1
00001520
000006bf
fffffc07
ffffecce
00001666
ffffec71
00000d69
ffffe699
00001c03
ffffe48a
00000f30
000013e8
0000114b
00002198
ffffe8cb
00001578
0000581b
00004a7a
00001751
ffffb489
ffff91d4
ffffbd97
ffffec7e
ffffd39e
0000052a
0000093d
00000352
ffffdd12
fffffcab
00001167
0000140f
ffffebc7
ffffe862
00002a6f
00002614
fffff4c3
00000327
00002200
00000dcb
ffffee47
fffff5b1
ffffe10f
00000fee
000044c3
000023fa
000054e5
0000241c
ffffbf31
ffffa081
ffff9ec6
ffffb524
ffffde04
ffffd33a
fffff70f
000005b9
0000010b
ffffd6d4
ffffec16
ffffd94b
0000034c
ffffe64c
fffff71b
000034fc
fffff824
0000340a
fffffae9
00000043
0000028d
00002818
fffffbd8
00000a3c
ffffe4a1
00001437
00000f8e
ffffd55b
ffff73f2
ffffb887
ffffa6d7
0000029b
ffffe701
ffffd5d6
00001da1
00000b6e
fffffbe6
0000241d
ffffeb2a
fffff637
ffffdbfb
ffffdbf7
0000071d
00001521
fffffb3e
fffff0ef
00001e27
ffffffa9
00000b73
00000201
ffffce20
ffffff59
000009b4
00001475
ffffff6f
ffff9a46
ffff730c
ffffada5
ffffb609
ffffe74a
ffffe3b3
00001fa7
0000224c
00000255
00000905
000007c8
fffff4f0
fffff5e6
ffffe8e9
fffffebb
ffffe3b4
00000add
fffff667
fffff687
00001057
fffff29c
fffff899
fffff7a8
000004d5
0000102a
00000d74
ffffded0
ffff9f48
ffff9698
ffffc893
ffffdf74
ffffd0a7
ffffe2e9
ffffe074
fffffa8c
ffffdbf2
000012cc
0000014c
0000173c
0000075a
ffffff78
00002340
ffffee6f
000012a6
ffffff60
ffffea67
00000046
ffffe58a
00000c63
00000c2c
0000235e
00000e8e
00003dc1
ffffe17c
ffffb1b4
ffffb5ab
ffffd546
ffffa67f
ffffe9b6
ffffcebd
fffffbd2
ffffe3ba
ffffe884
00002a01
ffffd8c7
ffffdfb0
00001336
fffffc27
ffffe3ba
fffff2b7
0000150a
000032f3
00001981
0000273b
000023d0
fffff115
fffff211
fffff696
00002ec5
00000f13
00000a26
000011fc
ffffbb7e
ffffebed
ffffd886
fffff1ab
fffff20f
ffffe770
ffffdf22
00001204
0000074c
000021cb
fffff5ec
ffffddd0
00000c54
ffffde8e
fffff1cd
fffff299
ffffeee0
fffff9c9
0000064b
00000037
fffff0aa
ffffe65b
fffff9a9
00001c28
000031a5
ffffff89
00001062
ffffdfb8
0000265a
ffffd84f
fffff9c1
000003a6
ffffd93e
ffffe4c6
ffffe614
00000959
fffff570
000021d1
0000003f
00000850
fffff707
00001d9e
0000274a
000016df
00001d70
000028a6
000026c3
ffffd65a
0000154c
00000cc0
00002c1d
ffffe140
000006b3
ffffffe8
000027a7
0000174f
ffffe560
fffff166
00000e55
ffffdcad
ffffffe0
00000eb9
fffffe6d
fffff483
ffffe89a
ffffd9f5
ffffd792
000023ca
ffffe59b
0000185d
ffffe251
00002a10
ffffdd56
00002857
ffffe8a9
00001c89
fffff02e
00001f9d
ffffe008
fffff052
ffffe8cc
ffffdf02
ffffe86f
00000da8
00001b37
00001f4c
00000a5b
ffffeed1
00001c6c
00002a29
00002949
000013f5
00002618
000012cc
0000137b
ffffe269
ffffff67
0000203b
ffffd569
000023ad
000022eb
fffff866
ffffd69b
00000483
00001328
fffff242
00000132
00001c14
00001863
00002460
00000d91
00002a96
00000dc7
0000079c
000029aa
00002311
00000dc2
ffffe39a
000014da
ffffedbc
00001318
00001797
ffffdf9f
ffffdce3
ffffe125
000026fd
ffffd720
00001ca3
fffff6cd
ffffdefe
ffffd99f
fffff8cb
00000e86
ffffde39
000025a5
fffffad0
ffffee8a
ffffdaa2
ffffd3df
00002048
00001f64
000029f2
ffffe1b0
00000cb6
ffffe0fc
00000609
00001ed7
ffffd961
00001894
00001c1b
ffffed1d
000025b5
ffffdb2b
ffffda41
ffffd53c
00000762
ffffeef7
00000885
00001d6c
00002413
00002581
fffff325
ffffda5c
00001ca0
00001623
00000eaf
0000252f
fffff864
00001565
fffffd7c
fffff79e
ffffeeab
0000207b
ffffd07b
ffffe1c4
ffffdbb0
ffffedd1
ffffe173
ffffd812
000013de
000010bd
ffffe039
00002087
00002830
ffffe061
000006b5
ffffe45e
ffffeda2
ffffefc0
ffffeca4
ffffe740
000018da
ffffe610
fffff4d1
0000118e
000018f5
00000514
00001de9
fffff982
ffffded8
ffffc782
00000eaa
ffffd61b
fffff961
ffffed3d
ffffdeb7
fffff194
ffffebac
000024ce
ffffefe1
fffffb84
000003f6
00001b97
ffffecc3
ffffe560
000001cd
00002411
fffff5bd
000012b3
00002d48
00000264
0000291b
00004189
0000287a
000042d5
000049ca
00003edc
00002a3c
0000026b
000005a9
fffff6d2
00000fb8
fffff053
ffffee36
00001706
00001d20
fffff0f1
000029fd
fffff46e
fffff5b8
000024b4
fffffdb6
fffffac0
ffffea49
000017e0
ffffe948
00000608
00000c6b
00002f98
fffffc1d
00000512
fffff794
00002805
00001562
00001ddf
fffff580
00002270
00001807
ffffef54
000003ae
0000038c
ffffd3bf
00001395
fffff9e9
ffffea75
0000111a
00000dee
000019f4
ffffea56
fffff397
000016bd
000003a4
00000ffd
ffffde30
fffff531
000001b9
fffff1bc
ffffedad
00000786
fffff108
00000bf4
000039fd
00001e4a
fffff8ed
000012d7
00001052
fffff90e
fffffe82
00001e0e
000011d9
0000265a
000027dd
fffff98c
fffff248
00002a0d
fffff308
00000ef9
ffffdf40
fffff94a
0000083a
ffffce6c
ffffdd8a
fffff630
000003fc
fffff96b
ffffc809
fffff6cc
ffffe53e
ffffd84a
00001ac8
000011f7
00002f7e
00002a37
00001d9f
00001987
ffffd920
ffffd546
00002283
00001a4d
00001774
000010c8
ffffe5d9
ffffe6a7
00002899
ffffe29f
00001808
ffffcb47
ffffc7fa
ffffcf92
ffffd2d0
ffffc86c
ffffcbb5
ffffcb7f
ffffa469
ffffc18e
ffffc31b
fffff7ca
00002225
00004ac3
0000498d
00004e75
fffffe46
00001bf1
00002c63
0000179d
fffff2a4
fffffe0d
ffffdfb5
fffffff4
000007be
ffffe16e
ffffe109
0000067d
ffffff2e
00000779
ffffc2c4
fffff697
ffffcd53
00000a5b
ffffbc88
ffffb851
ffffdde5
ffffe9b1
fffff157
0000013a
00000f81
000010e5
00002415
0000435a
000041a1
fffffed1
fffffee1
00002a36
00002978
ffffd9ce
fffff683
ffffe2bd
0000020f
00000689
fffff3b2
fffff234
ffffdb20
ffffbe23
fffff78a
00000142
ffffd7ed
ffffc141
000010d1
ffffdc87
000009ed
fffffd40
000004e7
ffffe976
ffffd57d
00002472
00002033
fffff61b
ffffff16
ffffffa7
00000307
fffff646
0000078a
00001eea
ffffef3d
000025ef
fffff4fe
00001424
fffff765
00000e75
fffff380
fffff69f
fffffd24
0000071f
00001607
000005a9
fffff81a
000012d1
ffffd2f4
ffffd711
fffff299
ffffda48
fffff3f6
fffff4fc
0000099e
00002177
000025e2
00002230
ffffe779
00002b37
00002b10
ffffe4b3
000024bc
00002276
000014a2
fffff8d7
00000da2
ffffd58f
ffffb609
ffffc1c8
ffffe2f0
ffffe73e
fffffded
ffffefb6
000034c9
fffff833
000011a6
0000016f
00000c4d
ffffb553
ffffa963
ffffc6c0
00000ad1
fffff040
fffff3a9
00001285
00001071
ffffdde9
000019ce
00000803
00002621
000013a4
00001c75
fffff4a0
fffff537
00000122
ffffe485
00000ee9
ffffcec6
ffffe28b
000025fd
0000113e
fffffa6e
ffffe95c
00002e76
ffffe07d
ffffef06
ffffd50b
ffffe4a0
ffffd2f9
ffffde56
00001321
ffffdec4
ffffeb75
ffffd15c
00002457
0000264b
fffff697
00002720
ffffdf5c
ffffeffb
000002b1
000012c8
ffffd84c
ffffd79b
fffff5b3
ffffeb30
00001f76
0000016e
00000188
ffffe9f9
00001c96
00001ba4
00000e17
ffffcc1f
ffff97bb
ffffca61
ffffe876
ffffde13
ffffd326
0000046d
0000118d
fffff20c
00002139
0000121e
000000b9
00000c2f
ffffd5ed
fffffd45
00001d3f
00002b58
ffffe24a
fffff35e
fffff0af
fffff997
ffffce67
fffff92f
00001d19
fffff376
ffffceaf
00000898
00000913
fffff292
0000042b
fffffc20
fffff3d0
00000395
fffff6cf
ffffe1ef
ffffecf0
fffffe41
ffffe245
00000107
0000296c
fffff35d
fffff8ce
fffff573
00000445
00002604
000020e6
000020b7
000001a4
00001acc
ffffe4c6
00000da4
00001c73
fffffc34
00001394
ffffee8a
ffffe703
ffffe483
00001637
ffffe37b
fffff73e
000004ca
00000098
ffffecd2
fffff1b1
0000061f
ffffed1b
00000a3b
00000034
0000034b
00001815
00001bc7
ffffdbd5
00001e92
00002aed
00004687
00002b21
0000095d
0000277e
fffff719
fffffcc9
ffffefdf
ffffeaf6
ffffe4f4
fffff159
ffffd4fd
000011c5
ffffc1cd
ffffec95
00000b63
ffffccd7
ffffd96a
0000047d
ffffd034
00002c5d
000023cf
ffffe83c
ffffef84
ffffdd54
ffffe39c
ffffdef0
00000f18
0000488c
00002671
fffff499
000017bf
00004554
000044df
00001862
0000197d
ffffe5cd
00000b68
00000942
fffff507
00000829
00000966
ffffc068
00001862
ffffe631
ffffe035
ffffff01
00000184
000017cc
00001b6a
0000147b
ffffed58
000018dd
fffff242
ffffd748
0000298d
00001707
00003723
0000407f
0000496a
000003db
00003ad5
000003ba
00004b52
00002191
00003b82
0000247f
000021ff
00000bc9
00000b94
00000b8b
ffffe32a
000008e0
fffffb27
000026e9
ffffefce
ffffec4a
fffffc30
000010db
ffffe430
fffff053
00001b7e
ffffe2f9
00000ad0
00004751
00000341
00001cb9
00002cc5
00002875
00003bf3
00003558
00001e27
000036c9
fffffa69
fffff44f
00000c67
00000cfe
00001b3e
fffff27f
ffffda93
000002a2
00002375
ffffe949
ffffeda5
ffffe03b
ffffe77f
fffff53b
ffffea14
ffffd5a1
00001d12
fffff954
00000af5
00000bf9
fffffc2a
000030b6
000035c8
00000c82
00000141
fffff355
00000d88
ffffe07e
ffffc581
fffff528
ffffe5e9
000016f2
0000376a
00002612
00002fe7
00000cc1
ffffec8d
0000137f
00000332
00001b37
ffffed38
00002289
ffffe8eb
fffff701
00000843
fffff4f3
ffffff3a
ffffde93
ffffe2ee
000008af
00002fd3
000012ff
ffffeebb
fffff444
ffffee2c
ffffd511
00000454
00001a3a
fffffe4a
00001936
00002b19
0000153d
ffffe6e6
ffffe39c
ffffef47
000025d9
00001e01
000022ed
ffffdf15
00002888
ffffe264
fffff4c4
00002106
0000007a
ffffe89a
00000df2
00001331
ffffea99
ffffd834
00000d75
000023b1
ffffeb5e
00001e03
ffffcfa5
ffffce8a
ffffe3c6
ffffddf8
ffffce45
ffffeabe
ffffe5bd
fffff974
ffffdf3b
ffffffa5
00001dfe
fffffb75
ffffe6f9
ffffed17
00000127
000014a5
00002459
fffff87c
ffffdd60
00001a66
fffff800
fffff821
ffffdaef
ffffd69f
00000509
0000077a
ffffd2c1
ffffd22a
ffffdbdd
ffffe91c
fffffdcc
00000ac5
00000d92
fffff5ff
fffffc02
ffffe741
ffffd95d
00000185
ffffd490
00001d4f
000029ca
fffff96b
fffff341
000019f1
ffffec1f
ffffd8f9
0000078f
fffff5c2
ffffe118
ffffedd3
00001025
fffffb3f
00000abc
ffffcd41
ffffdcaa
ffffd7ed
0000075c
00001269
ffffca05
ffffdb2f
00000955
00000bc9
fffffcd7
000008b7
ffffe057
ffffdc18
ffffebd5
fffffbca
ffffd850
000009a5
00001612
fffffe4e
00002692
ffffeca1
0000081e
fffff646
ffffee7a
fffffc69
ffffdd4a
fffffea9
fffff769
fffffcec
ffffef41
ffffef09
ffffee08
fffff6c3
fffffa79
fffff159
00000ced
000006a5
00001b1e
fffff362
ffffd662
ffffd7b3
fffff868
ffffd93d
ffffe798
fffff627
ffffef73
ffffeab2
000004ea
ffffeda9
fffff8b3
00000654
0000139a
000023c4
0000205b
00002747
ffffd5af
00001a17
ffffd4ec
00000420
000027a3
000020cf
ffffeea9
000018a4
000014b8
00001cee
fffff168
00000a0e
ffffea2e
000000c7
ffffde61
000007ee
00001b24
00001b1c
fffff6b0
00000678
ffffd679
00002b0d
00002758
ffffeca6
00002922
ffffea85
0000234e
ffffebcd
0000167a
00000b77
00001dfa
ffffec1f
fffff37c
000006ba
00001927
ffffef8a
ffffdcd3
00000a5b
fffff96c
ffffda3d
ffffed0a
00000583
fffff7d4
0000231f
fffff041
ffffe660
ffffef12
00000782
0000114f
fffffe3a
000003a3
00000306
000015c1
0000164a
00001f47
fffffc10
000024ec
ffffdc6b
ffffed50
ffffe399
00002a51
ffffe337
00002290
fffff4bb
fffff86d
00001a6c
00001106
00000627
000022ec
0000133d
ffffe5fe
00000730
ffffefe4
ffffdd38
ffffe90d
fffff7e7
00001a74
ffffe916
00001da1
00001c18
ffffeedf
000023b6
fffffdd0
ffffd6e8
ffffda85
00001c1f
ffffd674
fffff3fa
ffffeb2f
ffffe5d5
ffffdf69
000014b6
ffffff66
ffffe699
ffffd7fd
fffff3b5
00002b29
00001118
ffffffe1
ffffefde
fffffd69
00000402
ffffd9c0
ffffdb95
ffffdedb
00000584
00001fd4
00000d11
00000c0c
00000282
0000117a
ffffefb6
00000ffe
ffffe975
0000271a
00001386
00001ad2
00000d32
00000d3a
ffffe5fd
ffffe041
ffffee20
00001490
00000578
fffff52e
00000c14
0000259d
00000c2e
000021f4
fffffd39
fffff035
00001a95
fffffeb7
0000131b
ffffeecc
fffff4b8
000019ad
ffffe33e
ffffefda
00000d48
fffff1ff
00001fad
00001817
00000a8a
00001e03
000007ea
0000271c
00000235
000019d5
000014d7
00002490
ffffeac0
00000f25
fffff604
fffffa36
000014cc
00001024
000000e7
0000244c
000010f6
ffffec59
00000bd2
000018c4
ffffef37
fffff8f9
fffff33b
00002126
00000c92
ffffde65
fffff44f
00001ed3
00001eff
fffffb15
ffffe3ea
ffffdc3d
ffffdbda
0000040d
ffffefb3
0000047b
000000fb
00002809
ffffeac3
00000a8b
fffffeb9
fffffd30
00001c15
ffffef45
000022b5
ffffda21
fffff952
ffffd99c
000012e2
ffffe712
ffffe83e
00001caf
00000c23
fffff53c
fffffcfa
ffffddb9
00000d88
000023b0
ffffe52b
ffffe469
0000058d
00002e3b
000029ae
ffffe93b
00000cb7
ffffdad2
ffffe787
ffffe023
000017d1
ffffd603
00001133
00001e37
000027e2
000024f4
0000207d
ffffeef5
000022fd
ffffef7d
ffffe114
0000234c
ffffe88c
00000743
ffffee0d
ffffd97c
0000242d
000013c4
fffff4d9
ffffe5c7
000006b3
0000283e
ffffe5a4
fffff1f5
00000d22
fffff159
00002195
00001a71
ffffdb00
00001e51
ffffe8df
00000000
fffff5af
ffffd8b2
fffffe2b
ffffd623
00001886
ffffde90
fffff1ce
00001f47
0000211b
ffffdb23
ffffe9c6
0000281a
ffffeeb8
00000be9
0000018e
ffffeda2
00000efc
00000307
ffffe6e7
ffffdc4a
ffffef37
00000316
ffffdb7c
ffffe4e0
fffff138
ffffff19
ffffd627
0000180a
000017e1
ffffff60
000027f9
0000180e
00001cc8
ffffd88d
000024f9
00000377
0000077f
000016a1
00001b5d
fffff85f
ffffe78a
ffffecde
00001b50
00002516
ffffe973
00000053
000018c5
ffffe9d9
0000198b
00000498
ffffe749
00001a3d
000021e4
000003a3
fffff344
00002915
00001850
00001ec8
00002a16
ffffe2e3
ffffdf2f
ffffe06e
ffffdc97
ffffeb66
fffff583
00000570
ffffdec5
fffff176
fffff8be
ffffd88a
00000c39
ffffdd6d
ffffd93c
00000395
ffffebe9
fffff80e
ffffdfd1
0000055f
ffffd67c
ffffd707
ffffe2bb
ffffddf7
ffffe521
ffffd756
00000f29
00001685
ffffdc5e
ffffe76b
ffffe008
0000226e
ffffe0a5
00002900
ffffe246
ffffd760
ffffe636
00001d95
000026ab
00001600
fffffb00
ffffdeee
ffffdc51
ffffd7b0
00001d60
fffff598
ffffe04e
00001287
000009f6
fffff7c9
ffffd614
00001af9
00001b1d
00000bcf
0000150b
fffffc8a
00001ff8
fffffd97
00002ad1
00002931
00000f80
ffffd845
ffffdc2c
00001674
000028af
00000e0f
ffffedd7
ffffd54a
fffff06b
ffffea8c
ffffd9dc
ffffdb0f
fffffb2b
00000802
ffffe629
ffffe826
ffffe68a
0000211f
ffffe83f
000010a0
ffffd8c5
00002311
fffffc2e
ffffea80
0000167d
00000555
fffffd28
ffffde59
000002c7
ffffe798
00002488
00000346
000002e9
ffffe686
ffffdb5c
fffffccf
000005fc
ffffed6f
ffffe7aa
00002b9a
ffffe490
ffffda21
ffffe0b1
0000298b
000000d2
fffff2f8
000010df
ffffeb1d
00000891
ffffec3e
0000200d
fffffce6
00002ad6
ffffde7b
000022d3
000019bd
000000ea
0000160a
00000291
fffffbca
00002144
0000206f
0000049e
00001904
ffffdbdc
0000078e
ffffffa5
0000140a
00001d6c
fffff0b6
00002976
00002569
fffffcf0
00001652
ffffe0c4
ffffd7f2
00000039
ffffe723
fffff3a3
fffff330
000028f5
000015e6
00002a4a
ffffe6d8
ffffff9d
00000ef4
00002a3e
fffffb44
0000056c
00000f1a
ffffdf7f
ffffdb99
00000a56
ffffeecd
ffffea71
ffffea1a
ffffea82
fffff366
000003ce
00000de9
fffff926
fffff283
ffffefc1
ffffd4fc
00001cda
ffffdecd
ffffda91
ffffef61
ffffe110
fffff3a7
00001279
ffffe566
00002565
00001fa3
00000c20
00002bd7
0000127a
ffffdede
ffffd67b
00000cf5
000025f4
fffffb1b
ffffe814
fffffaed
ffffee01
ffffebfa
fffff521
ffffe50f
ffffd96f
ffffda1d
ffffecb2
ffffd7f4
0000257d
ffffe5b9
00000a33
0000063e
0000135f
fffff22c
000007f9
ffffd62f
00000d27
00000de0
ffffe16f
ffffe015
ffffe994
0000134b
ffffdf75
0000160d
ffffd6af
fffff7d4
ffffedeb
00001d2c
ffffda6d
00000609
000027a9
00002658
0000229f
fffff3e9
fffff95d
000000af
000015fe
ffffedbf
fffffcef
ffffe2e2
00001608
000007dd
ffffe860
00001b52
fffffef2
ffffdef4
ffffe1c6
00002181
fffff155
0000094b
ffffe21f
000016f4
0000081e
ffffdf32
00001b89
00001216
fffff6a8
ffffe483
fffff2d8
00000cd1
fffffb4e
000024c7
fffffa84
ffffdd1b
ffffef8f
ffffeffc
000008db
0000077f
ffffeca6
00000b5a
fffff0d9
ffffec47
0000211d
0000200d
00000b22
000008e6
ffffd9df
ffffebeb
fffff994
ffffee8b
fffff392
ffffd3b7
ffffd5e8
00000a3f
ffffddf1
fffff939
0000289e
fffffa95
00000e5b
000010ac
000029aa
fffff4db
ffffda47
fffffc07
fffff45d
ffffe85c
ffffe792
00001775
ffffdb99
00001d6b
00001c9b
0000052a
fffff2d1
fffff7d4
fffffced
00002099
000000eb
00001bde
ffffdf94
00001a61
fffffe99
00002b7e
00000bfb
00002a54
ffffeaa6
ffffeb8d
00000366
fffffc5d
000009cb
ffffecdc
ffffe2bd
ffffeaf4
000002f0
00000c24
ffffe30a
fffff4d3
0000202d
0000153b
00001129
00000631
ffffe2fb
000019ab
fffffdac
000007fd
fffff571
000003b2
ffffe806
fffffd0c
ffffeb2a
ffffd80b
00002682
ffffe607
ffffe278
fffff19e
ffffdfe7
0000083f
00001edb
0000168a
fffff4f8
fffff8bc
00001f5b
fffffe22
ffffd786
000012c7
00001311
ffffebad
0000105b
00000025
000021fc
000005a4
000000ad
fffff7a0
ffffdd76
ffffe011
ffffd7a2
ffffe632
ffffdf0c
000024ed
00001883
ffffdfd1
fffffea6
00002958
ffffdfae
fffff392
ffffd992
ffffd922
ffffed61
ffffea2a
000024c9
000015ce
ffffd7b6
ffffd688
ffffe6e9
0000203b
ffffebc7
ffffe028
fffffb55
00002594
fffff197
00001513
00001af4
00002a22
00001063
fffff995
000002c4
ffffe754
00001813
fffff3ce
000013f0
fffff4c7
ffffe375
fffff2b5
fffff9fa
000019b2
0000000e
ffffed48
ffffe7fa
000015bf
000029c5
ffffd7f8
00001542
00000ba1
fffff353
ffffff42
000004ad
0000126f
ffffdb27
ffffed5e
ffffefcd
ffffde6e
0000244f
0000290e
ffffe6f1
00002a23
000015a5
00002835
000012b4
00001719
00002443
00001b78
ffffe11f
00001412
fffff79a
ffffed1c
0000173c
000011d8
00001e94
0000107a
fffff482
00001a74
00001de0
00002823
fffff931
ffffef6f
fffff83d
fffff61a
ffffdc5c
fffffc9c
0000209f
ffffdfd7
ffffff6d
000016cf
fffff80e
ffffd8b1
fffffada
ffffe450
00000c53
0000182f
0000154b
0000098b
000001c8
fffffb59
fffff0e1
ffffdd79
ffffe968
00002942
00001361
ffffd605
000009d6
00001f57
00000e74
00001bda
00000ea6
ffffdbb5
00001469
0000159b
ffffd84e
0000150e
0000093f
00001b75
ffffe936
ffffdc5a
00002554
0000273f
00000537
00000603
00001858
000002c8
0000012a
000009be
00000e2c
ffffeaec
0000242a
ffffe849
ffffdef7
00001a20
ffffeebe
000006f9
ffffefc8
ffffddc3
000002a5
fffff170
ffffeb35
ffffdc81
ffffdf56
ffffde30
fffff15c
000011cc
fffffcb1
ffffedfc
ffffd97b
00001beb
fffff249
0000074c
fffff9e0
ffffdf22
000026aa
00001789
0000156b
fffff4cd
fffffdc1
fffffa53
00001e6f
fffff512
ffffd8d9
fffff866
ffffeef1
00001383
ffffdf0a
0000191a
ffffdf05
ffffd84a
00001a4c
0000153f
fffff331
00000f26
000012d4
ffffd771
000029f5
fffff285
fffffa44
fffff0ec
fffffef9
00000a46
fffff1aa
fffffefa
ffffddce
ffffd5df
0000291a
000029b2
0000005a
000015fc
ffffeb0e
0000209c
00001df0
00000c03
00002a0c
ffffdc95
000029ea
000008f3
00002042
ffffd8da
00002c2e
00000e42
00000986
ffffe49d
00001d34
fffffb79
000015de
0000214d
00001ccd
00001c25
fffff928
ffffddfe
ffffe4a6
fffffa83
00001127
000019e2
ffffd675
0000092f
00001b23
00001808
00002945
000023fe
ffffdf1c
00001c58
ffffe6c8
fffff9c4
00001ac3
00002c60
00000cc4
00001989
00000e46
00000e72
00000014
0000080c
0000110e
ffffd0f0
00000a64
ffffe14b
0000033c
fffffda4
ffffd8f3
ffffe7c6
00001b23
00002295
00000c10
000025ad
ffffe487
00002647
ffffec5b
00001f65
000012a7
ffffe646
ffffe64d
000028ae
00001133
00002db7
00000f2b
ffffe89c
0000255c
00001398
fffffbda
000004b5
00001131
ffffec19
0000114c
fffff7aa
fffff550
fffffe31
0000132a
000029a2
000000be
0000281d
00001672
000003bc
fffff0ac
fffffdbd
ffffd97c
fffff889
ffffe840
ffffe1ab
ffffd6fa
00001dce
fffffe7f
ffffe3ba
000041b1
0000114d
fffffa88
fffffbb4
00002882
ffffdd8b
00001973
fffffbe3
ffffdd39
00001089
ffffe629
00001ea9
00001142
fffff034
ffffde01
00002786
fffff63b
0000052e
fffff082
0000243d
ffffd50e
ffffd67f
00001e90
ffffe6d4
00000e5e
ffffde42
000011db
ffffdd0c
0000012d
00004c0e
00001e90
00003372
00001e37
fffff638
0000175a
00001996
0000011e
ffffdaf3
ffffdedf
0000002f
fffff1a2
00000046
ffffe6a1
ffffe10c
00001158
ffffe51f
00000f20
ffffeda6
000005db
ffffd7ef
ffffef93
ffffec29
ffffd6ab
ffffd9c6
ffffc6e8
fffff310
0000216d
00000c94
000011ac
ffffef63
ffffde6a
fffff9c7
000002ae
0000154c
00000264
fffffd51
ffffdfc7
00001cfb
fffffd3c
ffffe401
fffff794
00002897
000012a5
fffffa66
0000073a
ffffe578
ffffef83
000013b8
ffffd404
fffff041
fffff96b
ffffc780
ffffbf7d
ffffe425
0000224d
ffffffe4
fffff0c5
00002adf
fffffd5c
000024cb
00001e4d
ffffe44b
fffff45f
ffffe6bb
00001749
00000f07
00000a0f
00001eb1
ffffd9a1
000015b4
ffffd47b
00000535
000003a2
ffffefe3
00000737
ffffdc03
fffff6fb
ffffe561
00000d0a
00000d2c
0000099e
fffff792
fffff441
fffffb05
00001fa3
ffffe82e
000003a5
000009fc
fffff77c
ffffec65
ffffd78a
00002438
ffffd807
00002a5e
ffffe0ba
ffffe6eb
ffffdec3
fffff320
ffffe96a
00001de5
00001cda
ffffcaed
fffff8d9
ffffeee7
fffff7ad
ffffdfa6
ffffccfc
ffffd44f
ffffd8cc
0000113c
00003411
00002fdf
00000b7a
fffff814
000008de
00001a96
00002235
fffff09e
00002459
ffffd42c
ffffdbde
ffffeb1a
ffffe2c2
00002358
0000004a
fffff370
fffff0eb
00001206
00000327
000010e5
ffffcca1
ffffce6c
ffffdd52
ffffc82e
00000eae
ffffbe1d
ffffd0e3
ffffc287
ffffebf7
fffff9df
0000201c
00000806
ffffdf47
0000069f
0000242e
00000e58
00000476
ffffef9d
ffffe440
000023f7
ffffd673
00002734
ffffeeab
ffffdadc
fffffb84
ffffe9bc
ffffe0e3
ffffcf3e
ffffe1eb
000019cc
ffffd2f9
ffffd525
ffffcb00
fffff740
ffffb850
00000e76
00002378
00003aa6
ffffeef9
ffffe820
fffff59b
fffff422
0000060b
00002673
00000931
ffffed5e
000009da
ffffd931
000019b2
00002461
00002068
00002572
ffffea67
ffffff14
fffff0da
ffffde69
ffffd892
00000fc5
00000722
ffffccdf
ffffda79
ffffdeef
fffff5cc
00000b55
0000135e
000032d1
00002c23
00000e51
ffffe32f
00000e7c
fffff1fc
fffffbc0
00000821
fffff9aa
ffffdd75
fffff659
000011a7
00000bfa
fffffc99
00001761
00000f5f
ffffebab
00000b26
00001d2f
ffffed21
00002679
0000232c
ffffde6c
00000456
00000643
fffff949
0000068b
fffff337
00002168
00000d8b
ffffe47f
fffff074
ffffe4dd
fffffc00
ffffec04
ffffe383
fffffbd4
fffffb39
00001ed9
ffffee85
00001e03
000008a1
ffffe41c
00000c36
ffffe10b
00001723
0000225f
000011a3
fffffc83
ffffedd0
ffffff7a
0000171c
00000f73
000014f6
00001c53
00001bbd
0000275a
ffffe69b
ffffe63b
00001fa4
00000074
00000ad5
00000d83
fffffcde
ffffde87
ffffe790
ffffd904
ffffd98d
000018f5
ffffe8a7
ffffd7a1
ffffe1e1
0000292e
00003936
00002ea2
ffffff2a
0000198e
0000175c
00003a22
00003488
00001cc1
fffff83b
fffffe50
ffffe67d
fffff92c
fffff287
ffffef82
00001fa9
ffffda9d
ffffdbe6
ffffdd35
00001052
00001748
fffff903
00000e4f
ffffd8d4
00002530
fffffc3c
00000b56
0000050b
00002277
00002680
000034f6
000008e9
000021d2
00002da9
00000497
00001305
000009cf
ffffe017
00001e6e
000002ac
00000c6e
00001240
000016c8
00001043
ffffef4d
fffff8e6
00000a8d
00000b97
ffffde89
00000011
00001c15
00002524
ffffdd5f
000015f5
ffffd966
fffff2c7
000018c9
fffffaab
00000891
00003065
000033f1
fffff792
000007ef
fffffaac
00002e17
00002399
00002ca7
ffffef70
0000188c
00000398
0000014a
ffffe7b7
fffff21c
ffffe620
00000ffa
ffffe229
00002061
ffffe78d
ffffe152
0000158f
00001520
0000106e
00001cda
00001a69
00001d58
fffff378
fffff624
0000372a
fffff306
0000235a
fffff19d
00001af7
ffffe60b
00001794
ffffed91
ffffe259
ffffe1cf
ffffe40b
ffffe1d3
000019d0
fffffb14
ffffe695
000018b3
0000070d
00002018
000020a4
fffff5fc
000012dd
00000bfe
0000109b
fffff8d1
00001e0c
000018be
00001308
ffffebdb
00000fc8
00003008
00000216
00001f71
00000899
ffffebec
00001690
ffffecc1
fffff091
0000034d
fffff6ec
ffffee94
00000b8a
000007b0
ffffdee4
00001e3d
ffffe0a1
00000043
0000023f
fffff380
fffff946
fffffa24
ffffdc96
fffff54a
fffff9d5
ffffea9b
ffffe440
ffffe953
0000212d
00000fd5
ffffe94b
000001d9
ffffec84
ffffd457
ffffeb1a
ffffe334
ffffe587
ffffca2b
ffffcd0c
ffffede7
ffffe0eb
ffffe576
fffff943
fffff04a
00000a65
ffffed10
ffffe091
00001dc9
000023a5
ffffec8e
000026ee
0000098d
ffffde0b
ffffe752
fffff87b
ffffe741
00001d47
ffffcc8d
ffffd4fa
00000e2c
fffff6b9
ffffc905
00001e85
00000348
ffffdc50
00000eda
ffffd570
ffffe451
ffffe5fe
000026d0
000013a8
ffffdfc3
ffffe848
ffffea56
0000063c
ffffeb26
00001dbf
00000f03
00001ef7
00002a23
ffffe1ac
00000275
000019b5
ffffee71
ffffe007
fffff730
ffffe875
ffffc4e4
000009df
ffffd1d6
ffffdc41
00000407
ffffcfdd
0000092c
00002091
00001324
00002d58
ffffee29
fffff25d
fffffd65
0000189f
ffffeddf
00000169
ffffe633
fffffcf0
000003b1
ffffd53a
ffffdbaa
ffffd929
ffffdb92
00000a27
0000297f
ffffee8f
fffff9ca
fffffdeb
00002023
ffffda15
000012f3
ffffeec6
000016ea
00000eea
ffffd7fb
00001522
ffffe3e1
ffffdc28
000002a8
000004b6
0000033c
ffffece4
00000022
000003a7
00001dc5
ffffe5e7
00001ae6
ffffdcfa
000012d6
fffffe82
ffffd532
ffffeca3
ffffef14
ffffec13
ffffdf5a
00001365
ffffd24b
0000022c
ffffdf42
ffffdb51
ffffe8cb
fffffce8
000015a5
ffffeff0
00001643
00001037
fffff4fb
ffffd742
ffffdaa6
00001038
00001ad3
fffff0aa
fffffd45
ffffdc36
fffffca8
ffffef69
00001a16
00001ead
00000dd7
ffffeafc
00000aea
fffff60c
000002bd
fffffc8e
ffffddd1
ffffeb58
ffffe5e2
00001c61
00000664
0000072a
fffff52a
ffffd20c
ffffd8e2
fffffb92
ffffe17b
ffffeee7
fffff548
ffffff4c
fffffd36
00002548
0000112e
ffffd9ae
000002d3
000026f0
0000075a
fffffd5a
ffffe486
fffff764
00000224
000006ff
ffffe92c
000006ba
fffff3aa
ffffec99
ffffff70
0000089c
0000079c
fffff3ca
000011c3
000005a5
ffffee8e
ffffd191
ffffef60
ffffe22c
000014fd
00000032
00001ffd
00001af9
0000197e
000017f3
00000f89
ffffea75
ffffede7
00002818
fffff020
ffffde52
000008e5
000020ef
ffffeb48
000025ee
ffffea3d
ffffe2fb
ffffdee4
0000204a
0000119a
fffff50d
ffffe30e
fffff323
00000775
000017af
000024cc
000028fb
000029ac
ffffe3e5
ffffee56
ffffe953
00001f93
fffff3b2
000014ee
ffffd53a
00000731
fffffcbb
fffff84e
000004cc
00000386
fffff05e
ffffd718
ffffe909
ffffdf76
00001b3f
ffffd77d
0000002c
ffffdae4
fffffb7c
fffff733
00000839
000003f7
ffffdf70
00000c9c
fffff0d1
00002776
00000be0
000004e4
ffffe262
fffffbcb
ffffe9c4
000029ee
00000a8d
ffffeef8
00001ce9
ffffec49
fffff3f3
ffffe80a
00000586
ffffe68b
ffffd590
0000282f
00000b88
00000db8
ffffddcb
00001761
fffff709
fffff26f
ffffd9ec
00002736
00001cd3
ffffe8c6
ffffe0a2
00000163
fffff647
ffffd7f7
00001f94
ffffde72
ffffe88c
00001936
ffffe942
fffffbe9
ffffde24
00001b3d
ffffed45
fffffd13
000015f5
ffffe32d
00001b25
0000139e
ffffea78
000029e1
fffff591
00001cad
0000101a
0000028c
ffffd8dd
ffffe6d3
ffffe61e
ffffd9c9
ffffebd3
00001e39
000010bf
00002305
ffffea72
ffffde94
fffff228
00001929
ffffdf33
00002252
00001efc
00001c0d
000023bc
00000ed5
fffff353
ffffdd41
00000ed6
ffffed4a
fffffb48
ffffedd6
00002c1b
ffffec97
ffffdac9
00001bd3
fffffdb0
ffffd523
fffff824
ffffe629
000014e5
ffffd759
000006b3
00001825
00002ad5
ffffeb02
00002669
00001090
fffff884
0000212b
00000ec8
ffffea80
ffffde76
ffffed14
000003de
ffffe549
000017cc
000016ad
00002876
ffffec79
ffffff59
00002c0b
00001f57
000013c1
ffffea58
fffff30e
ffffd3ff
fffff200
00000abf
ffffe8dc
fffff0c2
fffff5a3
000005ca
00001c38
00001239
fffffae0
ffffe1b3
fffff4ba
fffff423
ffffdbba
fffff83b
ffffe71d
fffffabb
000034ed
0000273b
00000cb9
00000def
000020b1
0000309e
ffffedde
000024fd
ffffea8c
fffff484
ffffdb6a
0000118b
00001f0b
0000059f
0000137b
0000153c
ffffe1a8
ffffea42
ffffe380
ffffe5d8
00001c80
ffffeca1
ffffd8c1
00002526
ffffe957
0000280e
0000208e
fffff34a
00002439
ffffef3f
fffff5e3
00000f20
fffffb61
000007eb
00000354
00001e58
fffff72e
ffffe49a
ffffdaee
fffff799
fffff628
fffff54f
00001890
ffffdb45
ffffec8a
ffffeabf
000005d6
000002ba
fffff949
fffff340
00000188
000006ea
000007e5
ffffe51e
00000ab3
00003358
00000a51
fffffd73
000006b5
00003336
0000222c
ffffea70
ffffdc30
ffffcdb5
000013d0
00001d39
ffffe112
ffffdab4
00001c20
000002f0
fffffa9e
00001c5d
00000a76
00000586
00002ac3
fffff8f3
ffffe5c9
0000289c
ffffd5a5
ffffd83f
00002086
00002571
00002659
ffffeaf9
000005b0
fffffbd2
0000057f
00001ee7
fffffd57
ffffd6ec
ffffd8ed
ffffede2
00001785
ffffe8c5
00000fc1
000009a5
fffffc6c
00001218
ffffe801
ffffffa1
00000f3c
ffffe801
000011a6
ffffd54e
00001268
ffffdad8
ffffd66e
ffffdda7
00000fb3
00001b64
00002e21
0000053b
fffff352
00001083
fffff18b
ffffe17c
ffffea83
ffffc51f
fffff6ac
00000046
00000855
ffffd83e
ffffea27
00000d5c
ffffd4c6
fffff559
00001901
00001f1e
00001917
000008c5
fffff1db
fffff1f2
00002983
00001182
fffffe6a
ffffe0bb
000004fb
fffff1b2
ffffed86
00002a22
00002a72
ffffe51c
fffffb0f
00000178
ffffe780
ffffefde
ffffcf8c
00002789
ffffe2ba
fffff0d2
00001e6c
00001b7f
fffffc8a
000005a4
ffffe013
ffffe405
000016c2
ffffe2c8
ffffe246
fffff8f8
fffffe69
0000076b
00001f83
000025af
00002837
fffff28b
ffffeb9b
00001d74
fffffec1
ffffe346
00001cb4
ffffe413
fffff8cc
ffffe768
00001b3a
00001750
fffff612
000038e8
00001311
00002986
ffffe827
00001961
0000240a
0000099c
ffffdbdd
0000194c
ffffe1a2
ffffed82
00000a37
fffffc51
00000c1c
000025ee
000020ba
00001f86
ffffff72
ffffea67
00001712
ffffe3c8
fffffcd5
ffffd52c
00000c5c
ffffe46f
ffffcf0c
ffffe979
00001091
fffff2ea
00001d42
00001b40
00001a9f
000003f0
ffffdf92
000009d5
000015be
000022d2
fffff000
ffffd6b0
fffff356
00001472
00001d5c
ffffdbff
0000052d
ffffe482
000000c9
00001325
ffffe280
ffffe641
ffffe71d
ffffc911
00000fe5
ffffe7c9
ffffe8ba
fffff221
0000072f
000011ba
00001c50
fffff0eb
00002960
0000097d
ffffe734
0000220f
fffffe70
ffffe68f
000012ae
ffffdea2
0000226c
000014b6
000003ba
ffffe919
ffffffa1
ffffe8df
000027ce
00000208
fffff839
fffffc25
000001b2
000013b9
ffffe594
00000bd3
fffffcd6
ffffdc7e
ffffe3af
ffffe2a3
fffff3fa
fffffe4c
ffffecc2
ffffdf17
fffff319
fffff282
00001fb8
ffffffa6
00000da3
000008be
0000018c
0000275f
ffffe433
ffffddfd
ffffdb81
fffff13a
00002983
00003295
fffffbec
ffffdc5f
000010fc
000016f4
fffff341
ffffcf4c
ffffde79
fffff2dc
0000242f
00000850
00000535
ffffd1ed
00001e44
00000ddc
00001538
00001791
00001bbe
00002041
fffffcbb
ffffe8c0
0000168f
fffffea9
00001be2
ffffdebc
000009d5
fffff5b0
00001662
000023f3
fffff820
ffffcbcb
00001c98
000019b4
ffffe865
ffffd8eb
0000014d
00001c87
00001263
ffffd3df
fffff631
00001b7e
0000213b
0000062e
ffffebd0
00002b96
ffffedd3
fffff621
fffff62e
00002ad6
00000e7f
fffff145
00001d5c
ffffefa4
ffffd34b
0000233d
00002e23
00000979
00002755
ffffd62e
fffffa54
ffffca21
ffffbf84
fffff8b4
fffff387
fffffd6c
fffff659
00002192
00000cc9
ffffff8c
00000ea5
00000d82
000010c1
00000397
ffffe68d
000016f4
ffffd8b1
00001eec
000026c1
00001016
000004df
00001d1a
fffff44e
00002132
ffffdc01
00001fa3
00000b16
00001d17
00000ebc
00001e41
ffffdbd6
fffff690
00001fb3
fffff8e8
00000310
00000938
00001568
fffff16c
ffffdee9
000003ef
0000091a
ffffe81d
00000d3c
0000208b
ffffdce3
0000054c
00000774
ffffda15
ffffedb0
fffff1e5
000028bd
ffffd80f
00001b04
ffffe95d
ffffe9dd
00002120
ffffe52a
ffffebe0
000014fb
00001275
ffffdf4f
000022f9
ffffebca
000013e4
00001083
ffffd20c
00003124
00001c32
00000a9e
fffffeea
fffffca1
000020b1
000023d6
00000575
fffff864
00000738
fffffb83
ffffdaaf
fffffbe1
00000bfc
00000f2a
ffffe562
fffffcd5
ffffe35e
00000d84
ffffd9a3
ffffe02f
00002e4e
fffff09b
00002ed4
00000ea4
00000a76
ffffda39
00001221
000019c0
000019d4
ffffe65a
00001e8f
ffffd90a
ffffe9d5
00002ae5
0000196d
fffffaad
000013c0
ffffe8c7
ffffecb2
000028bb
00003004
ffffe9a2
fffffb4d
ffffea91
fffffd8b
0000163e
000016a6
000017ca
ffffe250
00002cf1
00002d1c
ffffe725
fffffe87
000003ae
fffff403
fffffa66
000033c0
ffffe029
ffffdec6
00002e0c
00002aee
00001f5e
ffffd5b2
ffffd59a
ffffed50
000011d7
ffffeefc
000013f9
ffffecd0
00002f73
fffff0f4
00002828
fffff5fa
ffffd871
00001cd9
ffffd57c
00000c29
ffffe837
fffff52b
00001fdb
fffff2ee
0000112f
000011de
ffffe7e0
00001845
00001ded
000029d4
fffff3a8
00002771
00000637
fffff5c0
fffff14e
fffff4a7
000006d2
fffffee2
000028d9
00002171
ffffe6ea
ffffe2cc
ffffeca9
ffffe463
00001a02
00001bf3
ffffda27
fffff8d0
fffff0d5
fffff70b
ffffe97c
ffffda1f
00001801
fffff3a1
00000e01
00001669
00002569
00002a28
000028fe
000015f3
fffff952
ffffeb78
00001b9c
0000035c
00000fa7
00001460
000014b7
ffffe972
00000905
ffffd5cb
00000a61
000001ec
00001f2e
ffffdf9a
fffff333
ffffe544
ffffdeec
ffffd607
00000781
ffffea3b
ffffe5e7
00002363
0000032e
ffffe2b6
000025de
000022ab
000014c2
ffffdc3d
fffff802
000009ca
ffffdf44
fffffc06
ffffe186
00001645
00000772
ffffd932
00001f34
00000021
0000283f
fffffee8
fffffde9
000008a8
ffffe6ac
0000270f
000001fd
00001b0d
fffff6e1
00001b90
ffffff3a
ffffd6cf
fffff392
000023be
ffffdbee
000001e2
0000163d
ffffedb9
00000907
ffffe4b3
ffffd53a
fffffb25
ffffd966
fffffea6
000007de
ffffe7e8
00000ab6
ffffd7e0
ffffec6f
00001b98
fffff076
00001283
00000e40
ffffef01
000010aa
0000189a
ffffefd0
0000196f
fffffbab
00001be4
000013bd
fffffc5f
00001949
00000bd2
ffffed49
fffff4f1
00000a55
fffff00f
00002a02
ffffd9ba
fffffc0e
000005a1
000008bb
fffffee1
00000c9e
00001643
ffffd962
000003cd
00000082
ffffda91
ffffeff0
ffffdcd1
00002342
ffffda46
00001e02
000002ab
ffffff0d
000006a3
ffffef59
ffffd5dd
ffffde82
00002371
000004f0
00000a4f
000008f6
00002128
000018dc
00000b62
0000274e
000010d6
00001a5c
ffffe1db
ffffe520
ffffeecf
00001377
00001833
ffffdca6
fffff549
ffffefb0
fffff977
ffffdad7
000013cd
0000063e
ffffec39
0000135d
fffff3b1
000019fe
0000166c
00001f5d
fffff57e
ffffefd4
fffffec9
ffffdc7e
ffffe14c
00000907
00000a52
0000080b
fffffdb6
000019a6
fffffbb6
fffff709
fffffc78
fffffd35
fffff7b7
00000b1d
fffffb77
ffffd2d6
000021b3
000023ef
ffffd213
fffffb19
00000335
00001b85
0000151e
00001a67
000005ed
ffffe1e3
ffffe8b6
ffffdb89
ffffd5f5
ffffe54a
000018d9
00002280
ffffee11
fffff069
fffff32f
ffffda8a
ffffe917
fffff7e7
ffffe2b7
00001fee
ffffdcb9
ffffe765
000017eb
00000123
ffffdced
fffff4cb
fffff55e
000018ba
00000402
ffffdf59
fffff72a
fffff47b
ffffe689
00000de7
000018e0
00001daf
000018d0
000022a8
000002e9
ffffdbcb
fffff92d
ffffda2d
ffffeca5
ffffd840
000027d9
fffffa65
ffffd26a
000006fd
ffffdf1e
ffffe111
00000066
ffffc4ee
ffffd6c3
0000021c
ffffe9c2
ffffdced
fffffe54
00001ddf
ffffe358
00001eba
ffffe3a5
ffffe2fc
000003a9
0000141f
ffffe794
00002828
0000126e
fffffb47
0000119b
00000ed6
0000287b
0000136d
000028b8
00000e9e
ffffe4b2
ffffe5a4
ffffd4f7
000004df
ffffe16d
fffff065
ffffee2b
ffffb959
ffffb9fb
ffffde4c
ffffdb4f
fffff058
0000166b
fffffe76
ffffeb3e
000022c3
00001ccc
00000c34
fffffc8b
00001899
ffffdeb2
ffffdaa6
00002721
fffff8fa
000001c8
ffffff95
fffff0fc
ffffec87
00000649
ffffe90b
000006b3
fffffb0d
000020d0
ffffe2ad
ffffea79
ffffd020
ffffd987
ffffe18a
ffffe364
fffff0b6
ffffb315
00000341
00000313
00001a69
0000249a
00000dd6
0000251e
0000161d
ffffefd7
00000604
0000140f
ffffdb19
00001f36
00000c5d
00000d89
ffffe96d
ffffda62
ffffd34c
00000b68
ffffd67e
00000278
00002749
00000517
0000177d
ffffe080
fffff098
00000360
ffffe846
000008e7
000004ff
00003611
0000148b
00001863
00002ced
0000069f
ffffe91e
ffffe32a
ffffee73
ffffdef4
ffffe0f3
00001edc
00000924
ffffd322
000017e5
fffffcb5
000011e4
00003696
00002340
ffffe5eb
ffffe66b
fffff88a
ffffd7c3
ffffead9
ffffcb35
ffffffdc
ffffd38e
ffffc974
fffff3ec
00000187
0000073f
00001473
00003324
fffff61c
0000079c
0000256a
ffffddf0
000004c6
00001833
00002c69
ffffe21d
fffff9c6
000011a7
ffffe630
00000912
00000368
ffffefcd
00000b32
00000d1f
fffff108
00001f34
ffffe8d7
ffffb5c8
ffffdc01
fffff352
ffffe52f
00000dd2
00003121
00001c27
000013aa
00004214
fffffa9f
ffffefba
fffff588
ffffe0c3
fffff9b2
ffffd9c9
00001fd5
ffffe4d8
00000f16
0000035a
000019eb
0000162a
0000286e
fffff081
00000b4a
00001254
ffffdd03
fffff6f2
0000043d
ffffff88
00001237
00001230
000005a6
fffff5d1
00002e60
00002ab9
00001c3f
000025ff
ffffe5b3
00000f9f
ffffddc1
ffffe6c1
ffffe763
ffffed3a
000027be
00000695
000000cf
00002720
00004197
00001e3e
00003730
fffff4db
00000e31
0000278a
fffffb84
ffffc3f9
000014c9
00002edb
00000e17
ffffe42c
00002b7d
00002a42
fffff623
000037a3
ffffea4e
00001c14
ffffd797
ffffd540
000023e4
00000889
ffffe5d8
fffffa91
00000e5f
000026ef
0000321b
00003d46
00001202
00004a88
0000384a
000023eb
00001661
000059ff
ffffdc1c
fffff29e
00000a29
fffffc80
ffffecd7
0000288e
0000220a
00001eae
00001197
00001fe3
fffffd61
fffff458
ffffdb7e
ffffd8c3
ffffe0ec
ffffdb88
00000a17
fffff82a
ffffe866
fffff3c0
000024a8
000043c8
00003815
00006616
0000231e
000014fe
000017bc
fffff09f
ffffe7c7
00000c03
000034e5
000014b8
00002827
000013ab
00004473
00003608
0000108f
000007d7
ffffdd37
00001761
000008d4
ffffe09f
0000258d
ffffe79e
00000835
000015e1
000000d0
00001d1a
00004601
000022bf
0000444d
000034c9
0000389b
000042fd
00001e7f
fffffb21
00000913
000037b9
fffff9f9
000013f7
00002f0b
000051e4
00001c90
00004fff
00000f3a
000017a9
ffffeb10
ffffec67
00001959
000015ba
ffffe379
fffffb00
00000c38
000008d7
fffff45c
00003505
000044e1
00000c21
0000424e
00001cf4
0000393b
000035f2
000040c1
fffff0fc
ffffe2e0
00004572
000028f5
000026be
000054b9
00002a46
000035a2
0000198e
fffff225
00001bc1
ffffc9ed
000005ef
ffffd8c2
000024ee
ffffd55e
ffffeb81
fffff39f
00000561
0000277f
000007ac
00001734
00000c41
00003293
00001235
00001d16
fffffed2
00001f21
0000164a
00000d7b
00002811
000007b8
00003746
000031bc
00003798
00000910
000015a9
fffff010
ffffe5e1
fffffbca
ffffe1e3
ffffdd23
ffffe014
ffffe56e
000008c3
00001307
fffff433
00001015
ffffd9c5
00001538
ffffdfe3
00001176
00002e66
0000287e
ffffe2c4
00001cc9
0000195d
000024a1
000002d6
00000adc
fffff396
00003c4f
00000d3c
ffffee5a
ffffd16c
ffffe9a7
ffffd34c
ffffd54a
ffffbe0f
fffffcf1
ffffcff5
000000ec
0000007e
000015fb
0000235f
ffffe536
00002372
fffff1d0
ffffbf2c
ffffe29c
ffffffd0
fffff072
00000c5a
ffffe5df
00000610
00001e4c
ffffd887
ffffb93c
00001989
ffffd85b
ffffd322
ffffbf85
ffffc67a
ffffd7e9
fffffedd
ffffce7c
00000386
00001ea4
ffffea48
00001557
ffffdea6
ffffe87d
00000e15
fffffc32
ffffc5ac
00000058
ffffede5
ffffd9b1
ffffcda1
ffffd345
ffff8a4d
ffffaeab
ffffe1e9
ffffeb71
ffffc7be
ffffa9c4
ffffce49
ffffbb6f
ffffe30a
ffffb1de
ffffc962
ffffd969
ffffb761
ffffea39
fffff0d5
00001083
ffffee0e
00000af0
ffffeaba
fffffd5e
0000155c
0000066b
fffffd99
fffffb63
fffff56f
ffffb0c7
ffffe940
ffffaa5f
ffff7ef9
ffffcdae
ffffb9a5
ffffd395
ffffe3eb
ffffbcca
ffffae96
ffffedc3
ffffb3aa
000002b2
ffffe9b7
ffffb74e
ffffdcd8
ffffd713
ffffd5f3
00001b7e
00002355
fffffec6
00000839
ffffea4f
ffffed65
fffff286
00000401
ffffdd38
ffffda55
ffffa958
ffffc703
ffffadb7
ffffe710
fffffa57
ffffc474
ffffd419
ffffd264
ffff9e9e
0000033e
ffffdf46
fffff1d8
ffffd05f
ffffd2a4
ffffca66
ffffcb7a
fffff5fc
ffffebf7
ffffe6e3
00002a1a
0000138f
00001e19
ffffe9cf
00000631
fffff119
fffffc18
000008dd
fffff18c
ffffe997
000002db
ffffe104
00000208
000019e7
000018f8
00000e89
ffffebb9
000001f5
ffffe551
ffffef38
00001a29
fffffd8f
ffffdb1d
000003f0
000002bb
ffffe7b9
ffffed79
ffffed0c
0000182c
0000253e
ffffff8d
0000069c
fffff376
fffffdcb
fffff399
ffffecc1
fffff414
ffffc0ca
ffffe10a
fffff0d5
fffffcae
00004c46
00002b3e
ffffe21b
ffffd7d4
ffffeea5
ffffc462
ffffcad2
ffffeda7
00000814
0000055f
00001e90
ffffe542
00000c20
0000261d
ffffe931
00001d81
00000ed3
0000163a
00000a94
fffff4ef
fffff498
00001315
ffffc18b
fffff5de
00000cbe
ffffeb81
00003398
00001528
000038b9
fffff67e
00000f55
ffffcab8
00000325
ffffffd2
fffff908
00003e32
00002888
0000010a
00001562
fffff75f
fffff7cb
fffffdcc
ffffeb06
00001c0b
00001b00
00001f46
ffffe3c1
ffffe009
00001851
ffffdc4a
ffffde73
0000154c
ffffffdb
fffff031
000030a1
00001301
fffff1c0
00001075
00000b04
ffffdd62
00000039
00002e01
ffffe60a
fffffdd0
0000388a
fffff42a
000027a3
ffffe436
00002758
fffff365
0000078f
00000818
ffffd581
fffff943
00002559
fffff2a1
000002c8
000027bf
0000190d
fffff6e7
0000151a
fffffdea
ffffe9a6
ffffdd8b
ffffd34d
fffff203
ffffea21
0000144b
ffffca28
ffffd956
00001b76
ffffff9f
ffffe988
fffff893
000010af
0000107f
fffff258
00001a39
fffffa83
fffff86c
00000a91
ffffe751
000010ad
00001498
0000220f
ffffede4
fffff576
ffffe31b
000009a7
000024c4
ffffe4ff
0000252c
000001a4
fffffe24
000033e5
000007a6
00002bd8
00000e92
00001ebe
0000053e
fffffc15
ffffef47
fffff0e5
ffffed08
00001939
fffff325
00000067
00001768
fffff227
ffffd7a0
0000055f
000006aa
00000f9d
0000120d
ffffe3d0
0000169b
00001fce
000026fd
fffffe4c
00000c96
000022d6
00000a04
00001b0c
ffffe1da
ffffd94e
000020ad
ffffef5e
0000027f
ffffda52
fffff571
ffffe0b8
fffff779
ffffdafb
ffffeb68
00001fd9
0000006e
00000114
ffffec8c
fffffc6f
000011cf
ffffebcf
00001852
00000bab
0000131f
000004c0
000007b2
ffffe587
00000990
ffffdd92
ffffdbe8
000012e6
0000130f
00001376
00002773
ffffe14b
0000040d
00001c5b
ffffe1c6
000007a1
00000b15
000018ac
00002817
00002962
00001caf
000007e2
fffffb4e
00000752
000028a0
000006ca
ffffdaa6
0000186f
000027ad
0000196d
fffffbd1
00000311
fffff3a4
ffffd7cc
fffff59c
fffff761
fffffc63
ffffe2ec
00002a5c
fffffb82
ffffec9b
fffff287
000024eb
000026d3
ffffefa0
fffff99b
fffff3c0
ffffedde
000023e5
ffffe0e5
ffffeaba
00000b36
ffffe842
000015d9
000000a7
fffffc0b
ffffe352
fffff4e3
ffffe332
0000280d
00001215
ffffdb31
ffffe8d4
fffff26a
fffff58c
00002348
ffffe429
00000c43
ffffe122
00000b2f
0000184a
00000d6e
ffffee05
00000178
ffffe970
ffffddbf
ffffe9fd
fffffee2
ffffd6be
0000221d
000003f2
fffffee3
ffffe417
ffffd8d8
0000184e
ffffe89c
fffffe29
fffffe89
ffffcc51
ffffcbb3
ffffe27e
00000f77
0000111b
ffffdf44
fffff0c2
00000227
ffffe0b8
000012cc
ffffd81a
00001dd9
ffffd600
00000943
00002570
000009bf
fffff8be
0000192f
00000bb7
00001c80
00001086
00000fe3
fffff051
0000224f
00000536
ffffffb8
ffffe1b8
ffffcea7
0000226d
00001252
ffffdf03
ffffcdc3
00002689
ffffe108
00000de4
fffff31e
ffffeb81
000002ab
fffff60c
00001ba5
000002aa
000025aa
00000570
ffffdf59
ffffe036
00000963
ffffdea0
ffffe935
00002861
ffffe91c
ffffd61e
ffffe43e
000026a6
00000759
0000130a
00000cdc
00000572
00001355
000017d3
ffffcb2e
ffffe49a
000019d2
fffff377
ffffb486
ffffedd1
ffffca25
ffffeb7b
00001aad
0000190c
ffffd88e
ffffeb9f
00000404
fffff093
fffffd80
0000138c
ffffeb54
0000214d
00001cde
00002137
fffff0ac
00002a27
000008c9
ffffe656
000009fa
00000df5
000010a4
fffffd86
00001ecc
fffff03d
ffffe600
fffffb1d
00000d63
00001499
00001c42
000011fc
00000476
fffff1d3
00000039
ffffe95d
0000302b
fffff579
0000048a
000017a7
ffffde4a
fffff27c
fffffdce
000005f6
00001d30
0000189b
00003d39
000004be
000014f6
00000439
00000dd9
fffff27e
000000b5
ffffe620
fffffea6
fffff4c3
fffffb09
00000d56
ffffe51c
fffff01b
ffffea3f
ffffcf67
ffffe980
ffffe804
00001c4c
00000be5
ffffe37a
00000873
fffff252
00001d81
ffffd998
0000008e
ffffec1e
ffffe884
00002aaf
00003106
000002e8
ffffddbb
ffffb035
fffff27a
fffffb4e
00000560
00002039
00003e86
00000acb
000028f7
0000101e
00000dba
00001103
ffffcf11
ffffe55a
00002435
fffff372
ffffeada
ffffeff3
00000252
000014e0
000000bf
ffffdc57
00001e22
fffff348
00003182
fffff38f
fffffdbd
ffffe923
fffff043
ffffdc06
ffffd294
ffffeb05
00001476
fffff67d
00001b7f
000028cc
ffffdc1a
ffffdd30
ffffd758
00000df7
00001f93
000035ca
0000165d
fffffc8b
000000bb
ffffe6ab
000014a2
ffffdfad
00002251
000010ec
fffffdc6
00000df4
0000090d
fffff8a7
0000289f
00001cc6
0000041c
ffffd0ce
ffffd8fc
000003db
000000e5
ffffe2d2
fffff1d1
ffffccd7
fffff217
ffffe508
00000b7d
fffff849
0000414d
00002932
0000323e
000010e3
000002ce
0000180b
ffffde8f
fffff133
fffffc3b
00000952
fffffae1
00001db7
00003c3f
00000334
0000324b
000026b1
000027ae
fffff16a
ffffb70e
ffffd540
ffffd91a
ffffe1d3
ffffa99e
ffffc744
ffffd0bc
fffff78e
0000245a
00003379
00004516
00004ddd
00002c41
000003f2
0000284d
ffffee6d
fffff2d6
00000ea6
ffffe05b
00000af7
fffff06e
000050e1
00005d8e
000025ac
ffffed85
00001250
00001f34
000012a8
ffffd005
ffffea93
ffffc3e6
fffff606
fffffb5f
ffffb4ae
ffffefe3
000010a5
00002d99
00000c32
00002aad
00002480
00000a80
00001215
00001fd4
ffffdcf6
fffff6cf
fffff6e0
0000210b
fffff589
00000e0f
00002de2
fffff6dd
0000146e
00003518
00002235
00003b7d
0000101a
fffff737
ffffe405
ffffdef2
ffffd53d
ffffddb1
00000b84
0000155c
00000a3e
000025c0
ffffe492
000002ab
000010aa
ffffdc57
00001c83
00000259
ffffdfa7
fffffb49
00000101
00002648
ffffe85e
00001c34
0000190a
0000299d
000007a1
000049bd
0000485c
000066e9
0000488d
00000c78
ffffd9b3
ffffea62
000024f9
00000bc8
0000137d
fffffc0e
00001b8a
ffffdafa
00001613
0000028a
ffffec6f
ffffe7d4
00000f0b
00000df0
ffffeb9b
fffffff3
000020fb
ffffeac4
00001026
ffffd3e5
00000b2d
00001b69
00000f30
00000830
00000be0
00005e0d
00007393
00000aa5
00001e78
00003ddd
0000432c
00002071
ffffef49
ffffd4ef
fffff90e
0000025f
ffffec19
ffffd675
ffffced8
ffffda6e
ffffe1de
00000de4
ffffed15
fffff0dc
ffffee51
00001068
00000a32
000016c7
ffffcd10
ffffe3dd
ffffe549
00000a74
00001028
000048b4
000072de
00006f7f
00004e9f
000040ea
ffffddf6
00000fdc
fffff63b
ffffdaca
ffffe0d4
ffffe974
ffffde60
ffffe679
00000323
ffffdfc2
ffffd746
fffff11a
00001fe9
0000015c
ffffd594
fffff9e3
ffffd609
fffff5ae
ffffd322
ffffd113
ffffdc0f
00000ae9
0000065b
00001138
00001f2b
00005964
0000336d
00000db8
ffffdb03
ffffcc6d
ffffc66a
000001f7
ffffd8c2
ffffe15d
fffff232
fffff11f
0000204e
00001539
ffffc673
fffffce6
ffffe600
ffffd63f
ffffdfac
00001a4d
0000156f
fffff6c4
ffffee0f
00001995
00000401
ffffc604
ffffe572
fffffbc3
00002407
000019d4
00001a67
000029dc
fffffd4e
ffffddc4
ffffae75
fffff172
ffffe608
00000197
00001442
00002bec
0000184d
000020f3
fffffdd5
ffffe992
ffffea9a
ffffffb4
ffffebe4
ffffd5d8
000001db
ffffc359
ffffcd8c
ffffd4e1
ffffcf9b
00000dcf
ffffeb13
fffff79a
ffffddf6
00000a63
ffffeb69
fffff3ad
00000b84
fffff2cf
ffffb6b6
000017f2
00002a72
ffffd952
0000274b
000036f1
00003c2b
ffffec11
ffffed12
00001e0c
ffffffe2
00000f92
fffff1e7
ffffd998
000001b9
ffffe9b5
ffffee5c
00000a45
ffffe610
fffff2c2
ffffea45
ffffeccd
fffff1e3
ffffcd9c
fffff3ca
ffffed64
000042e8
0000124c
ffffe8bd
fffffa96
00001112
00000aef
00004222
00002b7b
0000260c
00000fe8
fffff429
000023e9
ffffe1d5
fffffa6b
00002379
fffffb25
ffffddaf
00001666
000006ee
00000bf4
0000393a
ffffe39f
fffff937
ffffe831
fffff4c8
0000017b
00001379
000004d7
ffffedbb
ffffd223
ffffd733
ffffea49
000039b6
0000470a
0000456c
000031c0
00002654
00000425
ffffe29d
ffffd59b
000024da
ffffdfcb
ffffd9ef
fffff7cb
ffffe24f
00000ceb
ffffdbfa
0000202a
ffffd9bf
0000076a
00000062
fffffecc
fffffac4
fffff194
ffffdc35
ffffbe07
ffffe2e6
000003d0
00000a71
00004924
00003c99
000036aa
000003ce
00002789
00001ba9
00001017
00002012
fffff710
ffffdc6b
ffffdd23
fffffe8c
ffffe8d3
000029a5
00000248
00001ad2
ffffd144
ffffe7f6
fffffc62
fffff7c2
ffffe6f2
ffffc8e1
ffffdfa9
ffffcea6
ffffe6f8
000019a6
00000480
000053e1
00002636
000033bd
000020f9
00000531
fffff4c2
00003615
000026f7
00000fe9
000001db
000002ee
00000faa
00001942
00002aea
ffffeecd
00002fac
ffffdf4b
fffffd8c
00002443
fffffa82
000013df
000029a6
fffff633
00001c76
00003cb1
000011cd
00002d3d
0000051c
00000b54
0000287f
0000205b
000015b1
fffff8ec
00002e1e
fffff1f5
ffffeb5c
fffffe65
ffffe6fe
ffffed22
000005f1
ffffe657
0000232a
000007af
ffffe19a
ffffd572
ffffddd0
fffff4ca
00002a4e
000001a3
00001b27
000041e8
00003c0c
00001bc3
00000cd7
00004226
000045a7
00003437
000013e4
00003492
00001beb
00001acb
000023f4
00002cd8
0000014d
ffffef5a
00000391
000018ca
ffffe32f
ffffe8a0
00001dc7
000000cf
0000268b
00000b62
00000ffe
00001693
ffffe346
ffffe41d
00000df3
00002776
00002827
00003427
000000f3
000002f2
fffff68f
000015d1
00001207
00001e88
fffff74a
ffffeba7
000001e4
fffffc15
00001548
0000137a
0000030f
ffffeb98
00001fe9
fffff592
0000289e
00001ce2
000007d5
00001685
00001246
00000c22
ffffe3d1
0000226c
000015b2
ffffde1d
0000162e
00000205
000023c0
00002397
00000e76
00000149
0000287a
ffffdfd1
ffffe744
00000fbc
ffffe57c
fffffef2
00000503
00002663
0000228e
ffffd915
ffffe4f7
ffffed39
ffffe81d
00002097
ffffe2b0
00000906
00000db9
ffffe066
000029b6
00001cac
000018ce
ffffe30c
fffff217
000001d7
ffffde66
ffffd926
000002b5
00000d18
ffffd952
ffffeac6
ffffe7f5
ffffd825
000024cc
fffff5b3
00002126
00000a29
0000116f
0000102c
00001c4e
ffffd666
fffff6a8
00000073
ffffdb0b
fffff334
fffff44b
fffff82c
00000d12
00001000
00001f0c
ffffd6d2
ffffda2c
0000025b
000014b2
0000244c
fffffdfa
00000f29
00001b02
0000191f
fffffa94
0000297d
000008d6
ffffe724
00000daa
fffff00f
000023d8
00001271
ffffde8d
000007b6
00000925
ffffde15
ffffe8ec
00001df5
000028dc
00000884
000001af
0000249a
ffffd5ac
ffffe7e2
00000959
000019c8
000012be
fffff6e9
00001f07
ffffe8b6
00002eb9
fffff52f
ffffec9f
00000633
00001b22
ffffe5bc
ffffd6d0
000012ff
00000a67
00000a46
fffff160
0000009c
ffffe6de
ffffe5e2
fffffacd
ffffde61
ffffddfa
ffffd58c
ffffd5ac
00000517
00000d9f
00001479
ffffff19
000014a6
ffffe153
000018a7
00001fe4
000004d5
00001581
0000157a
ffffe7e9
ffffe4ea
00000121
fffff1b7
ffffdabf
ffffe2ed
ffffed1b
00002447
ffffddd5
00001485
fffff940
00001ab7
ffffee7d
ffffedf0
ffffddd3
00002577
0000005d
fffff8e8
fffffcba
00001b71
0000033f
ffffe74c
fffffe45
fffff54c
00001fd9
0000218f
000011f5
00002024
ffffdc99
ffffd0e4
ffffbe9d
00001417
000013af
00000fdf
000029b8
ffffec40
ffffe97b
ffffd8cc
00000d54
00002a84
ffffebdb
00000685
fffff799
ffffe86f
00002328
ffffe907
0000059d
ffffe41c
fffff8ab
00000280
fffff024
ffffda73
fffffecd
ffffc7c7
ffffc955
ffffda8f
ffffce5f
00000c0d
ffffc166
fffffff4
ffffd0c8
ffffe946
0000193f
ffffed81
ffffde0b
ffffea36
0000137b
ffffdc2f
0000052c
00001cf3
00000a1f
ffffdc8b
ffffdbfe
ffffe3e0
ffffe21f
00001196
ffffbea9
ffffd77e
fffff68e
ffffa93b
ffffacef
ffffc9bc
ffffd514
ffffd250
ffffa1d0
ffffb30c
ffffe0fb
ffffde67
ffffd142
00001dda
ffffe36d
ffffddde
0000268d
00002a95
ffffd940
0000147e
0000018c
ffffdbc6
ffffe369
0000260d
ffffe9d8
ffffc2bc
fffff79e
ffffdcf0
ffffc580
ffffc651
ffffb580
ffff9619
ffffaa76
ffffc27b
ffff9ce5
fffface8
ffffee00
ffffec6c
0000056a
fffff430
00000c9a
00001eb2
0000046b
000005c9
ffffe1be
00001ba1
ffffde82
00001b73
fffff453
fffff8e9
00001606
ffffcc1c
ffffdc61
ffffbc5d
fffff459
ffffcd3c
ffffc8cf
ffffcc06
ffffeca4
fffffc18
fffff316
ffffed20
00000b30
00003262
00000ddc
fffff9e1
0000252b
000045ef
00001cc1
00001773
ffffe630
000003e3
fffffe14
ffffdf79
000010dd
fffff4b4
000001b5
000011e8
ffffd7d1
ffffeffb
fffff755
ffffd70c
fffff5c7
fffff217
00001183
000049b8
00001940
00006031
000048d2
00007598
00003e83
00004197
0000238a
fffff388
000041f2
00004618
00004ec7
0000181a
00001289
ffffe7c9
fffff4c2
0000050e
0000057d
ffffe638
00001410
0000023f
fffff202
ffffe6f6
0000089a
ffffe7fa
000042f6
00004720
00003038
000058ab
00006863
00005732
000096ae
00003008
0000276a
00000889
00002a97
00003375
fffffecb
00004c3f
000021d9
000029a5
000011fd
ffffde11
00001302
000013f0
00002025
fffff6e0
00001542
ffffe055
000009eb
000012d9
ffffcafc
00002b65
000041ca
00004b45
00003b5d
000036d4
00002ddc
00005b06
0000396e
00004149
000034f0
000041fd
00002264
000009f5
000000cc
00000f78
000035ab
00000334
fffffa6d
fffff4f0
ffffdb1b
ffffead7
00001097
fffff31c
fffff0b7
ffffee8f
fffffe5e
000041aa
00000602
fffffd00
00002cff
00001783
fffff3d6
00000cda
000003da
00003b9b
ffffdecb
00001420
00000eab
0000365f
00000967
00000ce2
fffff04e
00000a0a
00000add
00002b2c
ffffe7f3
ffffda12
ffffda45
00001740
0000160d
ffffe6b6
ffffd91e
0000073e
00000f6e
00002497
ffffff67
fffff55f
ffffe18c
fffff2e5
ffffebcf
ffffdc3e
ffffd22d
fffff7e9
fffffb96
ffffc07f
00001677
00001cec
ffffdfc8
ffffe5ea
ffffdd2a
ffffd410
ffffe821
000016b8
0000272a
ffffea6c
ffffd859
00000dca
000006e1
fffff69f
000003ae
00002f42
00001241
ffffdd07
000013d3
fffff7cc
000008bc
ffffc8ca
ffffdf1b
ffffd83c
ffffc378
ffffe9c5
ffffcb43
00000ce3
ffffeb17
00002feb
ffffeb38
ffffe1de
0000094e
fffff6c7
fffff49b
ffffed46
fffffd12
fffff1e6
fffffe3c
fffffdf1
00002625
fffff21b
000019b6
00002a31
00003993
000000cf
ffffd3ec
ffffe80a
ffffe34b
ffffe829
ffffff0c
00000c40
ffffb843
ffffde01
ffffd13d
ffffd864
00000062
fffff8b3
00001594
0000149c
0000136a
00000011
ffffe2c6
fffff41d
00002346
ffffdaad
000013fd
fffff632
00000ea2
ffffd4da
00002a65
000045d0
00000259
ffffe489
ffffdfa4
000013d8
fffff73f
fffff4f1
ffffd96f
fffff40b
ffffa295
ffffd115
ffffcbf0
00001a95
ffffe184
00002a1a
ffffe44c
ffffea53
ffffd435
ffffd854
000003cc
ffffffd1
0000016f
00001b09
fffff6c4
00002ac4
ffffd5e1
fffffdd4
fffffe32
0000426e
00002201
0000129e
000001e2
0000045b
00002d41
fffff809
ffffdd5b
ffffdc2e
fffff4cb
ffffde9b
fffff7cc
00002be0
fffffca6
ffffee92
0000057e
ffffe93c
ffffe264
000011de
fffffd40
fffffaf0
00001796
ffffef2a
0000121b
00001ca2
0000122b
000019f1
fffff5fb
00000add
000019a8
0000429b
00003b50
00001a31
00002e77
00000749
ffffe718
fffff7ff
fffffdab
fffff637
000000a5
ffffe991
ffffea6d
00000543
ffffe1a8
ffffdd30
fffff22a
000003d8
00000fc0
ffffdb00
ffffddb5
ffffdcbf
00001c0a
fffff3d9
ffffdaa8
00001bed
000003fd
000020df
00001944
00001963
00001c62
000009e7
0000069a
0000294e
00002a1d
fffffdcc
fffff195
0000229c
0000007c
ffffee38
ffffeecd
fffffc8c
fffffa81
ffffe694
ffffc816
000005b7
ffffdf23
00001eab
00000179
000022de
00000282
000001d5
0000015a
00000a28
ffffe3f5
00001ffe
00002ed0
00002561
00004030
00002f30
000030f2
00003548
ffffe8e1
00002656
00001d9d
fffffa54
fffffc10
fffffae9
ffffee7f
00001c85
ffffc7c7
ffffcbe7
000015b8
fffff211
ffffff9a
ffffd3a6
ffffdc94
000005d8
ffffe9b8
000025d0
ffffecb8
ffffe3a7
00000cd5
fffff11d
fffff22a
ffffc207
ffffc904
ffffef33
ffffcd35
000021da
0000253d
00000a66
ffffdb5b
00001ef8
ffffebb7
000001c7
fffff993
00000b15
ffffc4c9
ffffcb37
000014a0
00000f0b
00001387
ffffdcb2
ffffe93a
0000046e
00000fc7
ffffd795
000001f5
ffffedec
ffffeda9
ffffcc95
ffffce9b
ffffdb04
ffffda5b
ffffc8d6
000005c8
ffffc932
fffff23b
00001b6f
00002eca
00000f2a
00001e43
00004066
fffff576
ffffe0a4
ffffeb62
00000803
00000eaa
00001eb3
00001b7c
00001f85
fffff4c8
ffffef57
ffffeb03
00000f8a
fffff4ba
00001871
ffffe9e1
00000551
fffffb49
fffffbe2
0000071c
ffffeed8
ffffca09
fffff6a8
00002542
ffffde9c
00000dbe
ffffff09
00001a29
000038bf
ffffff8e
ffffe268
000015b3
00001ae7
ffffd639
ffffe4c3
00000643
00000453
000020e8
ffffe66f
ffffef23
ffffe767
0000024e
ffffdab0
fffff4a5
fffff6e7
ffffe344
ffffe4e6
ffffcf6b
0000035b
000007d8
fffffa1f
ffffdb8e
000012a6
000016f5
ffffce14
00001ddc
fffff77a
00002c51
ffffee99
000023f1
ffffd105
0000068a
fffff60c
00000ae0
fffff69a
ffffff4a
fffff966
ffffda69
00001528
ffffe7a2
00001083
ffffe66a
ffffe4e2
00002588
fffff197
fffff57f
00000529
0000050a
ffffdd2a
000017fa
00001e8a
ffffe685
fffff71f
00000093
000018a7
00001299
00000ed9
fffff049
000012c6
000004a2
fffff486
ffffdc2a
ffffe720
ffffe033
ffffe97c
ffffec6d
00001594
fffffc75
0000252a
ffffeed1
00001595
fffff724
000015e1
ffffe85d
ffffe58d
fffff31b
fffff992
ffffe4cb
00003235
ffffeb3a
00002626
00002b5d
fffff6f0
0000204d
0000182b
ffffd6fb
ffffdc50
fffff0dc
000026e4
ffffdede
fffff88d
0000134e
ffffe6a8
00001f30
ffffe4b8
ffffe11c
000012a8
ffffe21a
00001abb
00002239
fffff100
00000149
00001553
fffff8df
ffffeee7
00002138
fffffd00
ffffe764
00000f5b
fffff94e
0000207c
00000e0d
00001232
000008c2
ffffd998
00000c1d
ffffec89
ffffdfc8
00000d12
fffff6f9
fffffc03
0000234a
ffffe3d5
000021c4
000019e0
fffffc7d
ffffe896
fffff099
00001c52
fffff208
fffffd07
00000dc5
ffffee61
ffffdcae
fffff63b
00000f7d
fffff339
ffffdcf2
ffffda6a
00001c02
00000030
ffffe8b8
0000236f
ffffdd30
ffffd8a7
00002073
ffffedfb
ffffdbda
ffffec25
0000226c
fffff031
fffff94d
ffffda50
ffffe017
ffffea4c
fffffca4
00001635
000010fa
0000261a
ffffffa9
000006a5
00001fd7
00001af2
ffffdb68
00000687
ffffe3f7
00001b7e
fffffd3e
fffffcf3
ffffe92f
00001c4b
00000844
ffffdf71
00001413
0000249a
ffffff36
0000119b
000007a4
00001182
00001f3d
fffffbc8
fffff6db
ffffd977
ffffe655
00000d73
000024db
00000abe
00001e9d
fffff237
ffffdfbb
00001965
ffffe844
00001203
0000090f
0000180e
ffffd3a9
000009ec
ffffd8d2
ffffef60
ffffd9ef
ffffd9ff
fffffac4
ffffef37
ffffef56
fffffd3c
ffffe6f3
000001be
000017f0
fffff902
00001c23
fffff802
ffffefb1
00001662
ffffe469
000022b0
0000146b
fffffd89
000002bd
fffffeeb
00002198
00001836
ffffe882
000017bc
fffffb7d
000018e4
fffff58c
00000d4d
ffffd442
00001d27
fffff83b
fffffc03
fffff31a
00002274
fffff304
ffffddb5
fffff5a4
ffffdbed
00001c24
0000219e
000013f1
00002a92
00001dc4
00000422
fffffe78
00003113
00002709
000038d5
000025ca
00002b9a
00005828
000000c7
00002bbb
00003606
00000381
ffffde06
ffffd914
