0ffec9d5
0fffb85e
0000049b
0fff3ac6
0000379d
00013194
00006db0
0fff5bbb
000012c3
0fffeb1f
0fffe920
00006c3b
000087fc
00009531
0fffe8ea
0fff3799
0000b1de
00017460
0fff4d93
0fff2836
0ffff3e3
0fff8e78
0fff7754
0fff7f4b
00019da4
0fff197e
00007cd7
0fff6b0d
000047de
0000e7d7
0fff6974
0000813a
0fffee1e
0fffd580
0000c5b9
0000d9cc
0ffeea5b
00003f5d
0fffa6d2
0000a2be
0000a8e1
0fff7484
00002a63
0fff8151
0fffd49e
0fff3264
0fff27cc
0fffbfa5
0ffffaab
0ffec659
0001f39d
0ffea8a4
0000b883
0fff1884
00009335
0ffed205
00008a4d
0000d0b0
00006465
0fff22a4
000084c7
0fff8610
0001b72f
00009efb
00013188
0fffb098
00000127
0ffefe8f
00006b63
0000704d
0fff8baf
0fff8c09
00004aaf
0fffecc0
0fff3d28
0fff3634
0ffff9bc
0fff6792
00001091
0001103c
0000cf3d
00016431
0fff5e77
0fffd962
00007240
0000ef0b
0000beca
0ffe7fe2
0ffedfc3
000238cd
0fff6217
0fff67e3
0ffed3ac
0fff3a46
0000b413
0ffed452
0fff685e
00003ca7
00003df3
0fff670d
0ffeea5c
0ffee3d3
0fff5edb
0fff7ad4
0fff5c93
00007df7
0fffcb47
0fff303e
0fff31bb
0000248b
0fffc921
0fff528d
00008208
0fffddd9
000118dd
0001876e
0fff5b96
000242d1
0fff146e
00003399
0fff0248
000052c4
00009dcd
00003451
0001121f
00005430
0ffe5d88
0000533f
00018d7e
0fff5457
0fff7ab1
00009eb1
0000ba96
0fff44ec
000097fb
0001d32a
0fff94a8
0000b29d
0fff407f
0fffbd12
0fffdb8f
0fff8a95
0001dcd9
0fff463c
0fffdc1b
0ffe95b1
0fff7c7e
0fff484f
00011fd2
0ffffbc2
0000b548
0000e15e
0fffeaab
0ffec8ff
00006012
0fff44a4
0fff4e6a
0fff7960
000029b8
00008201
0000014c
0fff4220
000093e2
0fff3400
0000698d
0fffcfb4
0fff7ae8
0fff5563
00006add
0fff17bd
0000a636
0ffec1ab
0ffff7b5
0fff6ca7
0fffe7b7
00009e84
0ffe3ef4
00000f13
0fff2962
000197af
0fffbc8d
0ffeb550
0fff6ee4
00001636
0fff88b5
0fffd055
00001e17
0002bde7
000140fc
0fffa496
0fffd4f6
00009d99
0ffe977a
000043ba
0fffa48b
0000e20f
0fff1796
00006e2e
000107c2
0fffd92b
0fffa813
0fff5bce
0000dc54
0fff2b29
0000d983
0fffb795
00009111
0001b2bd
0fff6148
0000adc2
0fff9a46
0ffe70aa
0000bb8e
0fff8f93
00010def
0fffe705
0ffffa78
0ffeeb21
00006ea5
0000d4c9
0fff0e18
00013f56
0ffffae6
0fff686c
00003650
0fff619f
00004651
0fff6649
0001ebaf
0fff860c
0fff9621
0fff3cfb
0fff91f3
0fff209e
0fff6e93
00009aad
0fff9ff9
0001885f
0fff78cf
0fffd0bd
0000b6d8
0fff2432
00021134
0000a24e
00003b2b
0fffc2f0
0001097a
0fff3249
0fffe013
00003764
00002299
0fff14e4
0ffe7ea3
0fff6831
0fff728e
00003fa9
0ffef906
0001361a
0fff77f7
000182af
0fffbf50
0fff5982
00008b45
00007492
0fff21da
000041fa
0ffe96e7
0fff93d8
000044b2
00001b90
0fff22d7
0fffc0d8
0001f816
00001988
0fff96e0
000017ed
0fff708f
0fff922b
0fff7532
00014672
0ffed07b
0000491e
0ffffb6d
0000d860
00008b3c
0fff43ca
0fffadaf
00008385
0fffc11e
0000c1e7
00002dbb
0fffde01
0fffa3a2
00006072
0fff24f4
0ffeff99
0fffd470
0000c08c
000052e4
00018163
0000a801
0ffecec8
00018714
0fffd1a1
0fffc7e0
0ffedf8b
0fff3fe6
0001c13f
000036b9
0fff29d4
0000f562
000184c6
000020bc
0fff11b8
0ffff24a
0ffedb40
00008267
0fff4fbd
0fffa305
00002513
