fffec9d5
ffffb85e
0000049b
ffff3ac6
0000379d
00013194
00006db0
ffff5bbb
000012c3
ffffeb1f
ffffe920
00006c3b
000087fc
00009531
ffffe8ea
ffff3799
0000b1de
00017460
ffff4d93
ffff2836
fffff3e3
ffff8e78
ffff7754
ffff7f4b
00019da4
ffff197e
00007cd7
ffff6b0d
000047de
0000e7d7
ffff6974
0000813a
ffffee1e
ffffd580
0000c5b9
0000d9cc
fffeea5b
00003f5d
ffffa6d2
0000a2be
0000a8e1
ffff7484
00002a63
ffff8151
ffffd49e
ffff3264
ffff27cc
ffffbfa5
fffffaab
fffec659
0001f39d
fffea8a4
0000b883
ffff1884
00009335
fffed205
00008a4d
0000d0b0
00006465
ffff22a4
000084c7
ffff8610
0001b72f
00009efb
00013188
ffffb098
00000127
fffefe8f
00006b63
0000704d
ffff8baf
ffff8c09
00004aaf
ffffecc0
ffff3d28
ffff3634
fffff9bc
ffff6792
00001091
0001103c
0000cf3d
00016431
ffff5e77
ffffd962
00007240
0000ef0b
0000beca
fffe7fe2
fffedfc3
000238cd
ffff6217
ffff67e3
fffed3ac
ffff3a46
0000b413
fffed452
ffff685e
00003ca7
00003df3
ffff670d
fffeea5c
fffee3d3
ffff5edb
ffff7ad4
ffff5c93
00007df7
ffffcb47
ffff303e
ffff31bb
0000248b
ffffc921
ffff528d
00008208
ffffddd9
000118dd
0001876e
ffff5b96
000242d1
ffff146e
00003399
ffff0248
000052c4
00009dcd
00003451
0001121f
00005430
fffe5d88
0000533f
00018d7e
ffff5457
ffff7ab1
00009eb1
0000ba96
ffff44ec
000097fb
0001d32a
ffff94a8
0000b29d
ffff407f
ffffbd12
ffffdb8f
ffff8a95
0001dcd9
ffff463c
ffffdc1b
fffe95b1
ffff7c7e
ffff484f
00011fd2
fffffbc2
0000b548
0000e15e
ffffeaab
fffec8ff
00006012
ffff44a4
ffff4e6a
ffff7960
000029b8
00008201
0000014c
ffff4220
000093e2
ffff3400
0000698d
ffffcfb4
ffff7ae8
ffff5563
00006add
ffff17bd
0000a636
fffec1ab
fffff7b5
ffff6ca7
ffffe7b7
00009e84
fffe3ef4
00000f13
ffff2962
000197af
ffffbc8d
fffeb550
ffff6ee4
00001636
ffff88b5
ffffd055
00001e17
0002bde7
000140fc
ffffa496
ffffd4f6
00009d99
fffe977a
000043ba
ffffa48b
0000e20f
ffff1796
00006e2e
000107c2
ffffd92b
ffffa813
ffff5bce
0000dc54
ffff2b29
0000d983
ffffb795
00009111
0001b2bd
ffff6148
0000adc2
ffff9a46
fffe70aa
0000bb8e
ffff8f93
00010def
ffffe705
fffffa78
fffeeb21
00006ea5
0000d4c9
ffff0e18
00013f56
fffffae6
ffff686c
00003650
ffff619f
00004651
ffff6649
0001ebaf
ffff860c
ffff9621
ffff3cfb
ffff91f3
ffff209e
ffff6e93
00009aad
ffff9ff9
0001885f
ffff78cf
ffffd0bd
0000b6d8
ffff2432
00021134
0000a24e
00003b2b
ffffc2f0
0001097a
ffff3249
ffffe013
00003764
00002299
ffff14e4
fffe7ea3
ffff6831
ffff728e
00003fa9
fffef906
0001361a
ffff77f7
000182af
ffffbf50
ffff5982
00008b45
00007492
ffff21da
000041fa
fffe96e7
ffff93d8
000044b2
00001b90
ffff22d7
ffffc0d8
0001f816
00001988
ffff96e0
000017ed
ffff708f
ffff922b
ffff7532
00014672
fffed07b
0000491e
fffffb6d
0000d860
00008b3c
ffff43ca
ffffadaf
00008385
ffffc11e
0000c1e7
00002dbb
ffffde01
ffffa3a2
00006072
ffff24f4
fffeff99
ffffd470
0000c08c
000052e4
00018163
0000a801
fffecec8
00018714
ffffd1a1
ffffc7e0
fffedf8b
ffff3fe6
0001c13f
000036b9
ffff29d4
0000f562
000184c6
000020bc
ffff11b8
fffff24a
fffedb40
00008267
ffff4fbd
ffffa305
00002513
