000032a2
0fffed93
00001404
0fffe807
0fffa6fc
0fffdde4
0ffff1ef
00005e04
000037f6
000081ea
0000779c
0000cfdc
0ffff595
0fffc099
00009870
00007a9f
0fffd8cc
0fff97b3
0fffe5b7
00008167
0000d642
000076f6
000012e6
0ffff6a9
0000cf40
00003d29
0fff9dbe
000085ce
00003848
0fffef7f
00005a64
0fffe7d7
0000a263
0000137a
0000a6c9
00006610
0fffe454
000039e1
000013d1
0fff8f6f
000087bc
0fffde8f
00005e98
0fff2ecf
00004783
0fff4f26
00010c05
0fffb406
00006533
0000979d
0fffc1d6
0fffcb9f
00009235
00012466
00002249
0ffffa19
00005651
0fff885d
0ffff991
00009e57
00004166
0fffe505
0fff50e7
0000b1c8
00002392
0000c429
0fff8a0f
000025fe
00005b49
000068d8
0fffbc0e
0fff828c
0fffcdde
0fff6998
00004039
000036ad
0000a70e
00004012
0fff73b8
0fffdaed
00000686
0fff9b46
00004983
0000a223
0fffbe70
0fffcf23
0fffe13e
0000813b
00007591
0000286a
0000082b
0fffdc83
0fff7812
0fffc536
0fffc663
000096b7
00000f41
0000251d
00002e6f
00000e21
0000018f
00005b28
0ffffd12
00001e1b
0fffcd32
000052ce
00000f04
00004412
0fff7eea
0fff81f0
0fff9793
00001be2
00005648
0fffc7ed
0fff998b
000000c9
0fff6d59
0fff897f
0fffa796
00004fec
0fffb872
000035d5
00007175
0fffd2cc
0fff7262
0fff7f79
0fffd76c
0fffda03
0fffcb6b
0fff7fc7
0fffc309
00006c5a
000083c6
0fffee88
00007b8b
0fffaa2f
0fffb937
0fffcbb4
0fffbbcc
0fffcc70
0fffbe70
0fffecd1
0fff6c6b
0fffa07d
0fffccd8
000071e5
0fffb417
0fffd22c
0fff7980
0fffc2a7
0fffb913
0ffff716
00004c08
000048d1
0fff82a0
000061a8
000011fb
000029a9
00000813
0ffff288
000095d5
0000144a
00004244
000031ec
000058ac
0fffad2d
0fffae4f
0fffe36e
0fff88b1
00005058
0fffcb8f
0000349e
00002e7c
0fffdda0
000001d2
0fffce9f
0fffecba
00005072
0000a52c
0fffda17
00000b4d
0fff8c87
0fff9772
0fffcfa3
0fff87b1
0ffffb92
0fffaaeb
0fffc72e
0ffff2fe
00003d5a
00001aca
00008535
00006d28
0ffff50e
000030e0
00005cfd
0fffa8f5
0fffec94
00004a24
0fff8dd5
00005fa0
00003fe5
0fffffd7
0fffa543
0fffe0ba
0fff8ff8
00009952
0000737b
000008b6
0fff6bf2
0fff462d
0fff946b
0fff648b
0fff957c
0fffe44c
00005087
0fffa3ac
0000c1f9
00008dc8
00002ca7
0fffad9b
00005eb7
0fffadb4
0fff9f3a
000007f1
0fffddb6
00003807
0000360b
000072e4
0fff9fed
0fffd514
00006cd8
0fffa8c7
000087c0
0fff994b
00008941
0000b9c3
00000c5b
0fff72f5
00002d31
000034ea
0fff8393
0fff692a
00008458
0fff6e7d
0fff3681
000045fb
00008f7f
0fff6cb5
0000286c
0fff87bf
0fff63f9
0fff1dbb
00004799
0000a693
00003068
00002cd4
0fff0aa6
0fff93e4
0fffcdcb
0fff6b41
0fffa3f5
000076fa
0fffe38f
000070ce
0fff660f
0fff9ba2
0000ba4b
0fff9b6e
000077b1
0fffc132
0fffbe16
00000142
0fffe091
0fffa834
0fff66c9
0000c58f
0fff84b4
00001eb5
0fffb4e2
00006d4f
0ffffd07
00003230
00004623
0000745b
0fff9413
0000dd22
000050ee
00003cf1
0000bcd3
00009e9b
0fffd696
0fffa850
0fffda15
0000b454
0000337a
0000df3a
0fffaf74
000083f2
0fff9824
0fffe0ae
0fff29ca
00001b0e
00001d44
00008251
00008545
00008b54
000005d7
0fffff9c
00009396
0fffcfab
00003ee9
0ffffc8b
0fffa434
0000b060
00005c8c
00005349
00001a7a
0000630d
00007262
00008cb9
0fffda99
0fff83a8
0fff85f7
00005ed5
00009b57
00003309
00008b48
00006c74
0fffff4f
0fffd06d
0fffea58
0fff687b
0fffbffd
0fff3dc1
000054d2
00003163
000043e9
000011c0
00007447
00002240
00004127
0ffff1a1
00007fcd
0fff78c7
0fffe931
0fffbde2
00005536
0fffc4eb
0fffdbbe
0fffb36c
00007fdf
0fffcbd1
0000abb8
0fff809d
00001624
00002e9e
0ffff866
000067ef
0fff9946
0ffff08e
0fffb6b6
000008a8
0000b082
0000193b
00003ea1
0ffff324
0000503c
0fffd3e8
00003a30
000067f0
00008f0c
0fffdd33
0fffa93e
000004db
0ffff818
0fff40bf
00003d0e
00002e95
0fffefee
0000260e
00002342
00006559
0fff7d84
0fffbc39
0fff965a
0fffe1de
000022ec
0ffff696
0fffd115
00000fc4
00001092
00003e3b
0fffaf32
0fffbca4
0fff8c1c
0fffa91f
0fffcca9
00006972
000035c3
0fffc84a
0fffac09
0fff77a9
00007bf4
0fffe387
0fff2d8a
00005afb
0fff6755
0fffcc41
0fffe255
0fffde4d
00007f81
0000716f
00001b4c
0fff587c
0fffd3d1
0000351a
0fff98e7
0fffa0a4
0fffb023
0fffbb6e
000001b4
0000920a
0000e8b4
00002606
0fffc05e
0ffff131
0000a731
0000299e
00004ee9
0fffe246
0fff6bed
0000a5fe
000003b6
0fffc317
0000719e
000021c6
00002a85
0fffdd0a
0000cd60
0000171b
0fffa543
000010de
0000077b
0fffb318
0fffa14a
00005fb0
00004969
00003e77
0fff5830
0fffcfe4
0000493e
0fffa996
0fffb2d1
0fffe436
0fffab45
00000914
000009f9
0fffeb7a
000085ac
000081b4
0fff0982
0fffbc78
0fff8514
0fff6ab6
0fff4bd3
0fffb10c
000045cb
00005026
0fffbc57
0fffe483
0fff9d5f
00001689
00004143
0fff99ce
000095eb
000028d3
0000821d
0fff5760
0fff9e42
000039de
000006ee
00006860
0fff96fa
0000aef2
0fff785b
00008f01
00004aa8
00007972
0fff8d7f
000050a9
0fffb75f
000088c9
0fff7e39
00002531
0fff7f41
000076db
000044eb
0fffa332
0fffd313
00004167
0000a210
00004593
0000c91e
0fffc526
0fff27ca
0fffb504
00002a98
0fffb658
0fffbbcd
00003f03
0fffd586
00003631
00004125
000035df
00001673
00005a9a
0fffc9fc
0fffbcf1
00003ae9
00000a09
0fffda0c
0fffc9d3
00003e7e
0ffffdf8
000071f1
0fff9fcc
0fffa308
0fffbbbd
0fffdd7f
000003de
0fffb819
0fffb0e0
00007661
0fffd396
00008047
0000c4a1
0fff976b
0ffffc1f
000034dc
0000085b
00006f38
0fffb9b4
000016ad
0ffffceb
000058e0
0fffd096
0fffc39a
0fff9152
0fffe4db
00001396
00000799
0fffb696
000033bf
00001d08
000003b4
0fffd322
00003afb
0fffa161
0fff8e4f
0fffa316
0fffa170
0fffa6e2
0fff9901
0000d139
000010a7
00001bea
000075bc
0fffd15a
00005e0f
0fffa6fa
0fffb71f
000059fa
00008dfe
0ffffc08
000058c0
0000644a
0fff95ca
00008132
00005769
0fff879c
00008424
0ffff9df
000021fb
00001157
0fffb0ce
0fff7b8f
0ffffb04
0fffebd3
0fffc8c2
00006ccf
00003b74
0fffcd1b
0fffaf5c
00001c8f
00003aa9
00004bbf
000014fa
0fff6dee
0ffff53a
00005a0d
0000a3dc
0fffb478
0fffdddf
00000d93
000050aa
0fffb5f1
00004c58
0000cf13
0000182d
0fffa7a7
0fff9503
0fff713c
0fff658b
0fffe212
00001b2c
0fff4cc7
0fffb6a6
00005f84
0fff8985
00002a2c
000007a2
0fffeef5
0fffed5b
0fffbc32
00007c9c
0ffffb06
0fffc81f
000000f7
0fffd57e
000034ba
0fff84c4
000085a3
0ffffa50
0fffea51
00000983
0fffc163
0fffdb6b
00003e34
0fffbdfa
0fffee21
0fffe087
00009345
0fff7c7c
0000e732
0000284d
00000217
00002ac3
00006c9b
00005cff
00005520
0fff63e4
00001d68
00001a41
0fffe8df
0fff64d1
000046f6
0fff87f8
0000ca09
0fffb82b
00008fca
00000a3d
00007746
00008d71
0fffa5e4
00004452
0fff62b9
00002a66
0fff960d
0fff9e0b
0fffb050
0fffda63
0fff913b
0000a1af
0fffe759
000098a8
00002c18
0000083e
00009d26
0fffa768
0ffffc8b
0fffd655
0ffff2f4
000081d9
0fffa716
00003062
00005cda
0fffa2f9
0fffd717
00004584
0fffd57c
0fff88b4
0ffff4e7
00005a2a
0000acb0
0000864b
00007b1d
0fffc532
0fff763e
000038ed
000013d6
0ffff9fa
0000c269
0fffe387
000040ab
00002e48
0fff8444
0fffe09e
0fff7a29
0000ad7a
00008f74
000066bc
0fffc126
0fffc48e
0ffffd31
00002e59
0fffc09e
000051b5
0fff7189
0000a63f
00001579
0000b76e
0fff9ba2
000066c0
0000035c
0000183c
0fffb13e
0fff9f79
000037b8
0fffc07b
0fffbe58
0fffaac8
0fff7f55
0fffa07b
00004a7d
0000d5c6
0fffd719
0000d6dc
0fff3346
0ffff818
0000b189
0fffc020
00005701
0fff68db
000085f8
0ffffe5e
0fffa305
0ffff26c
00001f3a
0ffffb5f
00000b08
00003f81
0000eb2d
00007311
0fffec03
00005bcc
00001e3d
0fff6099
0fff6524
0000118f
00007161
0ffffc0f
000052c6
00008840
0fff967c
0fffdbf7
0fffd2e3
0fff6286
0fffbee8
0fff976b
0fffab0b
000086c5
0fffb654
0fffa1c2
00002614
0fff7a64
00007365
0fffe96e
0ffff442
0fff8d6f
0fffb02b
0fff8234
00006935
000054c0
00003992
0fff8c35
0fffe4f9
0000b9fe
000088c7
0fffc75d
0fffb7e6
00005501
00000a94
00001817
0ffff3ce
0000199e
00007bb2
0fffcd65
000064df
00006db9
0fff99af
0fffbf77
0fff8225
0fffcc2d
0000250f
0fff8952
00000f9a
00001f55
0fffb317
0ffff189
00007b60
000083b2
00007ffe
00006a4c
0fffdcaa
0fff8844
0fffdf05
0fffb83d
0fffce58
0fffc2df
00007cc2
0fff976f
0fffac94
00008b4a
000080f3
00000871
0fff6f0a
00002592
0fff508c
0ffff45c
0ffff81f
0fffa55c
000024ee
0fff6fe3
0fff9765
0fff21ac
0fffe2d1
000053f6
00005472
0000486b
0fff9ef9
0000450c
00001233
0000ae1b
0fff9af9
00005977
0fffa5ee
00000776
00006361
0fff891c
0fffe6be
0fff7953
00004bcc
00003994
0fffbaea
0fff9714
0fff8144
00003d34
0fff991a
0fff9e75
00006ede
0fff93a9
0000a681
0fff4de3
00001211
0000d21b
0fff4844
0000196f
0fffd296
000004f9
00002280
0fffd969
00004c8d
0fff89bc
0fffe4a5
00001b6d
00006d4e
0fffe5bf
0fffdaac
0000036b
0000ca7c
0000270a
00009b3c
00007b41
00001523
00002821
000046bc
0fffa1dc
00004200
0000609c
00000e4f
00008c85
00004620
0fffc0a4
0fff71bb
00008e3e
0fffd793
00004f34
0fffb0d3
0fff744e
0fff9ad8
0000099b
0fffccdc
000050dd
000042db
0fff7dda
00002fb9
0000b693
0fff8c25
0fff5db2
000001e7
00008386
0fff9661
000003f3
0fff79ff
00009662
00009377
00003927
00008937
00003660
0fffd4f0
0fffb8f1
0fffb15d
0fffc96b
0000126d
0000933d
0fff95e3
0fff3fc2
00009120
0fffd03e
0fffbe9d
0fff96b5
000090aa
0fff6cca
0fffd7b4
000027de
00000e8c
00003036
0000bfa5
0000768a
0fff85c3
0fff7b87
00011484
00006c37
00007755
000046fb
0fff2164
0000061e
0fff9528
0fffc660
0000a0e4
000072b4
00004933
0fff9b6d
00004b7c
0fffb6b8
0fff3757
0fff9a55
0fffab64
0fff7af4
00002062
0000084b
0fffcccc
0000d48a
0001105c
00000387
0fff69cc
0fffd590
00006d0a
0fff8488
000006e0
000004b1
0fffbaca
00000772
0000304b
0ffff525
0fffa902
0fffdb66
0fffe302
00001aab
00000b39
0fffa3af
0fffc767
0fffcc04
0000de27
0000026e
0ffffa43
0fff9e21
0ffff255
00001d05
0000259b
0fffb353
0fffa91b
0fffdea2
00001cb9
0fffac40
0fff9438
0fffcc2b
0fffdd0c
0000e391
0000519f
0000687c
00004787
0000965b
0fffad9c
0fffddb0
0000dcf3
0fff4657
0ffff035
0fffaab0
0ffff7e5
00007640
0000b220
0fffb5d7
00008744
0000792c
0fffaf83
00011512
0fff60ba
000027b0
00001dd4
00003a77
0fffbbf5
0ffffc6d
00008163
00007a84
0fffb2d6
0fffe2d5
0fff39c9
0fffbff9
0ffff8c4
0fffe873
00005c8d
00002575
0ffffe8b
00000238
00006a83
0fffb650
00008ccd
00009d75
0fff9bf2
0fffd8c8
0fff8d8c
0000196f
0ffee646
0fff44d3
0fff6824
0fffb886
00002c79
0000197d
00007a5f
0fff532b
0fffd057
000029de
0fff8df2
0001095d
0fff89bf
0000463b
0000b6ba
0fff9851
00001f0c
00001da0
00001ddf
0fffcfec
0000382b
00001a38
0000087b
0fffa335
0fffc4ce
0000c19e
0fff828d
0fffcdd7
0000815c
00001440
0fff53f1
00010fa2
000021ae
0fff7fc9
0fffd128
00005df8
0fffd52f
0fff40e9
0fff868c
0fff7a0d
00004744
0ffef763
0000e2c2
000060ae
00003430
00004dd5
0fff1ecb
000067c7
00008cbd
0fffbe4f
0000293d
0000c80b
0ffff16a
000019c7
0fffca8a
0fff7127
00005a60
00003f9d
0fffc8ee
0fff9ac4
00001fae
0fffcc46
00007c6f
00007f46
0fffd8f0
0fff9bb5
0fffd70b
00001753
0fffce66
0fffabf4
0000af33
0ffff0bb
00000b02
0fff58ed
0fffc71a
00007d88
000027b9
00008016
000044ab
0fffc61e
0fffc80f
0000257a
0fffb552
00006a44
0fff9e18
000024c7
0fff8db5
00005d6a
00005172
0000dd90
000018ef
0fffdde8
000080d3
0fff7173
0000ab10
0000aef9
00003458
00002342
00008f40
0fffa223
0fffe251
00010d00
0fffe03f
000056c9
00009dd6
0fff4ea6
00003427
00007cc5
0fff950e
0fffc6bf
0000ebed
00003607
0fff80d7
0fff6811
0fffded0
0ffffff6
00002e24
00000553
0fffad98
0fffdccf
0fffc16e
00001939
0000ca0c
0fffedac
0ffff207
0000aad3
0ffff1e5
0fff3ae0
0fff7e9a
00005431
0000aa27
0000473c
0fffd0cb
0000fe30
00009227
000036ad
000046e2
00008a38
0000b106
000033a5
0000bd50
0fffcc66
00006c98
0000609e
0000ae6d
0000328f
00006860
000014dd
0000a1c9
0fffe75b
0fff4928
0fffe628
0fff463d
0fffe115
0fffab55
0000c9ef
00003898
0000cc54
00000753
0fff6713
0000935d
0000199b
0fff7a96
0fff925f
000079ce
0fffc67d
00007ac2
000014cc
00013749
0000aacd
0fff9943
000138a4
0fffcd39
0fffdfd9
00009c8e
0fffdd01
00001d10
00004229
00009f77
0fffda90
00002268
0fffdb22
0fffb087
0000993e
00007fba
0000f889
0fff8a53
0fffab81
0000536a
0000d7b8
00015b5a
00002b5e
0fffa5aa
0000d710
0fffce5d
0fffccf5
0fffc12b
0fff649d
0fffa814
0fffd36c
0fffe4de
0fffe006
00005f90
0000cc82
0fff95a2
0000745b
000018ce
00004c92
00006143
000093ff
0fff8364
0fff4d81
0fffd1a2
0000b6eb
00009cef
0000434a
0fffaeab
0000356b
00006131
000078dc
0fffbc95
0000a518
0fffd397
0fff681a
0fffc5a5
0fffd36e
0fff57fd
0ffff926
000124e7
00001a87
00013798
0fffdc34
0fffaafe
0000525b
00005446
0fffc75b
0fff7ade
0fff8a19
000037e4
0fffc67d
0ffff5f5
00002e90
0fffdd86
00001f20
00001554
0000012d
0000043c
00006074
0fffaea2
0fff851f
0fff892b
000067b0
0000549b
0fffebc0
0fff8602
00003741
0fffeb35
0fff331d
000058c9
0fffeba0
0fffb4c4
000002d8
00005d95
0000656a
00002eb4
0000732d
0fffba14
0fffb3e9
000045f2
0fff7b8b
0fffd689
0fffe810
0000102c
00007103
00007864
0fffef29
00003795
00006025
00006450
00004220
00001b8d
0fffb4da
0fffd789
0fffe13e
00009664
0000352b
0fffe533
0fff8676
00002acf
0000232c
00008aef
00004c7a
0fffd346
0fff88e7
0fffe370
0fffe937
00000eb0
00003c05
0000750d
00008425
000047bc
00000a62
00008bb3
000073e0
00000e7d
0ffff335
00001797
0000cac7
00003b24
0fffe861
0fff6eb2
0fff9630
0000157b
0000304b
0000dc0d
000041eb
0000c627
00006c82
00006874
000002cd
0fffd9f5
000083d0
000018ba
0ffed776
0fff7532
00000059
0000449a
0fff1010
0fffbea0
00003759
0fff2149
0000543d
0001836b
0fff34f1
0000006c
0fffc747
00007aae
0fff6bba
0fff99d2
00008703
0fffc7f1
0fff1a96
0fff9de3
0fff4e03
0fffc564
00000eaf
0fffca30
0fff3281
0fffe728
00005b22
0000015c
0fffd208
0fffc655
0000aef3
00001ff5
0fff645e
0000960f
00005ccd
0ffff772
0fffdabf
0000c60e
0fff2990
00005a95
00001415
000011ce
0fff8b9f
000057c1
00000fa1
0000175d
00003a4b
0fff90ae
0fff87bc
00002c50
0fff72d2
0000346a
00002919
0fffcd62
0fff8517
0fffe58c
0fffd95b
0fff8b22
00009dbe
0fff82da
00002c02
00001efd
0fff81e5
0000978f
0fffcb21
000057b5
00005da9
00001d38
00003a8a
0fffceb2
0fff99cc
0000a6ed
0fff9925
0fffcc71
000048a8
0fff8439
0000462a
0000a650
00002a14
0000d621
00000e93
0000236a
00007209
0fffb2db
0000116d
0fffb226
0fff8007
0000d4f0
000024f8
000098e7
0fffdf3e
000060b6
0ffff078
00003b7e
0fff87db
00003336
00003396
00007177
000074c4
0000357f
0000a5e1
0fff9bb8
00002dcc
0fffbd7a
0ffff630
0fffc68a
0000595d
0000570f
0000ba7d
00003438
00005915
0000367e
0fff7084
00000c84
0fffa20e
00005bb7
00007555
0000d02a
0fffcba9
00001b06
00007b34
000056f5
0fffaf82
0000332d
00009279
00002948
0fffd824
0fff8001
0fffd9b3
0fffd4e9
00001e1b
0fff8ae7
0fffb4b6
000050c7
0fffb4f9
00001fde
00008552
0fff619d
000003bc
0fffa584
00007063
0000efd1
0fffba7c
00002fd5
0000165b
000016bc
0000700d
0000892b
000023f0
00001afd
0ffff089
0fff8fb9
00002bd6
000048ee
0fff9190
0ffeb723
0fffb94f
0fff6e21
0fff636f
0ffff1d0
00007c11
0fffdc4e
0fff7306
000024f9
0fff8dd8
0fff36b1
0fff46be
0000cc6a
0fff33bb
0000cd31
0fff9441
0fff2b0c
0fffdbd5
0fff9854
0fffc6ca
00007e8c
0fffb370
0fffb115
00007c43
00006446
0fff583d
0fff862d
0fffb200
00001b19
000009d0
0fffdddc
00005f01
0fffce59
0000c2f3
00008e3b
0fff7ac5
0000af76
000015c5
0000681a
0fffd82e
00002e03
00002ab5
0fffd0a8
0fffd6ff
0000570c
0000214d
000013c8
0000ffff
0fff23b0
00002beb
0fff52de
00000235
0000026a
0000380f
0fffec87
00001186
00001217
00002535
00002b7c
0fff986e
0fffd478
000089f9
000062dc
00002a6e
00009737
0ffff36f
0000aced
00001585
0fff8724
0fffc505
00006b29
0fffdf4f
0fff6eda
000094e2
00002674
000082b8
000057fa
0fffdf21
0000234a
0000aa5e
00004e84
00009354
000039a6
0fff76ab
0fff2e62
00003db0
0fff8321
00009a18
0fffba80
0fffb2cd
0fff9548
0fffa4c6
00004825
000028ee
00005619
000095bd
000055f6
00003e43
0fff6bba
0000936e
0fff3c4e
0fffe3e0
00009501
0fffdcaf
00000f5f
00000939
0fff9d4a
0fffd3d8
00004a40
000061a5
0fffd483
0fff09bc
0000d54d
0fff9e28
00005379
0fffdd21
0fff67d7
0fff9596
0000190e
0000283b
0fff5a13
0fffd364
0fffddec
0000fce8
0000aa14
0fff15fc
0fffab64
00008e82
0000a271
0000586a
00009ff7
0000de14
00004a14
0000a48b
0fffd4f1
00003c85
0ffffd1a
000004ac
0000fe60
0fff5939
0fff92bb
000075e0
0000811e
0fff7e2b
0fff9c2a
00004d81
0fffeeae
0fff8323
00005334
00005a34
000026ca
0000707c
0fff9bca
000067c1
0fffc6d0
0000626e
0fffc386
000069bd
00006fd4
0fff8364
00002baa
00006053
0fffc303
0fff86da
0fffc5a8
0fffd744
0fff9cf5
000086ed
0fffc78e
00001a96
0000421d
0fff8f98
0fffaca4
00001962
0fff9b02
0fffc64c
00003b2d
000060f5
0fffa70f
0fffba14
0fff9bbb
00007be2
00000ece
0ffff2f3
0ffffe39
0ffffe0b
0fffa1cd
0fff85ed
0fffa5fa
00003a08
00006c91
000000e8
00005e2d
0000296e
0fff98b3
0fffa83b
00007002
00005386
0fffd608
0000099e
0fffabea
00002ec9
0fffe458
0fff9564
0fff903e
0fffb8db
0fff880e
0fff8f41
00004036
0fff9287
0000f18c
0fffa078
0000a896
00001e62
00007a2b
00004a67
0000397a
0fffb932
0000da1e
0000bb1c
0000ba96
0fff2d1f
0fff67c0
0fff5e45
000085bf
0fffee22
0fffde47
00004f3b
0000786b
0000c248
0fff8e8f
0ffee47b
0ffffad4
00008551
0fff9837
0fff1d82
0fffe6ea
000007ed
0fffa92c
0ffffa41
00002828
0fffc89f
0fff7df2
0000f742
0ffff8ec
0000555b
0fff7115
00003936
0000a252
0000ff4e
0000adf6
0000a43a
0fffd6d0
000012f2
0fff97f9
00005dd9
000035b5
0fff67ae
0fff7706
00007a7e
0fffd7e8
0000f380
000057cb
00010cc0
00006124
0fff0a67
0fffdb46
00008108
0000946a
0ffff094
0ffff850
000025b6
0000f919
0fffac3a
000059f8
00005dfd
0000d77e
00004f00
0fff97b3
00002a29
0fffd719
0fff1aa9
000062a3
0000c7a0
00005e0e
0fffa38b
00007a89
00002038
0000cf01
0fffc0d3
0fffb088
0000beda
000021e1
00008ac8
0fff7fab
00004608
0fff7ed1
000057b6
0000289a
00000ffd
00004bd4
0fff9f88
00002e25
000027e0
00003faa
00000c3e
000072e5
0fffbb6d
0fffbacb
00001a7c
0fff48d7
00008746
0000a2bd
0fffaa63
0fff993c
00006d24
0fffb61d
00008368
00000a79
0fffc7d9
00005805
00001421
0fff4583
00007e2e
0fff9a02
0000650b
0fffcc04
0fffcbd4
0000370e
00001189
0000096e
0fffd5d5
00005d69
0fff5af1
0000554c
0ffff558
0fffcac1
0fffd232
000014f8
0ffff8fb
0000b863
0fffb67f
0fffca63
0fff7ea7
0000760f
0fffcc04
0fffa571
00004c4a
00006b5a
0fffdd3e
0fff88d2
000021ab
0fff8d92
00009364
0fffd73d
0fffeaaf
0000079a
0fff9ad1
0fffa260
000043e6
00004bf9
0fffaa5c
0fffe3cf
0fffa8d6
0fffc726
0fffd8d8
000078a5
000053de
0fff3c01
00006c8a
0fff616b
0fffbee8
0fffd1f0
0000a916
0fffdb0f
0fffdcea
0fffdb90
0000afeb
0fffddff
0fffcc8f
00004e56
000011c3
0fffe112
0fff93bd
00006ab8
00008249
0fffc461
0fff9230
00008b8f
000057cd
0000292d
0000a784
0fff437d
0ffff580
0fff7465
00000a1c
00008e13
0fffa9e8
000023bd
0000abc7
000022d8
0fffda80
000002bc
000000c1
0fff7551
00005d8f
0fffb1d4
0ffffad5
00002604
00000d13
0fff57c1
0fffc226
0fffe0e6
00007dba
000008f6
0fffdea1
0fffb962
000042b5
0fffe06e
0fff4559
00005616
00006966
00009e06
00008712
0000acb9
0000ccaa
0fffefe4
0000c31c
0000a651
0fff6d7f
00005ea0
0ffffbe3
00005e59
0fffc803
0fffdfdc
000016d7
0fff678c
0fff9b4c
00001b96
0000ae62
0fffdf6e
0fffe282
0fff9265
00002ffa
0fff7f54
0fffa852
0fff88f5
0000026a
0fffde62
0fffdcfa
0000f05b
0fff9fe7
0fffc03b
00005525
0fffbb37
00005192
0fff1af8
0fff603a
00004361
00006d13
0000722c
00001d01
000076ff
0fffc17f
0fff9446
00007455
0fff91d6
0ffff5d5
00004106
0fff9a1b
0ffff072
0fffc2e7
0fffb1b3
0fffeb99
00005857
00000458
00000cb5
0fff9c54
0fffea68
0fffbbdf
000063a6
000081c4
0000502b
00002ac4
0ffffc4f
0fffa906
00002555
00008453
0000347f
0fffd9cc
0fff8cf9
0000779b
0fff87c2
0fffd224
00004a01
00002cc7
0ffffaef
00008603
0fffaba9
00004c2a
00008ef4
00002ab6
0fffa7e2
0fffacea
00005ee3
0ffff291
00005824
00002a96
0fffd711
0000430b
00005d58
0fffeef4
0fffd6c0
0fff74bc
0fffca2f
00002119
0fff866f
0fff881f
0fffcc1c
0fffc164
00004ed4
0fff75a4
0fff910b
0000827c
0fffc747
0fffffb8
