0fffe0a4
000024eb
0ffff2d5
0ffff137
00000d8e
000026b0
0000182f
0fffec43
00002a3a
0fffe709
0ffff786
0ffffb03
00001543
00001bfc
0fffdce7
000025b3
00000c22
00000a07
00001fa5
0000156a
0fffe86c
0000117e
0000230f
00001a8b
0ffff75e
00000c42
0ffff201
00001cd0
0fffe12b
0fffffa4
0fffda0e
0ffff2b1
0fffec05
0ffff3a6
00002191
0ffffce3
00002568
0fffeebf
0fffec12
0fffdf3e
0ffff9b9
0000183b
0fffd96f
0ffff0a8
00000db7
0fffe19d
0ffffc6c
0ffffd5c
00000a90
0fffe6e9
0fffd704
000028ae
0ffff3c3
00001eb6
0fffe058
0fffd81d
00002086
00000276
000020c0
00002255
0ffffbf5
00001a7d
0ffffd6a
000016a1
0ffff66c
0fffdbe4
00001e2b
0ffff359
0fffe86a
0000244b
00000b5b
0fffd9e5
0ffffa5b
0fffe9a0
0fffd694
0ffff6a4
0ffff765
000023f8
00001050
0fffddfb
00001d90
00001c2c
000000c0
0000261b
0fffee44
0000021c
0fffdb60
0ffff744
0fffea08
00000505
000008c9
00000d3e
00000dfa
0fffe065
0fffdc2d
0fffd8a3
0fffd2a4
0fffd62e
0000188a
0ffff400
0fffefde
00002b92
000026ab
0fffe2aa
00001e69
0000175c
00000f08
000008a5
0000019a
0fffe1dd
00000162
0ffffec8
0ffff815
00000bcb
0ffff19b
000013d7
0fffe8ba
0fffdf73
00002620
0000188a
00001315
000022fc
0ffff1cf
0000120d
0fffedf5
0fffe72a
00001435
0fffe3b4
0ffff0ec
00000c2d
00001700
0fffe3a0
0ffff84a
0ffff77b
000009f6
0fffd45e
0fffd688
0fffe366
00001bb7
0fffeff4
0ffff0fa
0fffe327
0000209f
0ffffaca
0ffff2bd
0ffff02c
000004d0
0ffffa1a
0fffdc79
0fffef49
000015c1
0fffe6e3
0000262a
0fffe402
0000155f
0ffff419
000002b2
00000ce8
00004c1c
000038ea
00003363
0fffe5bc
0ffffb08
00001118
000013b4
00000578
0fffd66f
000005c4
00002a22
0000214b
0fffd5c5
000002c1
0ffff0c6
0fffddcb
00001a91
0fffd2a0
0ffff4e5
00000bf7
0ffff31f
00001cfa
0fffdb46
0ffffac2
0fffff50
0fffe2f0
0ffffe02
00000027
0000358f
00003ddf
00000358
00002fb8
0ffff364
0fffebe4
0ffff78a
0fffecb4
00000642
0ffff2cc
00002b02
00000add
0fffe67f
0fffe16b
0fffdc29
000013d7
0ffff252
0ffff7ed
0fffd544
0000135d
0ffff5a7
00000798
0ffff1ff
000011d6
0fffc392
00000287
0fffdf9a
0ffffae4
0ffff37c
0000404a
00001c9d
0ffffd4a
0000248b
0ffff719
00001af0
000019ce
00001929
00001832
000026d5
00002231
0fffd6ca
0ffff272
00000719
000018fa
000026e7
000025f1
0000114f
0ffff622
0ffff8ec
00000650
00000325
0ffff9ef
0000150f
0ffff939
0ffff31e
00001df4
0fffd9e6
0ffff006
00002cc8
000029d1
0ffffe94
00001498
0fffe4b3
0000066a
0fffed79
0fffef7e
00000792
00002472
00001254
0ffff5ad
00000292
00000480
00001abb
000002ae
00000591
00001823
0fffd2cb
0000118a
0fffe40f
0000173b
0fffd8c6
0fffe3a3
00001bd9
0000192f
0000090a
00003915
0000489e
00001d60
00003d87
0000203c
0fffd50f
0fffd37e
000017b4
0fffe190
00001cc9
0ffffd81
000027fc
0fffeda5
00000215
000017e9
00000a52
0ffff368
0fffd568
0ffffdb2
0000095a
0fffdb2d
0000114e
00001407
0000315d
00000825
0fffe007
000020e1
0fffd69e
00000229
0000148b
000003b8
000045a8
00003594
00000b15
00000ccf
0ffff599
0fffecc8
00001730
00001599
0fffe67b
000023d1
00000578
00001d06
00001d6d
0000002d
00002622
0000112e
0fffdb71
0fffc837
00001415
0fffddf5
00000832
0000344e
00000087
0fffd4f9
0fffd77e
0fffe2dc
0fffe4a8
0ffff4a0
00004057
000005cc
0ffffc2b
00001a1e
000020e6
00002535
0fffef0e
0fffda9d
000008af
0fffe895
000002dd
0fffea80
000011eb
00000aa3
0ffff868
00000ae7
0fffd937
00001b09
0ffff034
0ffff379
00001abc
00002473
00000220
0fffc5b6
0fffc5d7
0fffcb09
000002dc
00002018
00003254
00004987
0ffffbba
0000214c
0000214f
00001ca0
00000504
000005ce
00000642
00001952
0fffeaa1
000000dd
00001a73
000037ae
0000185d
0fffd792
00000ee6
0fffedbe
0ffffebc
0000088e
0fffeebc
0fffe54b
0fffbc41
0fffb8dd
0fffef6d
0fffcf71
00000be1
0ffff2f3
00001ed2
000024fe
000012cc
0fffdde2
0ffff183
0ffffdd4
00000b8c
00001c19
000026b2
000007e1
0fffe385
0ffff751
00001b05
0ffffd51
00000607
00001040
0fffe759
00000b7b
0fffe831
000011c6
0fffe97f
0fffbf9e
0fffc586
0fffd883
0ffff976
0ffff864
0ffff0ce
00001821
00001e12
00001847
000028c1
0fffe347
0fffff9f
0000178b
00001e4d
0fffd997
000024c6
0ffffe39
0000181e
000010cb
0000251c
00003319
0fffff42
0ffffc7d
00000fd6
0ffff5ab
00001581
0fffe478
000001f7
0fffeaa2
0ffff6ad
0fffdcdb
0fffd720
000014ed
00002624
00004484
000017ef
00003563
00001f26
0fffedda
0fffd645
0fffeb62
0000187b
00001580
00001643
0fffe87c
0fffe465
00004a1e
00003162
000024cb
0000187a
00002647
0ffff5d0
0fffff1e
0fffedbd
0fffff11
0fffecd4
0fffc886
0ffffc1c
000005cf
0fffd77f
0ffff39b
00000645
0000401e
00002a8e
00001bf7
00001284
00001bb6
00001d08
0fffe79d
00002089
0000204c
0ffff7ab
000001b6
00002dae
00002d1a
0fffff83
00002340
00003635
0fffff32
0fffffa6
0fffffcc
00001cde
0fffd5a6
0fffd2c1
00000e51
0fffe769
0ffffdd7
0000133d
000006fe
00000dca
0ffffe34
000040c3
00001403
00002fe7
00001071
0fffed05
0fffef95
000019dd
0fffed13
0000071e
0fffeb03
00001800
0000166b
0ffff5b3
00001a78
000043da
0ffff09e
0fffd379
0fffe99c
0ffff4d0
0fffdc0c
0fffcb32
0000128a
0fffd5ff
0fffe4b4
00001cb5
00001e49
00001c18
0ffffa11
0ffff45a
00000634
0fffe8f7
000005c9
00002478
0fffe3ff
0fffed14
0fffdacd
0fffe081
00000b81
0000206e
00003e11
00000686
000030b7
00002606
000007cd
00002573
00001588
0fffd5f9
0fffd72a
00001f04
000013f2
00000213
0fffedc5
00001829
0ffff068
00000d40
00003ea0
0000178f
0fffe5a0
0fffd666
00000cd2
000009e3
000013c0
0fffe703
00001f51
0ffffafe
0000215e
0ffff022
0ffff781
0000252a
0ffff66a
00003ed6
0fffed6a
0ffff22f
0fffd1c9
0fffe5f3
00000796
0000056d
000008c6
00000df5
0fffe00b
0fffdad1
0ffffd81
000015e1
0fffed6e
00000848
0fffe3b5
00002138
00000374
000026e2
00001476
0fffdb47
00001962
0fffdf57
00000daf
0fffdcab
0000341f
00003ac2
0ffffcb5
0ffff554
0fffed0c
000012fe
0fffdf42
0fffbff8
0fffecff
0ffff9b9
0fffc572
0000233e
000005d2
0fffd030
000011ea
000013a3
0000209a
0fffeadd
00001a1f
00001891
0fffecac
0fffffb0
00000f8d
00000661
0ffff320
0fffff00
000019ff
0000180e
00002516
0000243d
00000f7d
00000569
00002dd6
0000037d
0ffff67c
0fffcea9
0ffff1fb
000008bc
0fffcff4
0ffff3d4
0000020c
00000c6b
0fffe64b
0fffdfdc
0fffd404
0000116c
0fffeb24
0fffe8b1
0fffe78a
000008e3
0000153d
0fffddc4
0fffe1ee
00001aa6
0000091a
0fffebb8
000020d4
0ffff574
00000299
0000328f
000013ce
00002232
0000254e
000019d6
0fffd439
0fffdaf0
0fffe30c
0000209e
0fffed71
0ffff85c
00000690
0fffecaf
0fffd4f8
00000e46
00001024
0000065b
00001fba
0fffe59b
0000255d
000003f9
0fffd9c0
0fffdef7
00001f4a
0fffdb69
0fffe23f
0ffff387
00000de9
000019ed
000023c5
00002da3
00002979
00002183
0000102c
00001aee
0fffd50b
0fffeb33
0ffff49c
0000149d
0fffcaa8
0fffda2b
0fffce79
0fffed63
0ffffbe0
00001fa9
00001b01
000015f6
0fffe80c
0000260f
00002485
0000040f
00000b05
0ffff423
0fffe321
0ffff7b0
0ffff21d
000003c0
0ffffc65
0fffe636
0fffe95b
0fffe9a7
00001c68
0ffff262
0ffffb30
0ffffee2
0ffff62b
0fffffdd
00000c9d
000017d6
00001a21
0ffffacd
0ffffdf8
00000dd9
00002547
000019ec
0fffdc96
0000187d
0000264a
0fffe447
0ffff136
0000297d
0fffd928
0fffd56a
00002591
0ffff568
000005b0
0ffff11e
0fffe1e8
000009af
00000f2a
0fffd62b
0fffdbd8
0fffdc45
000014d1
00001bcf
0fffe010
0ffffe8e
0fffe6e9
0ffff91d
0fffe0cd
00001ed0
0fffd8c3
00000445
00000f88
0fffe0e7
0fffddd3
0ffff3ac
0ffffc1c
00000c8e
000018fe
00000be3
0ffff0da
0ffff6aa
0000236f
000023e0
0ffffe63
0fffffbf
0fffdadf
000014cb
00000899
0fffdb30
0ffffae7
0ffffcc2
0ffff13f
0ffffdc0
0ffff2d9
000020b2
0ffffff3
0fffe806
000006a2
0ffffa85
0fffd5b4
00001ba6
000021ec
000010f5
0ffff683
0fffe88b
0fffe67a
0ffffebf
0ffff956
0fffface
0fffd5f5
0ffffb51
0000145f
000021e3
00000fb5
000027f4
00000a5a
000005e5
0ffff230
0fffe234
0ffffceb
000022e6
00000ed5
0fffeadf
000001e9
0fffe5e0
0ffffb75
00001dab
00001d7f
00000a98
0fffd627
0fffdf1b
0000223d
0fffeb1f
00000c2a
0fffee62
0fffff1b
00000bbf
00001ff0
0ffffaa1
00001c6e
0fffe24a
0fffd8d1
00001b1d
0fffde70
0fffda5b
000028a8
00000f18
0fffdf9c
0fffe57e
0ffffb99
0fffe914
0ffff2f2
000008fb
0fffd569
0fffd781
0ffff497
0000299d
0ffff5e2
0000083d
0fffd5ab
0fffe917
00000f05
00001e74
0fffeda5
000016eb
00000191
0fffd7aa
0fffdd95
00000c5c
0000204b
0000115a
000016fd
0ffff698
00002a2c
0ffff5c1
0fffe637
0ffff58b
00001c83
0fffd7ac
0ffff0ec
0ffff564
0fffe7ef
000028c8
00001fbe
0000038e
00000a18
0fffdc5a
00000f79
0000238d
00000a0b
0000071c
0ffffd9f
0ffffb9b
0fffe094
0fffecad
0ffff189
000029ca
00000329
0fffe92f
00002936
00003104
000009df
0fffee8d
000011ce
0ffffea2
00000650
0fffdffd
000005c6
0fffe753
0fffdacb
0ffffbd5
0ffff6a9
0000073c
0ffff518
00001c8d
0fffffb0
00000cbc
0fffea86
0ffffbd3
0fffd93b
0ffffb15
00000819
0fffe597
00000369
00003b53
0ffff94b
00002110
0000096c
000002c5
0000340b
00002a28
000002a0
0fffedfe
0fffe180
00000cc1
00001aea
0ffff728
00000030
0ffff211
0fffe4b0
00000258
0fffee8f
000010f6
00001e48
00001c02
000017ec
00001a22
0000045b
0ffff84e
0fffd41f
00000507
000006ea
0ffff0c1
0fffdef3
000001ca
0fffeb54
0000386b
00002555
00002951
00000490
00003ce3
00001aed
0fffd39f
0fffd389
0ffffddc
0fffe345
00002188
00000e94
00000667
0fffef5c
00000002
0ffffd87
00000c4f
0ffffe58
0ffffd06
0fffd2e1
0fffd191
0fffc8eb
0fffa84f
0fffdbb3
0fff9fc1
0fffc1ba
0fffed49
00002d89
00004168
000064c4
000059bd
000039f0
0ffffcd6
00000c58
0ffff812
00000681
0fffe50d
0fffec47
0fffe477
000015eb
00000268
0fffdd6f
0fffe463
00001245
00001ab4
0fffde86
000008fc
00000bf0
0fffc6bd
0fffaa4b
0fff9129
0fff8393
0fffb8ad
0fffc132
0fffecd5
00000dca
0000390a
00004da5
00001c41
0000153d
00001e1e
0ffffcab
0fffec65
0ffff030
000005af
0ffff1fb
0fffdf2b
00001aa0
0000012b
0fffe6e0
000011cd
00001713
0ffffc48
0fffe8d7
0fffee1e
00000514
0fffbc7b
0fffa7ef
0fffba75
0fffcffc
0fffe765
00000ab1
0000080f
000003d1
00003bb1
000010f0
000018e7
000000e4
0000164e
00000b7a
00000bc5
00001547
000019c6
000005d0
0ffff08c
00000f78
00001fe6
0ffff72e
0000129f
0fffdf3d
0ffff46a
0fffe19c
0fffc651
0fffa90a
0fff94d0
0fffbfdd
0fffe1f1
0fffe8b0
000004ed
0000247c
0000027d
0000366e
0000101f
0fffe6e3
000011a9
0fffe9fd
0fffe986
00002953
0000133d
0fffed36
0fffea5f
00001ced
0fffedcb
00001b94
0ffff057
0fffecb7
0ffff566
0fffd7ee
0ffff98c
0fffc636
0fffc51d
0fffd2dc
0fffe433
00000a32
00000d85
00004359
00000633
0ffff9ce
0ffff7a5
00001890
0fffca7c
0fffcca8
0ffffcf8
00002a34
0ffffcde
0ffff31f
00002b3d
00001e6b
000023c0
000009b7
0fffe355
00000fb9
0fffe772
0ffff01f
0ffff047
0fffd706
0fffffa2
00002043
0ffff357
0fffd1db
0000153c
00000e56
00003aef
000012aa
0ffff3c8
0fffc42c
0fffccc9
0fffcf98
0ffffdba
000003a9
0fffffaf
00001b6f
000031f9
000007fa
00001104
00002c08
0ffffeb4
0000073e
000002e9
00002a91
00000ae3
0000162a
0000068a
0ffff477
00002099
0ffffcdb
0ffff45e
0000069f
0fffea37
000023e0
0000043f
0fffb5d9
0fff6b9d
0fff846f
000009b1
00000869
0000221c
000018d8
00004294
000059e6
0000476a
00000cd4
0000300d
0fffedb9
00002a76
00002545
0ffffa05
00001aef
0000160a
00000a53
0fffed93
0ffff74f
0ffff9af
00002543
000000cc
00000aa2
00001832
0fffeb9a
0fffe1bc
0fffbc1a
0fffdb9a
0fffde8b
00001656
000026ee
0000222e
00004508
0000397c
000039e8
00000606
00001504
0fffff2c
000003a3
0fffed59
00000db3
0fffe39a
00001710
0fffef4f
00001f52
00000e50
00001ffb
0000193a
0ffffc4f
0ffff4d8
0ffff76c
0ffff26e
0fffeddb
0fffd90b
0fffe6fd
0ffff084
000008f5
000053c9
000047be
0000495c
0ffff616
000022a2
0fffe4a4
0fffd002
000003ce
0fffcb4a
0fffda6e
0000114d
0fffeb48
0ffff287
0ffff99d
0fffd6fa
0fffdd94
00002242
0000101c
0fffea56
0ffffa54
0fffef6c
0fffbfed
0ffff71e
0fffd907
0ffffd28
00001817
0ffffdbd
00005171
00002c45
0ffff9d6
0ffff8cd
00000f63
0fffea59
00000862
0fffc797
0fffe6e0
0fffd3d7
00000679
0ffff9d9
0fffd2bb
0fffee23
0fffd611
00002856
0fffd959
0fffeece
00000e25
00000caf
0ffff3c0
000025a1
0ffffbdc
0fffe4f1
000036fe
00001922
000023b8
00003209
00001d1f
0fffe02f
000028c7
0ffff835
0fffe1c2
0fffc421
0fffd1e9
0fffcfcf
0fffca09
00000194
0fffea1c
0fffd59c
00000c2d
00000b54
0000030f
00000277
0ffffcdb
0ffff467
00001ee7
0fffeea9
0fffe3ac
0fffe62f
000016fa
0ffff814
00002eca
000026cd
00005db0
00005207
00000a66
0fffd614
0ffff901
0fffff1f
0fffd0e3
0fffbe4b
0fff9c74
0fffc288
0fffda8d
000011c8
0fffd1ed
0fffd60f
00002d24
0fffedd1
0fffde4c
000020ce
0fffe915
00001cbb
0fffe686
0fffe322
0ffff259
000007ee
00003167
00001c0c
0000355c
00001f78
00003ce3
00000eb4
0fffbe53
000012ad
00002097
0fffd870
0fffcc3c
0fffd8e0
0fffa8cc
0fffe8e7
0ffff790
000017ad
0fffe436
00002051
000025e8
0fffd852
00002351
0fffd581
000015e3
0fffef6d
000009d9
0fffed92
0fffd352
0fffe4a1
0ffff8a0
00002bfa
000032bd
00000064
0000035e
0ffff648
0fffee26
00000621
00001bfb
0000148c
0ffff48e
0fffda37
0fffe2f6
0fffee0f
0fffd743
0ffffbff
0ffffebf
00001583
0fffd849
0fffe3f0
00001839
00000d4a
0fffe657
0fffd878
0fffef11
00002590
0fffdc42
0ffff64e
000037af
00003422
0ffff19f
0ffffe2e
0ffff995
0ffff936
0ffffea2
0ffff66f
00000653
00002065
0000047b
0fffeb4c
0fffe855
0ffffc88
00003292
0000104d
0ffffcb2
0fffe560
00000b24
000022ed
00000c84
0fffdb20
0fffe198
0fffe330
0fffeb00
000018f0
00000720
00001f21
00001b23
0fffeb93
0000000b
0ffff1c1
0fffc3c8
0fffda80
0fffe6f6
00002fdc
0ffffade
000004b4
00001dec
0000339f
0ffff82e
00002615
000001a3
000010ab
0fffdb53
00000a13
00001105
00000dda
0fffe759
000000c8
0ffff81f
000016c0
000012af
00000887
0fffef75
0fffe7f6
000013d8
00002486
0ffff55d
00001e03
00002092
0fffc85d
0ffff3b6
0ffff0ea
00002932
00001e6f
00002715
0fffe546
000031af
000008ad
0ffff684
0fffdd5c
0ffffb82
00000bab
000026b3
000021ed
00000092
00002273
000004f5
00002a25
000005ad
0ffff8d3
0000036f
00000453
0fffca49
0000024c
00001a5c
00000134
0ffffa9c
00000dd2
0fffd836
0ffffb5f
0fffdfe9
0ffff438
0fffd58e
00000b9b
0fffe324
0fffe0ca
00001357
000010f6
000029fb
0fffde51
00000ddb
00002abb
0000244c
0ffffe34
000003da
00002074
00001c4a
0fffe5f0
0fffe8e4
00000c92
000005ba
00002896
0ffff833
0ffffa76
0fffed1f
00000b8f
00001dd2
0fffff87
000033d9
0ffff68e
0fffe524
0fffe3b7
000002ea
00000b04
00001e1d
0000063c
0fffee34
0fffd9c2
0ffffd3d
0fffdced
0ffff99e
000009da
000022e1
00002a13
0ffff891
0fffdd91
00001028
0ffff6f8
0ffff64c
0fffea24
0ffff770
0ffff306
0fffdf4f
000034f4
000003b4
000000de
00000664
0ffff721
0ffffa61
00001681
000018e6
0ffff325
0fffdadf
0ffff70c
0fffed98
000012e4
0ffff2d1
0ffff599
00000405
0ffff324
0ffff8e5
00001a19
0fffeecd
00001925
0ffffdb8
0ffffd03
0000264e
0ffffb9b
0ffffd8a
00000018
00002a3a
00000b5c
00001253
00002eee
00000aa4
0000356d
0fffe69c
00003361
0000113b
00000813
0fffd8c5
0ffff761
00001143
0000092e
000001fc
000001b5
0ffffc39
0000021c
0ffffa51
00001053
000003c2
0fffe17c
0000181f
0fffe572
00001021
00000d1c
00001f87
00000413
0fffed76
0fffe52a
00001ed4
00002765
0000096b
0ffffbbe
00000479
0fffe4d6
0fffd9be
00000e67
0fffe58a
0fffdad0
0fffdee9
00001095
0ffff83d
0fffdccf
0fffe933
0fffe2b9
0fffece2
0fffed5a
0fffd920
0fffdddf
00000de6
000024a1
0000120d
0fffe952
00000eb9
0fffdf52
00000fc6
0000053b
0ffff757
000015bb
000008c5
0000286a
0fffed79
00001b33
0ffff67b
00000702
000028f3
00001836
0ffff670
0fffe17a
000006ea
00000237
000005a3
00000099
0fffd8c1
00002aa2
00000c63
000004b1
0fffef7d
0fffe452
000018e3
00000181
000011e3
00000dd7
00002709
0fffff32
00002afb
000015aa
0ffffa7e
000010fe
0000249d
0fffd690
0fffe8f0
0ffffb04
000011e7
00001e34
0fffea33
0ffffcd5
000001d4
0fffd84b
0fffed0d
0000222a
0ffff8d0
000002c8
0ffffe87
0fffe057
00000449
00001ab4
00000fa5
0ffff5f2
0ffffca0
0fffd69a
00001c65
0000185a
00000404
0fffed55
00002469
000034e9
000024de
00001f58
00001523
00001852
0fffe467
0000143c
000000d8
0ffff071
0fffda88
0fffe8a7
0fffe4ca
00001ef1
000009cf
00001915
0fffd6d0
0ffff273
0fffde6a
0000194e
000028fb
00000792
0fffe175
000007e7
0ffff66e
0ffff37c
0ffffbcc
0000108e
000007b8
000013fb
00002896
0000198b
0fffe26c
00001fe7
0fffccd6
0ffff2d1
0000190d
0000227c
0fffd868
000006d5
0fffe414
000018aa
00001a86
0000046b
000010bf
0ffff600
00003551
0ffffeba
0000097d
00001878
0fffe9ae
00004090
0fffef92
000010fd
0000264e
0fffee53
0000236a
00002e72
000022a2
00001a72
00000c20
0fffecfa
0ffffe9f
0ffff3cf
0fffeab9
00000766
0ffffcdf
00000fe6
0fffe1f4
0fffd806
0000009e
0fffe0ef
00002028
0fffe90d
0ffffafa
00003b6f
0ffffc92
00002736
00001c07
00000bc9
00000403
000019cd
00003027
0ffff999
00003e4d
000026d3
0000475d
000004b6
0fffd2e6
000003a1
0000020f
0fffda1f
0fffe489
00001070
000029d3
00002571
0000137a
0000168d
0000068d
000003f2
0ffffee8
00000146
00001642
0ffffd1e
00000067
00000394
0ffffc6d
00000e0b
00003742
00004daa
00001bb5
000030be
00000fd5
0ffffff4
0ffffcc0
000028d3
0ffff762
0fffee7e
00001818
0fffbe31
0ffff7f1
00000ad9
0ffff3bd
0000179e
00001eec
0000049c
00000ad9
0fffe83b
00000fdd
000016b8
0ffff0c9
0fffe3a5
0ffff2de
0ffff3a9
0ffff180
000020d9
000003e7
000033f1
0fffd69b
000007e5
0ffff316
00001894
00002456
0fffe3fb
0fffb0ac
0fffe74b
0fffd434
0fffd81b
0fffcd95
00001aa0
0ffffacd
00002117
0fffec72
0fffdaba
00001ed8
0fffeea1
0fffebcb
0fffea24
0fffd0d9
000017f3
0fffed86
00002157
000016f0
0fffe667
0ffffef5
0ffffb0a
0ffff645
00000c90
0fffff79
0fffec80
0ffff69f
0fffd685
0fffd330
0fffacca
0fffbaed
0fffc9a6
0fffc343
0fffea44
0fffe3bc
00002a68
00002264
0fffdf84
0ffffc08
0000260c
0000213b
00001cfb
0fffd4f6
000016bb
0fffdbbc
0fffe001
0ffff42b
00000ea2
0fffeae4
00000d1e
00001dd7
00001190
000019b6
00002110
00001a35
000000b4
0fffd155
0fffd93a
0fffb07e
0fffe210
000002ff
0fffd22e
0000132b
00001834
00000867
0fffd5e8
0ffff1cf
0fffd680
00001f79
00000261
0ffff6d1
000002b8
000001be
0fffde01
0fffc830
0fffe401
0fffeb7f
0fffe87e
0000367f
000050e8
000040ce
0ffffe76
0ffffb17
0fffc8dc
0fffd5f7
0fffd897
0fffc9da
0fffe16b
0fffc03c
0fffe484
0ffff142
00001b8f
00002038
0ffffc6f
0000251d
0ffffca1
0fffe57e
0ffffbb8
0fffeb88
0fffbb47
0fffe1f3
0fffc832
0fffee52
00001a0d
00005a15
00006263
00007d9c
000038f6
0000403f
00002d66
0ffff7ce
0fffd9c4
0fffd3d5
0fffe212
0fffe014
0fffec44
0fffe24c
0fffd14d
00000265
00000016
00000313
00002050
0ffff652
00000743
000023d7
0ffff864
0fffe434
0fffef48
00000606
0fffff23
0ffffb77
00003736
000023a5
000035a8
00003447
00005dfc
000003a7
000008cc
0ffff230
0fffd396
0fffe604
0fffd4dc
0fffde5c
0fffc633
0fffc23b
0fffef9d
000001c0
0fffe5d2
00002125
00000a84
0fffdd32
0fffe587
0000088a
00000729
0ffff604
0fffd0aa
000006e8
0000140d
000046dc
000014ec
00002d8d
000028d9
00000a3c
00004f15
0fffd912
000011e1
0fffde99
0ffff711
0fffe1f4
0fffc203
00001708
00000d48
0fffd4d4
000018ab
0fffed3b
000001c3
000002b6
0fffd7d5
000001ca
0fffe56b
00001050
0ffff90f
0ffff1ee
0fffd09d
0fffee6c
0fffe408
0fffe134
00000460
00000603
0fffd5d6
0ffffaf6
00000f63
0000094c
0fffda6d
0fffd6cc
0ffff69a
00000cd3
00001204
0fffed02
000009c1
00002b89
0fffdfed
0fffd980
00000ea6
0fffd5d7
0ffff3ef
0ffffbd9
0fffe6e5
0fffffd7
00000682
0fffc270
0fffeabe
0fffc836
0ffff00b
0fffdcd4
0fff962a
0fffbdc7
0fffd242
000005b5
00001db0
0ffffa68
0fffe2cc
0ffffef9
0000282c
0fffe015
0fffef56
00002743
0000077e
000020ba
0ffff5d9
00001bbd
0fffd442
0fffda61
00000e7d
00002824
000018a4
00000018
0fffd2c3
0fffae36
0fffad59
0fff9bb5
0fff8b0e
0fff7aeb
0fffab89
0fffa7e6
0fffa45d
0ffff350
0ffff4ba
0fffef61
0fffc276
00000587
000011f0
00001d22
0000487a
00002ba5
00006988
0000297c
00001eb9
0ffffc6f
00000ba4
0fffe565
0fffda3e
0fffe652
00000f75
000019a6
0ffffb3c
0fffd2a6
0fffcbc9
0fffb49f
0fffe363
0fff9deb
0fff5e19
0fff69ca
0fffa0b0
0fff886f
0fffdb73
0fffdb36
000013e4
0fffd8e4
0fffdeb8
0fffec84
000014e8
00004ac4
00003253
00002684
00000101
0ffff33d
0fffe1b6
0fffe320
00002a81
000006a1
0fffe086
0fffe65f
0fffe54a
0fffcd5c
0fffe59d
0fffd061
0fffee95
0fffbfdc
0fffb54a
0fff9d79
0fff8380
0fffbaa1
0fffdb61
0fffdcf1
0ffff9b4
0ffff801
0ffffa13
00001f34
0000411b
00005903
00000f94
00000007
0fffeccd
0fffe440
0ffff96c
0ffff4c5
0000296a
0ffff671
0fffe263
00000fe4
0fffdc68
0fffe486
0000051c
0fffe70a
0000111d
00004420
00001047
0fffedd1
0fffb3c8
0fffaf1a
0ffff1f9
0fffca6b
00000957
0fffe5cb
00001a43
00000332
0fffff68
000012ae
000028bf
00001e1d
00001a8c
000003b2
0fffe090
00001e3e
0000136e
0fffe745
0ffff909
000017fe
000027a1
0ffffda6
00001cbc
00003568
00006522
00002cc7
0000490d
0ffffe11
0ffffae6
00000cfa
0fffff3d
00000d90
00000038
00002934
0000136e
000030c2
00000f14
000023ab
00002f45
00001512
0ffffe51
0ffff0de
00001ec2
0fffe0fb
00000a11
0fffeb02
000006d2
0fffe8f0
00000209
00002775
0fffdff7
0ffff3cb
0000430f
00002dc1
000036b4
00001199
0000040d
0fffe901
0ffff2e8
0000095d
0fffe23a
0fffe403
000010a7
00003184
000035ec
00001852
0fffce3b
0fffeddb
0fffecdc
0fffee5d
0ffff5af
00001712
000017b1
000001d2
00001f12
00002c66
0000146b
0fffe8e3
000005e5
0fffe564
0fffe913
0ffffaf1
0ffff38c
0fffffa4
00000b05
0fffe4a6
0fffdab7
00001f47
00001203
00003152
00001a25
0000110c
000023dd
0fffc893
0fffe2f7
0ffff29a
000021f1
0ffff0e7
00001d44
0fffdfab
0fffdc27
0ffff627
0fffe8fc
0ffffe86
000024cc
0fffe6f8
00002a97
0fffefa2
0ffff079
00001f8d
0ffffe36
00002aae
00001c48
000029de
0fffed63
00001d3f
00002bd6
000026b9
00000cad
000004f0
0ffffae7
0ffffe6a
0fffe854
0fffe3a8
00001ce4
00000385
0000153c
0fffe432
0fffdd89
000018e8
0fffd766
000022c6
00001e4e
0fffe8aa
0ffff852
00001e79
0fffec2e
0fffe615
000016d2
0ffff896
0fffe9e9
0fffea07
00000df1
0000078d
0fffdd9f
0fffeec4
0fffe1bc
0fffc58b
0fffff7f
00001339
0fffcdba
0ffff85a
00001892
0ffff137
0fffd72b
0fffe6af
0000271f
000003f8
000000b0
0fffe646
0ffffc56
0ffff2d3
00000cfc
00001bf2
000021d9
00000c1f
0000362e
0fffebb5
00001a97
0ffffa26
00000ac4
0ffff606
00000f1f
00001252
00000734
0fffde6a
00000bae
0ffffb30
0000234b
0ffff64d
00000987
00001de0
0ffff87a
00000238
000014f1
00002afb
00000db0
0ffff8fc
0fffe29f
00000995
0fffe264
0ffff51a
00001743
0000242f
0ffff278
00000a2a
0fffd684
0000051b
000019be
0fffe8bd
00002757
00002539
0fffe841
0fffebbf
0fffe7f9
0fffd7c3
0000007b
0000072d
00002720
0fffe98f
00000455
00002ac3
0fffdc66
0ffff704
0fffe3be
00001ccb
00002693
0ffff7c7
0ffff338
0fffe601
0000190c
00002860
0ffffcc0
0ffffde2
00001199
00001b46
0fffd5db
0ffff0ed
0ffff20a
0ffff541
0ffffa83
0fffed8a
00001167
000029c0
0ffff6e2
0000229e
0fffeae7
0fffeb32
000001ab
00001a9c
0fffef0f
000019d8
00001a2d
0fffe1e5
0ffffbba
00001791
0fffd928
000010bc
0fffd9d3
00001bff
0fffdc94
0fffdd69
0ffffaf8
0fffee55
0fffebca
00000c76
000023df
00001672
00001844
0fffdd34
00001143
0000043f
0ffffbcb
0ffffa68
0ffff545
0000238e
0ffffd19
0ffff264
0fffee89
00000029
0fffe73f
0000213f
000009b7
0fffe50e
00001447
00000216
00002087
0ffff3f7
0fffed84
0fffdcb6
000010ef
0ffff580
0ffff3e8
0ffff2ce
000019d6
000011a5
00000b0f
0fffe55f
000027fe
00001112
0fffe970
0fffee35
0000142a
0ffff58f
000019f5
00000081
0ffff8fd
00001861
00000e41
0fffe07c
0fffe189
00000557
00001115
0fffd951
0ffff3be
0fffdc90
0000075b
0ffffff5
0000255b
0000145b
00000adf
0fffe58e
0ffff6bf
0fffecea
0fffda56
000013d9
0fffeb59
000002a4
0000259d
00002322
000011d4
00000115
0000183f
0ffff2cb
0fffe800
0ffffb66
00001cb1
0fffdc7c
00001ecf
00001f91
00000de1
00002265
00002eec
00003a4f
00000972
00000508
00003f9c
000023c8
00001e75
000008d1
00000be2
0fffdf21
0ffff30d
00000380
00000ca5
0ffff91d
0fffe45b
000021d3
0ffff59b
000009df
0fffdf6f
0fffe3bb
0fffe1e0
0fffd86f
0ffff743
0ffff0b9
0000257a
0fffe1c5
000029da
0fffe566
00004438
00002d53
00002135
00003c1f
00005bc3
00005ad9
0000339d
00000e25
0ffff670
0fffe409
0fffe572
0fffe66d
0fffd60a
0fffd786
0fffeec2
00000666
0ffffa1f
0ffff2c6
0fffdfa5
0000058b
000021e6
0fffe1d6
000011b2
00000a69
0fffeb30
0ffff672
0ffff115
000015ac
00004318
0000089f
0ffffbd9
0000473a
00000b07
00003104
00000613
0000139d
0000028d
0fffe420
00000d88
000008cd
0000228b
00001fb9
0fffcea1
0fffdb66
0fffced7
000003a5
0fffe6d1
0000183a
00000326
0fffe30c
0fffd790
0ffff99b
0000035f
00001c31
0fffe18d
00002dee
0ffffa5d
00001aab
00003293
0ffff994
0ffffb87
00002362
0ffff83f
0fffe5e9
00001926
0fffd448
000008a7
0ffff936
0ffffed9
0fffd14e
0fffccf7
0fffd9cc
00000b62
0000249d
00001d3e
0fffec67
00001755
00000df9
00000c3f
0fffddd0
0000323a
00002c4f
00002028
00000d4e
000002da
0fffeb92
0000116a
00002162
00001943
00002921
0ffff9c6
0fffea39
0fffd9e5
0fffdc1a
0fffff6d
0fffcf22
0000149e
0ffffc2d
0fffbf75
0fffe3fc
0fffdbe3
0ffff6e9
00001d8c
0fffe785
0ffffe8c
0fffeec1
00001c0c
0fffe6b8
0ffff618
00002b6f
0000131b
000023cd
00002227
00002f45
000026ff
0fffe9e6
0fffea9a
00000189
0fffdbb1
0ffff392
00000380
0fffdfaa
0ffff5d4
00000b74
0fffff41
00001131
0fffd92f
0fffd0c0
0fffae6b
0000120c
00001e26
0ffff7e7
0000177d
0ffffcb8
0fffebc3
00001d17
000002e9
0fffe874
000005fe
00000065
000007af
0fffde93
0fffd808
0ffff330
0fffa829
0fffce12
0fffef8d
00000e2e
00003476
00000824
0fffef64
0ffffbe3
00002c63
00001c43
000010c1
000000c4
0fffbac2
0fffed4a
000001ac
0000065f
0fffe32e
0fffdf82
0000048f
0ffff66d
0000310d
0fffef84
0000152e
000005ae
0ffff6da
0fffd97a
0fffcda7
0fffca24
0fffa30d
0fff94a0
00000e7e
000024ed
00001ebc
0ffff4b7
000047c1
00000bff
00001c61
00002ffd
0000199a
0fffdba6
0fffe706
0fffc8bb
0fffe09e
0ffff8b9
00001c0a
000024f7
0ffffec0
0000204f
0ffff442
0ffff0c8
0000010e
0ffffdd8
0fffbe3c
0fffb013
0fffaae2
0fffb76e
0fffbb2e
0fffe014
00000bd8
0ffffc32
00000df1
00001f07
0000093e
000041ad
0000214c
00000107
00002186
000009f2
00000df9
0000292a
00000e01
00001037
00002303
0fffd84c
0fffe963
0000048a
0fffd278
00000325
0fffefef
0fffe7ba
0fffb027
0ffff259
0ffff362
0fffc834
000008f5
00001a93
00002ce4
00000d3d
0ffff257
0fffe7e4
0ffff7a7
00001e6e
00001c4b
0fffd43d
000016a2
0ffff63f
0ffff469
00002857
0fffe0a8
0ffffcca
00001847
00000e13
0fffe312
000005eb
0fffdef4
00000b23
0fffefe8
0fffc28b
0ffff66d
0ffffabf
0fffeecc
00000d3d
00001d45
0000341f
00003bd5
00001539
00000f68
0ffffdc9
0fffd453
00000160
0fffe5e4
0fffd594
00000372
0fffcd78
000017ed
00001c5f
00001a96
0fffe8f7
00000f24
0000225b
00000463
0ffff3f6
0fffe495
0ffff79c
0fffd79f
0fffe037
0ffff271
00001790
00000463
00000ddf
00006474
0000711a
00003619
00002623
00001790
0fffe380
00001023
00001327
0ffffbee
0fffe6c2
0fffbc2f
00000ab8
0ffff611
0000228f
0fffe3a4
0fffe61c
00002312
000012d2
00001a59
00001bfc
000000fc
0fffffc1
00003600
00002d2d
00000cd0
00000b74
0fffe487
000010f3
0000287f
00008a25
00006481
000047de
00001628
0000031c
0fffdc70
00000ce2
0ffff048
0fffee03
0fffd6ca
0fffe180
0000043c
0000392e
00001de4
00000d43
0fffeda6
0fffdc99
00000bd6
0ffff851
00001be3
0fffeaf1
0ffff15c
00001d5e
0ffff688
00001984
0fffd55f
0fffde4b
00003844
000046a6
00001e23
0fffe265
00001fa0
00003a43
0000136a
0000067d
0000084c
0fffce1e
00001fed
000018d3
0ffff721
00002eff
0ffff44a
000021cb
0fffd811
0fffff9b
0fffea78
0ffffb15
00002c33
00001eae
0ffff89d
000009df
0fffeb5a
0fffe679
0fffde95
0fffe083
00000e3b
0000459e
00000d24
00000cd8
00002494
00003970
000019f5
00001230
0000176f
00002b8a
0000228a
0fffe482
000019bc
00001479
00002ace
0fffe860
0fffe0a6
0ffff6f4
0000285d
00002d56
00000a2d
000020ce
000018b1
00001357
0fffb8c5
0fffe4c6
0fffe9bb
0ffffac7
000002ae
000000b8
00001dea
00001f31
0000515b
0000363b
000031ef
00004546
0fffed16
00000c85
00000ab9
00001d08
00003acf
0ffff7e1
0fffe460
00000786
00000ffe
000025ef
00001e53
0000310c
000026c7
00001848
0fffec36
000033e8
0fffcc46
0fffb3a2
00000724
0fffc0f1
00001910
00002bd6
0ffffcc9
00000a18
0000384c
00004783
000037d2
000049b4
0000291d
00003fa3
00002d43
00002544
0000374b
000006a8
0ffff317
0fffe211
0000089b
000009e6
00002712
0ffffb17
00002904
00002df1
000014f5
000011f1
00000f39
0fffca47
0fffe2fb
0fffc524
0ffffb7c
00002091
00001b8d
00001848
0fffd4e7
0ffffd5c
0ffffdcd
00002548
00001850
00004552
00003968
0ffff968
0ffffd45
0ffffe98
0ffff9d0
0ffff142
0ffffd2a
0ffff7fa
00002317
00002813
00001b9d
00001f91
0000340d
000013a1
0fffecc2
00002079
0fffcd28
0fffe3bc
0fffe81d
00002798
000010d4
00000747
00001fc4
00000006
00003741
00002043
00002dd8
000025b8
0ffff24d
0ffff989
0ffff39e
0000178a
00002a9f
0fffe7b8
00002377
00002819
000022ce
00000eee
00001745
00002979
0ffff56f
00002b66
00000824
0ffffdad
0fffe4ea
00000700
0fffe085
0ffff076
0fffdacc
0fffb49e
0fffd60d
000021a9
0fffec7c
0ffffb2c
000039a5
00002f4d
0000143d
00001558
000015a9
0000209a
000008ec
00002616
0fffd9a7
0fffd6bb
00001f39
0000035f
00001b99
0000313d
00000c17
0000342c
000033e4
0000179c
0fffe42e
0000118e
0fffe6c0
000001ed
0fffee52
0fffe9e5
0ffffafe
0ffff3a0
0ffffc8c
00000b2d
00002c45
000001e2
0fffff7a
00002635
0fffe6ad
00001f56
0ffffb12
00001a72
0ffff9bd
0fffffbf
0fffdbc5
0ffff8a1
0fffe098
000026eb
0fffed80
00000ac4
00001ab3
0ffff393
0fffcbd1
00001936
0fffd9d7
000011a4
0fffd5d6
0ffffa47
0ffffdab
00001000
0fffd72c
000023d5
00000c5c
00001acc
0fffeedb
0ffff356
0fffd8aa
00001f35
0fffdbce
0ffffead
000003ea
00001e97
000005c6
000010c8
00001dac
0000021e
0fffe798
0fffe3cf
00002bc3
0fffff9a
000026a3
0fffdd88
0fffe706
000015c0
0fffe589
0fffe113
0ffffa63
00001c11
000021bf
000013f1
0fffdaf3
000016d7
0ffff44c
0ffff76f
000010b9
0fffeb95
000019f6
000011d5
00000625
0ffffa2d
0ffff8c3
00002a8f
0fffd510
0fffeb1d
00001612
0fffebfd
0ffff0ce
0fffdb3f
000011f8
0000180c
00000308
0000242c
0fffeb4c
000019e9
0fffd447
0ffffe23
0ffff56b
000006a4
0fffdbdb
0000157b
0ffffbb8
0fffe23e
000028d7
000001d2
000016a0
0ffff682
00001a8a
0ffff758
0fffd82b
0fffee52
00000497
0fffdd81
00002089
00000fc7
0ffff33b
000015ba
00002298
000011ad
0fffe5aa
0ffff5fb
000021f6
0ffff980
0ffffe92
000024f4
0fffdc32
00001eda
0fffd99c
0fffec2b
0ffff7f0
000018a3
0ffff5a9
0000295f
0fffec65
0fffe7e1
000003e6
00000219
0ffff5ea
00002a20
00000ea7
0fffebcf
0fffe856
0000214e
0fffdae3
00002b0c
0ffff0c3
00000111
000022a4
00001b05
0ffff849
00001957
00001292
00002493
0000267d
0fffd6e0
0fffd626
000029f0
0000186b
000019c5
00000977
0fffee59
0ffff6d0
0000219b
0fffd9f6
0fffe4f4
00001c4f
0fffde6b
00001926
0fffeb64
00000fb6
00000967
0000256a
0fffea41
0000006c
00001175
0fffddb9
000011b3
00001f41
0fffd5d2
00001f3f
000029c0
000027e2
0fffe696
0fffeba3
0fffed29
0fffd771
0fffff93
00000779
0000205a
0ffff368
0fffe04c
0ffffd36
0ffff242
0fffeaef
00001680
0fffe25c
000000b4
0fffe222
00001966
00001ce0
00002232
000004fb
00001c04
00000ace
0ffff774
000029c3
0ffff483
0000165d
000036fb
0ffff2d2
0000060a
00000aa0
0000145d
0fffee80
0ffff582
0000004e
0ffff7c5
0fffdc45
0000116f
00002286
0fffea25
0fffe856
0fffff79
0000161f
0fffdbcf
0fffe8b0
000018e7
0ffff733
0fffe649
0fffff58
0ffff881
00000221
00000e10
000005f1
00001efd
0fffe3b9
00001936
0000214a
00002408
00003021
0ffffc6a
00002ecd
0ffff8f1
0000216e
0fffea75
0000035f
00001e7d
0000093c
0ffff525
0fffd959
00001f53
000002bf
0fffee5b
0ffffaac
000007bb
0ffff152
0ffffc58
00000eb3
000016b5
0fffef70
0ffff0a9
0fffb82a
0fffc87c
0fffd5c8
00001759
0ffffd06
0000008f
00001bfe
00002bf5
00001f44
00003f33
00001852
00002d1a
00001e0e
0fffffb8
0fffe7c0
00000042
0fffe9b6
0fffd790
000008fc
0fffe392
0fffec69
0fffca2a
00000f41
00002aaa
000034f7
0000375c
0ffff721
00000c6b
0fffde6d
0fffff1f
0ffffa87
00002c30
0000151f
0ffffc1a
00002ed2
00000418
000012c5
00003097
00000adb
000039e1
0000297b
00002278
0fffe550
00002723
0fffe9a2
0ffff76e
0000193a
0fffeecf
0fffcd58
00001128
00000832
0fffbdd9
0ffff824
0000183e
0fffece7
0ffff299
0ffffaeb
0fffe960
0000032e
0000016e
000034ad
00003c34
00000cb0
00002ed3
0000511b
0000102a
0000435d
00003572
0fffe599
0fffda1f
0000219e
00001085
0fffe535
000009a4
0fffe469
00001bd5
0ffff4c7
0ffff3ee
0fffd743
0ffffd05
0fffd0dd
00002485
0fffd2b6
0fffbf59
00001092
0000108e
00001c3c
00003780
00002264
00003124
00004421
00001e07
00000c26
00001dbf
000026cb
000036b7
00002a69
0fffd530
00002251
0000298f
0fffdc9e
0000229c
0ffffb91
0ffffa89
0fffd9b6
0fffe7fb
0ffff62e
0fffde35
00000239
00001904
0fffd9c7
0000086f
00001493
000022cf
000018d5
000015d7
00001d10
000016f7
00003523
000038f5
0ffff3da
00000cca
00003722
00000b6d
00002b3e
0fffdcd3
0000024c
0ffffb01
00001564
00001780
0ffff345
0fffd792
0fffe4af
000015a2
0fffeb67
0fffc290
00001694
0fffefab
0fffff1f
0fffe5f4
00001e60
0fffefcd
0ffff63d
0fffdb93
0fffd9b5
0fffc353
0fffa791
0fffc141
0fffb7b0
0fffec11
00000a02
0fffe222
00000d13
0ffffaae
0fffe6bc
00002244
00001937
000022bb
00000bcd
0fffea2a
0fffd61b
0fffcc84
0fffbec6
0fffdbb8
0fffe697
0fffab58
0fffcf20
0fffe23b
0fff9fff
0fffb15b
0fff8fa0
0fff4e10
0fff520b
0fff491c
0fff6336
0fff77eb
0fff7fcd
0fffb4ef
0fffd7a7
0ffffdaf
0ffffd3f
0fffe71c
0000180e
0ffff4f5
0ffff05e
00000aaf
00002493
00001982
0ffff3aa
0fffc9aa
0ffff4e9
0fff9bec
0fffb4ea
0fff9aaa
0fffd6fa
0fffebef
0fffcea6
0fffbd75
0fffde70
0fffbdfd
0fff94b5
0fff7e93
0fff6853
0fff6875
0fffb8c5
0fffa4f8
0fffc899
0fffed82
0fffe8bd
0fffeedd
00000341
0000268f
00001544
0000026c
00001b36
0fffeeba
0fffe02a
0ffffad1
00000f30
0fffad7a
0fffe94c
000000b1
0ffff9e0
00000530
0ffff1b7
0ffffd50
0fffe0ce
0ffffebc
0fffc918
0fffc95a
0fffa850
0fffa407
0fffcc5c
0fffcd9f
000012a1
0fffeda0
00000076
0ffffabf
0000141f
0fffeda1
0fffd808
00001a28
00002920
0fffd080
00002b03
00000341
0fffc786
0fffedbb
00003594
0ffffd49
000013fa
000044d7
00003dda
000028e4
00001f54
00003584
0000026e
0ffffe87
0fffb052
0fffd8ee
0fffb4a8
0fffdc62
000019c8
0ffff9b1
000026e0
00000237
0fffd95a
00002417
0ffffd0f
00002616
0ffff32a
000007f8
0ffffafe
000012f8
0fffdaeb
00000f24
000028c7
000027b8
0000273a
00001bbd
0000274f
0000235f
00001ecb
0fffe3e9
00001d43
0000179d
0fffef45
0fffee3b
0ffff177
0fffcf53
000004bd
0ffffe68
00000216
0fffefd1
0fffe24f
0fffdedf
000003f3
0fffebe4
0fffcc94
00000c83
00001f05
0fffdaa8
0000111b
0fffe38e
0ffffdb9
0fffeeb4
0ffff051
00001471
0000164e
0000121a
0000072b
000051e6
000043ea
00002064
00004804
0fffe01e
000002a4
0fffff70
0ffff3bd
00000b4e
000004f9
0fffeee0
0ffff18b
0fffff82
0fffe1e6
0fffdfc8
0fffd858
0ffff55d
0fffe2a6
0fffdc25
0fffe4de
0ffff225
0fffc231
000012e0
0fffd0f1
00000d14
00000944
0ffffdd8
000032c7
00004333
000011b4
00003c7c
0000145d
0000332c
0ffff3ee
00002ca7
00001990
00001dc8
0ffff301
0fffe76a
00002438
0fffdfee
00001eb6
00001305
0fffe6f9
00000f06
0fffe4ef
0fffe147
0fffc9c7
0fffe546
0fffd88a
0fffea4a
0fffda97
0fffb9e8
0ffff65d
0ffff2ef
0000280b
00001a7a
00003bed
0000227a
0ffff483
0ffff8d6
00000f11
0ffff34d
00000ad9
00000504
000003fe
0fffecf9
0fffdf48
00000ec6
0fffe678
0fffe572
0000193c
0ffff581
000014f3
00000e56
0ffffbb5
00000f33
0ffffaa7
0fffe2eb
0ffff071
0fffe395
00000f51
00002b39
00001e2e
00001bff
00002551
00001f5d
0000170b
0000248e
0ffffa43
0000000b
000017d7
0fffe7e2
00000a6e
0ffffc94
00002149
000027e5
00002076
00002876
000034c9
00001443
0ffffc78
0ffffdf2
00003338
0ffff7f9
0ffff8a4
00000a6e
0000436a
00000648
00001d43
00001380
0ffff713
00001935
00002698
000030bd
00000474
00002254
000033d3
0ffff877
0fffebdf
00000e18
00002983
00001c3c
00000698
0ffff267
00000b30
00002ef1
0fffeb79
0000187b
0ffffd8d
00000d37
0000445d
000026fa
000030aa
0000096b
00001398
00004a44
00005e00
00003426
0ffff369
000012bb
0000131d
000020d5
00001f1d
000024c4
00000f7b
00001b2b
000005ec
0ffff3f6
00002055
00002a8e
0fffe484
0fffdc82
0fffd8ed
00001fef
00002cbd
00004438
0fffee4f
0ffffcec
000019d5
0000578f
000032e1
00003aab
00004fec
00005bf6
00003c5b
00003418
00003be3
00000ecd
0ffff2d0
00002c5b
00000b93
000041b6
00003c3c
00000015
00001f50
0fffe835
00002ae9
00000867
00002a5c
0ffffff3
00002c02
0ffff41e
00002151
0fffec82
0ffff921
00002b46
00002a22
000016b8
000041e2
00003a2e
00003d24
00001b62
0fffef6d
000001c8
000012dc
0fffcf8e
00000c41
00001e37
00002710
00001150
0ffff68f
0ffff148
0fffea15
0fffeedb
00002252
0fffe876
000001a1
00001094
0fffea20
00001172
00000174
0ffffd5a
00001d87
0fffef74
00000731
000010a1
0000111c
00002b59
0fffb854
0fffe269
0fffd7c1
0fffd95e
0fffe169
000002e6
0fffd868
0fffc49f
0fffecf5
00000f1d
0fffde00
000001c3
0fffecd3
000013d5
0fffdbbe
0ffff58e
00000386
0fffe522
0fffed69
0fffef8f
0fffea5b
0ffff672
00000ec8
0fffda31
00000cec
000018ad
0fffdcbf
0fffe6ac
0000179b
000008a1
0ffff089
0ffffc2a
0ffff3ab
0fffcde7
00001d74
0fffd68c
0ffff08d
000021ef
0fffe29f
0ffffdfd
0ffff551
0fffdf34
0000257b
00000e78
0fffdf02
0fffdff2
0fffd6d1
0000127f
0ffff8a2
00000c85
0fffd439
00000f52
0ffffcce
00001c1f
0fffdcda
000005ab
00000c66
00002423
0fffd65b
0fffed3c
0000137e
00000afd
000021d5
0fffff7e
00001854
00001dd9
0000165d
0fffda84
0ffffd4b
0000245d
0ffffbd4
0fffe2ba
0fffde21
0000041a
00001c35
0ffff4a8
000003c2
0ffff8de
00002143
0fffece9
0fffd237
0ffff163
00000aa6
0ffff4b6
0fffe952
0fffde8e
000004a4
00000699
0fffddff
00000919
0000116d
0fffe57f
0fffdfb5
000011d0
0ffff69b
0fffdc3a
00000c4c
000007b6
0fffe7c3
000005cf
00001df6
00002978
0fffe69a
00000570
0ffff44a
0fffe505
0ffff5a1
0fffdb89
0fffe3b1
0fffe8c3
0fffdfa2
0000006f
0fffd956
0000195f
0fffec0b
0fffdbc9
00000084
00000630
0ffff40a
0fffe6da
0fffe740
0fffeb18
00001141
0fffe627
0fffe3f0
0000055c
000000a9
000009e0
000013f0
0000082b
000020f5
0fffeb1c
00000d10
0000214e
0ffff8d3
0fffe244
0fffdd5c
00002a1f
0fffdee2
0ffff949
0ffffb17
00000b8d
00002347
00000f95
0ffff5b5
00000859
00002068
0fffe2c2
0fffe43e
00000245
0000126c
00000ddb
0000047c
0ffffb1e
0000161d
0000294f
000020a7
00001391
0fffd648
000023da
00000c31
00001970
00002008
000011ff
0ffff843
0fffec32
000007ec
0fffed28
000016ea
0fffe5b7
0000095d
0ffff29b
00001ae0
0fffe16d
00001327
0fffd6e3
0ffff12f
0fffebff
0ffffd49
0fffd6c3
0ffffae5
0ffff402
0000037c
00001011
000011b0
0fffdaea
0fffd592
0000297d
000008a6
0fffe21d
00000815
0fffe550
0fffe1c4
0ffff2b4
0ffff69f
0ffff933
0fffdf01
00000393
0fffedc0
0fffd853
0ffff1a7
00000bbf
0fffefe2
0fffef56
0fffe136
0fffd757
000005b6
00001865
0fffedb4
0000280a
0fffe8f9
0fffef93
000003ce
00001199
0fffe6b1
000019b9
0ffff8ba
00002410
000020e8
0000256f
000028e0
0fffd476
0ffff8ba
0000022b
000002fc
00000411
00000962
000012a5
000014cd
0fffee2b
0000231e
0fffd680
000017ad
0fffe474
0fffdb61
00002a2b
0fffdab5
000021c2
0fffdfbd
000028f3
0ffff157
0fffd8c0
0fffff0f
0fffeebc
0ffff504
00002698
0fffd3ed
0fffed72
0000129e
00000c2f
00000713
0ffff3d8
0fffda55
0fffd3a3
0fffe6c3
0ffff8f4
0fffddf6
0ffff6a0
00001453
00000725
000003c3
00001341
0fffd5a7
0fffef57
00001a14
000019ec
00002756
0fffd587
000019de
0ffff7aa
0000029e
00000f21
00001caa
00000751
0fffd898
0fffd766
0ffff3e3
0ffff8ce
0fffd2f5
0fffec8a
00002caf
0000225b
000000d6
00001b77
0fffd7f8
0fffdc93
0fffe60e
0ffff877
0ffff346
00000f41
00000012
0fffdae1
0fffe4e4
000007a1
00001b7e
000000c1
0ffffe20
00000a19
00001eca
0000173d
0fffd374
000006d6
0fffcea3
0fffe687
0fffc51e
00000727
000013fe
0fffffdf
00003512
00006434
00002443
0000111a
0fffdf12
0fffebd9
0fffd2f8
0fffd60c
0fffb945
0fffe1df
000009e8
0ffff1bf
0fffe631
0fffd3ac
0fffe802
000024ce
00000082
0fffd812
00001761
000009de
0fffdb8a
0fffd997
0000035c
0ffffc5e
00001a18
000002bc
0000312c
00003971
00001dba
00001c41
00002df4
0ffffb6b
0fffe4ec
0fffbd5a
0fffeabb
0fffbc90
0fffdfd4
0fffba78
0fffd818
0fffcadf
0ffffd0d
000011ce
0fffe283
0ffff95d
0fffefa9
00000169
0ffff310
0fffd33e
0ffffcf4
0ffffa20
0fffc8ae
0fffdc1f
0fffec04
0ffff4d4
0000243f
00001da5
00000630
0fffdb11
000007c3
00001327
0000223b
0fffe644
0fffece6
0fffdc90
0fffea47
0fffd0b6
0fffeb44
000002b6
000001b2
0ffff61c
0ffff510
00002a0d
0fffd965
0fffe50e
0fffd535
0000021b
0fffcba9
0fffd388
00001583
0ffff49f
00000e04
0000304f
00000578
00000f65
0fffe86b
0fffd682
0fffd803
0000135f
00001807
00000fc7
00001221
0fffd970
0ffffc37
0fffe08b
0ffff9c6
0ffff0b9
0fffd91c
0ffff405
000022a6
0ffff856
00001dca
0ffff389
0fffd663
0fffffb7
0ffff294
0fffdffc
00001366
00002651
0000343a
00002453
0000001a
0000004c
0fffb8b6
0fffd96b
0ffffe05
00002504
0000352b
0000780a
00001788
00002346
0fffd32e
0fffbcfa
0fffff04
0ffffb84
0000039e
0ffff112
0ffff6f9
00000600
0ffff994
0fffdf84
0fffe55d
000018f4
0000043f
0000108f
0ffff5f6
0000267b
000033d5
0000191c
0fffdbf1
0fffea51
0ffffdf3
0fffff2c
000024ca
00001dfa
00003cf6
00008215
0000452c
0ffff42c
0fffee86
0fffec31
0fffeb7b
0ffffc6c
00000431
000017cb
0000150a
0fffe25e
00000711
00002080
0fffde0c
0fffe662
0000255f
0fffdce7
00001c2e
0000253f
00000d29
00000786
0fffd44a
0fffb0f8
00001b72
00001f2c
0000427e
00000df5
000011ac
000052bc
00000870
00001f3c
0ffff18c
000010cb
000002aa
00000a7e
00000463
0ffff36b
0fffe2ba
000021b9
00001cb5
0ffff576
000011ac
0fffe9ca
0fffe17f
000008ae
0fffe0f6
00002e91
00000e74
00001900
0ffff5fd
0fffe0d0
0ffff9d0
00000114
0ffff057
0000014e
0000352d
00004a26
00002206
00000b8f
0000003e
000003f5
0ffff2af
0fffddf9
0fffe8fa
000008bf
0fffdfb7
0fffefd5
000007e6
00001890
0ffffe78
000026f0
0fffdd9e
0fffe22e
000026f7
0fffdfe9
0fffeda8
00001878
0ffff79a
0fffcf86
0ffff375
0ffff2e9
0fffde26
0fffc48b
0fffffb0
00000974
00000677
0fffbfda
0ffffb70
0fffdda3
000003e2
0fffe81d
0fffe02f
0000195b
00000692
0fffe11d
0fffec91
00001c0e
0fffe17b
0000104d
0fffd7e6
0fffeac1
0fffffe3
00001967
0fffea9c
000013c9
0000011d
0ffffdf1
00000a29
0fffcf23
0fffdb84
0fffc2c1
00001221
0ffffa25
0000131c
00000882
0fffbccc
0fffee44
0fffc41f
0fffe53b
0fffcc2f
0000204d
00000227
000020d0
000017bc
0ffff5a5
000023ed
00002528
00000f54
0ffff00a
0fffd910
0000131a
00001739
000009e6
000021c3
0ffff95b
0ffff039
0ffffaa8
0ffffc85
0fffd0aa
00000d71
0000057e
0ffffecd
0ffff1b5
0ffff7ed
0fffdb42
0fffbcb9
00000a6c
00000bb9
0000081d
0fffd474
0fffd70f
0000249b
000024ef
00002533
0fffe401
0fffffcf
0fffef3b
0ffff70c
0fffd297
00002475
0fffdcb1
00002b3f
00002535
0000133d
0000046f
0ffff211
0fffce30
0ffff97e
000023f5
0fffdcb8
0000144d
0fffc9a8
0fffe532
0ffffb0f
0fffe9aa
0fffca6c
00001bc3
00001036
00000ac3
00000be9
000000cb
00001e0d
0000274a
0fffd685
0fffef8b
0fffdae9
0fffd591
0fffdf8a
00001c6e
00002865
00001a47
0fffd3bd
0fffdbf7
0fffde48
0fffc4be
00000ec3
0ffff111
0fffeea2
000014b2
0fffcbd0
0fffc87b
0ffff504
0fffc457
0fffef84
0fffeabd
0fffffcf
000029de
0000012b
0fffe326
00000c0b
0ffff982
00000619
00000a88
0fffecc7
0fffe7bd
0ffff193
0fffd5bf
0ffff031
00000de9
0fffdbf9
0fffcf50
0fffb4eb
0fffdc4e
0000103a
000014c5
00000a63
00003142
0fffd2a1
0ffffaf9
0ffff025
00000da3
0ffffc56
0ffff928
0fffd776
000003b2
00002932
0fffda90
0fffe4f3
0000069d
0000148f
00000616
00000703
00000db2
0fffff80
0ffff5d2
0fffdd3b
0fffafce
0ffff834
0fffe8d2
0ffffbc0
0fffc1af
00000ceb
0000103f
0fffd6de
0ffff2c7
0ffffa3b
0fffe22c
00001433
0fffee14
0fffd982
0ffff499
000025a3
00001005
0fffef16
0fffe7aa
0fffe433
0ffffc9e
0fffe975
000019f6
0fffd8f4
0fffd278
0fffd317
0fffeac5
0fffe97c
0fffdc3c
0ffffd8e
0fffee8d
0ffffa5e
0ffff6d3
00000edf
0fffd9e4
000011bc
0ffffa07
0ffff7a0
00001e11
0fffe25e
00000986
00001d99
0fffec4d
000017f5
000006be
0000114a
000027dd
0fffd709
0fffe46a
000024d8
000027bf
00001fb6
0fffc9f5
00001181
00000590
0ffff968
0000045f
0ffff30c
000022b8
0fffd6f7
00001aa7
0ffff432
000034c1
0fffec49
0fffd8cb
0fffe26b
00001b54
0fffdcc6
0000254b
00002895
0000172d
00000203
00002766
0ffffba1
00001c2d
00000e51
0fffecf8
000005cb
00000963
0fffd4fd
0000131d
0fffd06b
00001a1a
0000336f
000017f7
0ffff51e
0ffff3d0
0fffe88f
0000062e
00001a88
0000028a
0000388d
00002d75
00000d60
00001a7a
00000c32
0fffe3e5
00001ac4
00000d73
0fffee17
00002793
000007ff
0ffff328
0ffff2a5
00001750
00000bf6
0fffd639
0ffffad0
0fffec77
0000118c
00001dd1
0fffee98
0fffdde6
0fffcde3
0ffff52c
0fffde9a
0fffdea4
000025d8
00002cb8
00001de8
0fffe7e1
00000047
000020d5
0ffffd3e
00002cd5
0ffffe6c
0000263a
00000278
00000ae1
0fffde41
0fffe392
0ffffb40
0fffe1b9
000020bb
00000746
0fffed33
0fffe000
0fffea3b
0000173e
00000a8f
0fffc7f1
00000273
0ffffc36
0fffff47
00000009
0ffff859
0ffffe16
0ffff9fa
000020f3
00000c0f
00000c00
0fffe77b
00001b07
0ffffab7
000028c1
0fffe4d8
0fffe25e
0ffff431
00000775
000017fa
0ffffbda
0fffef65
00001c96
0000043a
00000406
0000052a
00001fc5
00002594
0fffe8b5
0fffefe1
0fffec3c
0fffe2d2
0ffff707
000039f3
00001a58
000011b8
0ffff385
00001270
00000afb
0ffff968
0ffff631
0ffff2b1
00000f0d
00000fc4
00001f42
000014c9
00000cd4
0fffee9f
00000483
00001b7c
0ffffdfa
0ffffacd
0000159a
00000f9f
0ffff3f0
0ffffc8c
00000a79
000025d5
0fffd91c
000005ca
0fffd616
0000004e
0ffff9d9
000007ad
00000128
0000246e
0fffdc39
000012d9
00001d0c
0fffeecf
0fffe924
000015e2
000016ea
00000a9a
00001fad
0fffe0ce
0000224c
0000250d
0000172a
000024ac
000015e3
000003bf
0fffdbe7
0fffea7e
0fffe8a7
00001508
00001340
00001b5a
000010b1
0fffe4b0
0ffff705
0fffe3cd
0fffecb0
00002202
0fffd635
00000b9e
0fffddbe
00002895
0ffff4e0
00002487
00000f60
0ffffb13
00000fcd
0ffff25b
000005bd
0fffdfc3
0000203c
0fffef15
00000ef7
000018d2
000011c4
0fffebd5
00000641
000008df
0fffd9d9
000002c9
00000c84
00001753
0ffff925
00002451
00002007
0000139c
00001418
0fffe7b8
0ffff90b
0ffffebc
0fffe0ac
0fffe8cd
00002557
0ffff2d9
00001dc8
000009e6
00000572
0fffded9
0000241f
0fffe78d
0fffe22d
00000481
0000046a
0000115e
0fffd319
00000d1c
0fffe553
0fffe6ca
0fffeb65
0fffd2ed
00000298
0fffdf42
0fffe9fe
0fffeda7
00000bdd
00000fc5
0fffeaa9
0000237a
0fffd96c
000006c9
00000708
00001f9d
000007b6
0fffe9d3
0ffff1b7
00001a06
0ffff7da
0fffdf2c
00000882
00001abf
00000f46
0fffdf5d
0fffe667
0000079c
00000e6f
0fffeb0d
0fffd9e7
0fffe857
0000164a
0ffff2e4
0fffea08
00002ac8
0fffe97c
0fffdaa1
0fffd3b4
00001d68
0fffde23
00002366
000014a2
000018f7
00001c6e
00001baf
0ffff2ce
0fffea0d
0000126f
0ffff723
000006e8
00000a88
0fffd957
0ffff2e9
0fffe97b
0fffe3a0
0000085e
00000140
000002d8
000038d5
00003272
0ffff0d6
0ffff4ed
0fffffa5
0ffff397
0fffed80
0fffeac1
0ffff264
0ffff9b1
0fffe63e
000021f5
00002aa5
0ffffbdb
00000e24
0fffe7c5
0fffeb13
0000165e
0ffff244
0fffffe3
0ffffe9d
0ffff352
0fffe3d6
0000029a
0ffff0fd
0fffda59
00001a66
000026ed
0fffef55
0ffff495
00001461
0fffbd93
00000b78
0fffd273
0fffd9eb
00002699
0000132f
00001fd0
00001224
0fffdaec
00000242
0ffff1ed
0fffdca8
00001375
0fffea29
0000066f
0fffe11f
00000240
0fffbb42
0ffffabe
0fffd38d
0fffe34e
0fffe8a5
00002df7
00001043
0ffff01e
00001f0c
0000155a
00000c84
00001570
00002a87
0fffe777
00003098
00000609
0ffff811
000000a8
0ffff720
0ffffb3a
0fffe4d2
000019f1
0fffd97d
00001ac9
0fffdc00
0fffedc1
0fffc978
0fffcb87
0fffd394
0ffff48f
0fffdc31
00001bba
0ffffe26
0fffef7d
00001cc9
0000147d
00001838
0ffff0ec
0000397a
000008c3
00003249
00000967
00001d85
00000bd6
00000353
0ffff98c
0ffff671
0fffd597
00000aaf
0ffff039
00002aec
0fffda55
0fffd61b
00000cdb
0ffff8e9
0fffbff4
0fffffe2
0fffc342
0fffca72
0fffdb7a
00000fb8
0fffdd21
00001289
00002149
0000296b
0ffffb31
0fffffc2
0fffe956
000022e2
0000485c
0000111e
00005327
00000f77
0ffffa65
0fffe899
00001538
00000959
00001e85
0fffebdf
0fffde9e
00000da4
0fffc897
00001095
0fffcaa8
0fffb999
0fffc96a
0ffff759
0000277e
000008ee
0ffff1c2
00002f9b
00000315
00001da7
00001b25
00002ee8
000029db
00003e1d
000005da
000038ee
00002bf0
000053af
00002fd8
00002629
0fffe75d
000014d0
000029fa
0ffff249
0fffdc06
0ffff10b
0000100f
0000140b
0ffffeb0
0fffad4e
0ffff28b
0fffdad2
0000270d
00001a3d
000024b4
000025f5
0ffff7a8
00003327
00002542
0ffff494
000010dc
0ffff0f4
0ffff688
00002ec3
00001d8c
00002307
000032bb
000029f5
0fffde20
000004d5
00000753
0fffda6b
0ffff283
0000239e
0fffdd71
0fffebc4
0fffd807
0fffda01
0fffdb26
00001c1f
000023a0
00003537
00004ea2
0000403c
00000ac8
0000028f
0000013a
0000278f
000014fe
00001e29
0ffff42f
00000927
00001400
0ffff350
0000216c
0fffef39
00000492
0ffffbdb
0ffff73c
0fffeec8
000016c0
000002d3
0ffff9aa
0fffe9cf
0fffd51b
0fffcbe9
0000106e
00001a86
00000182
00003e40
000017ff
00004048
0000332b
00001e82
00001c95
0fffe7ed
00000a26
0fffd00c
0fffbc6c
0fffe9a1
000006da
00001a36
0000246f
00000d7e
00001dc6
0fffeed2
00001359
00001fb1
000013ae
0fffee33
00001d54
0fffe914
0fffc5c4
0fffc63c
0ffff501
0fffe364
000024ec
000045bb
00002149
0fffecf8
00001ab5
000016da
00001c34
0ffff25d
00001974
0fffcd02
0ffffe98
0fffcf56
00000ed0
0fffcb03
0fffe2be
0ffffa02
000024c3
0000123e
00002753
0ffffca6
00001bb6
0fffd57b
0ffff040
0000001c
0fffe881
0fffe641
0fffe18b
0ffffc85
00002850
0000313c
0ffff79e
0ffff352
0fffefb3
0fffd829
0000163b
0fffda83
0000061d
0fffeee0
0ffff675
000001e2
0ffff6ec
0ffff1f1
0ffff74e
0ffffc90
000007b2
0fffe584
0fffe211
00002482
00001def
0fffe8cb
0000257d
0fffdc11
0fffdb9d
0ffff071
0fffe079
0fffce44
0ffff1bd
0000088a
0fffc014
0fffec3f
0000010e
0fffe247
000006df
000011fa
00000c42
0fffd92a
0fffe072
0fffbdc8
0fffd7a9
00000586
000011b2
00000663
00001ab2
0ffff894
00000cfc
0fffe1bc
0fffd9c6
0ffff989
0ffffbe7
000003c5
0fffdb0d
0fffef80
0fffbbf9
0fffdf0c
0fffc7d1
000009f3
0fffcba2
0ffff26b
0fffea0e
0ffff599
00003e8b
00003697
0fffe1b7
0fffedea
0fff9a00
0fffbca4
0000085d
0ffffd41
0fffe882
000001eb
0fffec85
0fffdd85
000004fb
0fffebb7
0fffeb08
0fffece3
000038bb
0ffff8ed
00000549
0000008c
0000056e
0fffe318
00001354
0fffecb2
0fffd8d8
00000598
000011d8
00004cbc
00002606
00000e33
00000c6d
0fffa976
0fffae22
0fffe3b2
0fffed38
0ffffe3b
0fffeff7
00000696
0ffff9d1
00001520
000006bf
0ffffc07
0fffecce
00001666
0fffec71
00000d69
0fffe699
00001c03
0fffe48a
00000f30
000013e8
0000114b
00002198
0fffe8cb
00001578
0000581b
00004a7a
00001751
0fffb489
0fff91d4
0fffbd97
0fffec7e
0fffd39e
0000052a
0000093d
00000352
0fffdd12
0ffffcab
00001167
0000140f
0fffebc7
0fffe862
00002a6f
00002614
0ffff4c3
00000327
00002200
00000dcb
0fffee47
0ffff5b1
0fffe10f
00000fee
000044c3
000023fa
000054e5
0000241c
0fffbf31
0fffa081
0fff9ec6
0fffb524
0fffde04
0fffd33a
0ffff70f
000005b9
0000010b
0fffd6d4
0fffec16
0fffd94b
0000034c
0fffe64c
0ffff71b
000034fc
0ffff824
0000340a
0ffffae9
00000043
0000028d
00002818
0ffffbd8
00000a3c
0fffe4a1
00001437
00000f8e
0fffd55b
0fff73f2
0fffb887
0fffa6d7
0000029b
0fffe701
0fffd5d6
00001da1
00000b6e
0ffffbe6
0000241d
0fffeb2a
0ffff637
0fffdbfb
0fffdbf7
0000071d
00001521
0ffffb3e
0ffff0ef
00001e27
0fffffa9
00000b73
00000201
0fffce20
0fffff59
000009b4
00001475
0fffff6f
0fff9a46
0fff730c
0fffada5
0fffb609
0fffe74a
0fffe3b3
00001fa7
0000224c
00000255
00000905
000007c8
0ffff4f0
0ffff5e6
0fffe8e9
0ffffebb
0fffe3b4
00000add
0ffff667
0ffff687
00001057
0ffff29c
0ffff899
0ffff7a8
000004d5
0000102a
00000d74
0fffded0
0fff9f48
0fff9698
0fffc893
0fffdf74
0fffd0a7
0fffe2e9
0fffe074
0ffffa8c
0fffdbf2
000012cc
0000014c
0000173c
0000075a
0fffff78
00002340
0fffee6f
000012a6
0fffff60
0fffea67
00000046
0fffe58a
00000c63
00000c2c
0000235e
00000e8e
00003dc1
0fffe17c
0fffb1b4
0fffb5ab
0fffd546
0fffa67f
0fffe9b6
0fffcebd
0ffffbd2
0fffe3ba
0fffe884
00002a01
0fffd8c7
0fffdfb0
00001336
0ffffc27
0fffe3ba
0ffff2b7
0000150a
000032f3
00001981
0000273b
000023d0
0ffff115
0ffff211
0ffff696
00002ec5
00000f13
00000a26
000011fc
0fffbb7e
0fffebed
0fffd886
0ffff1ab
0ffff20f
0fffe770
0fffdf22
00001204
0000074c
000021cb
0ffff5ec
0fffddd0
00000c54
0fffde8e
0ffff1cd
0ffff299
0fffeee0
0ffff9c9
0000064b
00000037
0ffff0aa
0fffe65b
0ffff9a9
00001c28
000031a5
0fffff89
00001062
0fffdfb8
0000265a
0fffd84f
0ffff9c1
000003a6
0fffd93e
0fffe4c6
0fffe614
00000959
0ffff570
000021d1
0000003f
00000850
0ffff707
00001d9e
0000274a
000016df
00001d70
000028a6
000026c3
0fffd65a
0000154c
00000cc0
00002c1d
0fffe140
000006b3
0fffffe8
000027a7
0000174f
0fffe560
0ffff166
00000e55
0fffdcad
0fffffe0
00000eb9
0ffffe6d
0ffff483
0fffe89a
0fffd9f5
0fffd792
000023ca
0fffe59b
0000185d
0fffe251
00002a10
0fffdd56
00002857
0fffe8a9
00001c89
0ffff02e
00001f9d
0fffe008
0ffff052
0fffe8cc
0fffdf02
0fffe86f
00000da8
00001b37
00001f4c
00000a5b
0fffeed1
00001c6c
00002a29
00002949
000013f5
00002618
000012cc
0000137b
0fffe269
0fffff67
0000203b
0fffd569
000023ad
000022eb
0ffff866
0fffd69b
00000483
00001328
0ffff242
00000132
00001c14
00001863
00002460
00000d91
00002a96
00000dc7
0000079c
000029aa
00002311
00000dc2
0fffe39a
000014da
0fffedbc
00001318
00001797
0fffdf9f
0fffdce3
0fffe125
000026fd
0fffd720
00001ca3
0ffff6cd
0fffdefe
0fffd99f
0ffff8cb
00000e86
0fffde39
000025a5
0ffffad0
0fffee8a
0fffdaa2
0fffd3df
00002048
00001f64
000029f2
0fffe1b0
00000cb6
0fffe0fc
00000609
00001ed7
0fffd961
00001894
00001c1b
0fffed1d
000025b5
0fffdb2b
0fffda41
0fffd53c
00000762
0fffeef7
00000885
00001d6c
00002413
00002581
0ffff325
0fffda5c
00001ca0
00001623
00000eaf
0000252f
0ffff864
00001565
0ffffd7c
0ffff79e
0fffeeab
0000207b
0fffd07b
0fffe1c4
0fffdbb0
0fffedd1
0fffe173
0fffd812
000013de
000010bd
0fffe039
00002087
00002830
0fffe061
000006b5
0fffe45e
0fffeda2
0fffefc0
0fffeca4
0fffe740
000018da
0fffe610
0ffff4d1
0000118e
000018f5
00000514
00001de9
0ffff982
0fffded8
0fffc782
00000eaa
0fffd61b
0ffff961
0fffed3d
0fffdeb7
0ffff194
0fffebac
000024ce
0fffefe1
0ffffb84
000003f6
00001b97
0fffecc3
0fffe560
000001cd
00002411
0ffff5bd
000012b3
00002d48
00000264
0000291b
00004189
0000287a
000042d5
000049ca
00003edc
00002a3c
0000026b
000005a9
0ffff6d2
00000fb8
0ffff053
0fffee36
00001706
00001d20
0ffff0f1
000029fd
0ffff46e
0ffff5b8
000024b4
0ffffdb6
0ffffac0
0fffea49
000017e0
0fffe948
00000608
00000c6b
00002f98
0ffffc1d
00000512
0ffff794
00002805
00001562
00001ddf
0ffff580
00002270
00001807
0fffef54
000003ae
0000038c
0fffd3bf
00001395
0ffff9e9
0fffea75
0000111a
00000dee
000019f4
0fffea56
0ffff397
000016bd
000003a4
00000ffd
0fffde30
0ffff531
000001b9
0ffff1bc
0fffedad
00000786
0ffff108
00000bf4
000039fd
00001e4a
0ffff8ed
000012d7
00001052
0ffff90e
0ffffe82
00001e0e
000011d9
0000265a
000027dd
0ffff98c
0ffff248
00002a0d
0ffff308
00000ef9
0fffdf40
0ffff94a
0000083a
0fffce6c
0fffdd8a
0ffff630
000003fc
0ffff96b
0fffc809
0ffff6cc
0fffe53e
0fffd84a
00001ac8
000011f7
00002f7e
00002a37
00001d9f
00001987
0fffd920
0fffd546
00002283
00001a4d
00001774
000010c8
0fffe5d9
0fffe6a7
00002899
0fffe29f
00001808
0fffcb47
0fffc7fa
0fffcf92
0fffd2d0
0fffc86c
0fffcbb5
0fffcb7f
0fffa469
0fffc18e
0fffc31b
0ffff7ca
00002225
00004ac3
0000498d
00004e75
0ffffe46
00001bf1
00002c63
0000179d
0ffff2a4
0ffffe0d
0fffdfb5
0ffffff4
000007be
0fffe16e
0fffe109
0000067d
0fffff2e
00000779
0fffc2c4
0ffff697
0fffcd53
00000a5b
0fffbc88
0fffb851
0fffdde5
0fffe9b1
0ffff157
0000013a
00000f81
000010e5
00002415
0000435a
000041a1
0ffffed1
0ffffee1
00002a36
00002978
0fffd9ce
0ffff683
0fffe2bd
0000020f
00000689
0ffff3b2
0ffff234
0fffdb20
0fffbe23
0ffff78a
00000142
0fffd7ed
0fffc141
000010d1
0fffdc87
000009ed
0ffffd40
000004e7
0fffe976
0fffd57d
00002472
00002033
0ffff61b
0fffff16
0fffffa7
00000307
0ffff646
0000078a
00001eea
0fffef3d
000025ef
0ffff4fe
00001424
0ffff765
00000e75
0ffff380
0ffff69f
0ffffd24
0000071f
00001607
000005a9
0ffff81a
000012d1
0fffd2f4
0fffd711
0ffff299
0fffda48
0ffff3f6
0ffff4fc
0000099e
00002177
000025e2
00002230
0fffe779
00002b37
00002b10
0fffe4b3
000024bc
00002276
000014a2
0ffff8d7
00000da2
0fffd58f
0fffb609
0fffc1c8
0fffe2f0
0fffe73e
0ffffded
0fffefb6
000034c9
0ffff833
000011a6
0000016f
00000c4d
0fffb553
0fffa963
0fffc6c0
00000ad1
0ffff040
0ffff3a9
00001285
00001071
0fffdde9
000019ce
00000803
00002621
000013a4
00001c75
0ffff4a0
0ffff537
00000122
0fffe485
00000ee9
0fffcec6
0fffe28b
000025fd
0000113e
0ffffa6e
0fffe95c
00002e76
0fffe07d
0fffef06
0fffd50b
0fffe4a0
0fffd2f9
0fffde56
00001321
0fffdec4
0fffeb75
0fffd15c
00002457
0000264b
0ffff697
00002720
0fffdf5c
0fffeffb
000002b1
000012c8
0fffd84c
0fffd79b
0ffff5b3
0fffeb30
00001f76
0000016e
00000188
0fffe9f9
00001c96
00001ba4
00000e17
0fffcc1f
0fff97bb
0fffca61
0fffe876
0fffde13
0fffd326
0000046d
0000118d
0ffff20c
00002139
0000121e
000000b9
00000c2f
0fffd5ed
0ffffd45
00001d3f
00002b58
0fffe24a
0ffff35e
0ffff0af
0ffff997
0fffce67
0ffff92f
00001d19
0ffff376
0fffceaf
00000898
00000913
0ffff292
0000042b
0ffffc20
0ffff3d0
00000395
0ffff6cf
0fffe1ef
0fffecf0
0ffffe41
0fffe245
00000107
0000296c
0ffff35d
0ffff8ce
0ffff573
00000445
00002604
000020e6
000020b7
000001a4
00001acc
0fffe4c6
00000da4
00001c73
0ffffc34
00001394
0fffee8a
0fffe703
0fffe483
00001637
0fffe37b
0ffff73e
000004ca
00000098
0fffecd2
0ffff1b1
0000061f
0fffed1b
00000a3b
00000034
0000034b
00001815
00001bc7
0fffdbd5
00001e92
00002aed
00004687
00002b21
0000095d
0000277e
0ffff719
0ffffcc9
0fffefdf
0fffeaf6
0fffe4f4
0ffff159
0fffd4fd
000011c5
0fffc1cd
0fffec95
00000b63
0fffccd7
0fffd96a
0000047d
0fffd034
00002c5d
000023cf
0fffe83c
0fffef84
0fffdd54
0fffe39c
0fffdef0
00000f18
0000488c
00002671
0ffff499
000017bf
00004554
000044df
00001862
0000197d
0fffe5cd
00000b68
00000942
0ffff507
00000829
00000966
0fffc068
00001862
0fffe631
0fffe035
0fffff01
00000184
000017cc
00001b6a
0000147b
0fffed58
000018dd
0ffff242
0fffd748
0000298d
00001707
00003723
0000407f
0000496a
000003db
00003ad5
000003ba
00004b52
00002191
00003b82
0000247f
000021ff
00000bc9
00000b94
00000b8b
0fffe32a
000008e0
0ffffb27
000026e9
0fffefce
0fffec4a
0ffffc30
000010db
0fffe430
0ffff053
00001b7e
0fffe2f9
00000ad0
00004751
00000341
00001cb9
00002cc5
00002875
00003bf3
00003558
00001e27
000036c9
0ffffa69
0ffff44f
00000c67
00000cfe
00001b3e
0ffff27f
0fffda93
000002a2
00002375
0fffe949
0fffeda5
0fffe03b
0fffe77f
0ffff53b
0fffea14
0fffd5a1
00001d12
0ffff954
00000af5
00000bf9
0ffffc2a
000030b6
000035c8
00000c82
00000141
0ffff355
00000d88
0fffe07e
0fffc581
0ffff528
0fffe5e9
000016f2
0000376a
00002612
00002fe7
00000cc1
0fffec8d
0000137f
00000332
00001b37
0fffed38
00002289
0fffe8eb
0ffff701
00000843
0ffff4f3
0fffff3a
0fffde93
0fffe2ee
000008af
00002fd3
000012ff
0fffeebb
0ffff444
0fffee2c
0fffd511
00000454
00001a3a
0ffffe4a
00001936
00002b19
0000153d
0fffe6e6
0fffe39c
0fffef47
000025d9
00001e01
000022ed
0fffdf15
00002888
0fffe264
0ffff4c4
00002106
0000007a
0fffe89a
00000df2
00001331
0fffea99
0fffd834
00000d75
000023b1
0fffeb5e
00001e03
0fffcfa5
0fffce8a
0fffe3c6
0fffddf8
0fffce45
0fffeabe
0fffe5bd
0ffff974
0fffdf3b
0fffffa5
00001dfe
0ffffb75
0fffe6f9
0fffed17
00000127
000014a5
00002459
0ffff87c
0fffdd60
00001a66
0ffff800
0ffff821
0fffdaef
0fffd69f
00000509
0000077a
0fffd2c1
0fffd22a
0fffdbdd
0fffe91c
0ffffdcc
00000ac5
00000d92
0ffff5ff
0ffffc02
0fffe741
0fffd95d
00000185
0fffd490
00001d4f
000029ca
0ffff96b
0ffff341
000019f1
0fffec1f
0fffd8f9
0000078f
0ffff5c2
0fffe118
0fffedd3
00001025
0ffffb3f
00000abc
0fffcd41
0fffdcaa
0fffd7ed
0000075c
00001269
0fffca05
0fffdb2f
00000955
00000bc9
0ffffcd7
000008b7
0fffe057
0fffdc18
0fffebd5
0ffffbca
0fffd850
000009a5
00001612
0ffffe4e
00002692
0fffeca1
0000081e
0ffff646
0fffee7a
0ffffc69
0fffdd4a
0ffffea9
0ffff769
0ffffcec
0fffef41
0fffef09
0fffee08
0ffff6c3
0ffffa79
0ffff159
00000ced
000006a5
00001b1e
0ffff362
0fffd662
0fffd7b3
0ffff868
0fffd93d
0fffe798
0ffff627
0fffef73
0fffeab2
000004ea
0fffeda9
0ffff8b3
00000654
0000139a
000023c4
0000205b
00002747
0fffd5af
00001a17
0fffd4ec
00000420
000027a3
000020cf
0fffeea9
000018a4
000014b8
00001cee
0ffff168
00000a0e
0fffea2e
000000c7
0fffde61
000007ee
00001b24
00001b1c
0ffff6b0
00000678
0fffd679
00002b0d
00002758
0fffeca6
00002922
0fffea85
0000234e
0fffebcd
0000167a
00000b77
00001dfa
0fffec1f
0ffff37c
000006ba
00001927
0fffef8a
0fffdcd3
00000a5b
0ffff96c
0fffda3d
0fffed0a
00000583
0ffff7d4
0000231f
0ffff041
0fffe660
0fffef12
00000782
0000114f
0ffffe3a
000003a3
00000306
000015c1
0000164a
00001f47
0ffffc10
000024ec
0fffdc6b
0fffed50
0fffe399
00002a51
0fffe337
00002290
0ffff4bb
0ffff86d
00001a6c
00001106
00000627
000022ec
0000133d
0fffe5fe
00000730
0fffefe4
0fffdd38
0fffe90d
0ffff7e7
00001a74
0fffe916
00001da1
00001c18
0fffeedf
000023b6
0ffffdd0
0fffd6e8
0fffda85
00001c1f
0fffd674
0ffff3fa
0fffeb2f
0fffe5d5
0fffdf69
000014b6
0fffff66
0fffe699
0fffd7fd
0ffff3b5
00002b29
00001118
0fffffe1
0fffefde
0ffffd69
00000402
0fffd9c0
0fffdb95
0fffdedb
00000584
00001fd4
00000d11
00000c0c
00000282
0000117a
0fffefb6
00000ffe
0fffe975
0000271a
00001386
00001ad2
00000d32
00000d3a
0fffe5fd
0fffe041
0fffee20
00001490
00000578
0ffff52e
00000c14
0000259d
00000c2e
000021f4
0ffffd39
0ffff035
00001a95
0ffffeb7
0000131b
0fffeecc
0ffff4b8
000019ad
0fffe33e
0fffefda
00000d48
0ffff1ff
00001fad
00001817
00000a8a
00001e03
000007ea
0000271c
00000235
000019d5
000014d7
00002490
0fffeac0
00000f25
0ffff604
0ffffa36
000014cc
00001024
000000e7
0000244c
000010f6
0fffec59
00000bd2
000018c4
0fffef37
0ffff8f9
0ffff33b
00002126
00000c92
0fffde65
0ffff44f
00001ed3
00001eff
0ffffb15
0fffe3ea
0fffdc3d
0fffdbda
0000040d
0fffefb3
0000047b
000000fb
00002809
0fffeac3
00000a8b
0ffffeb9
0ffffd30
00001c15
0fffef45
000022b5
0fffda21
0ffff952
0fffd99c
000012e2
0fffe712
0fffe83e
00001caf
00000c23
0ffff53c
0ffffcfa
0fffddb9
00000d88
000023b0
0fffe52b
0fffe469
0000058d
00002e3b
000029ae
0fffe93b
00000cb7
0fffdad2
0fffe787
0fffe023
000017d1
0fffd603
00001133
00001e37
000027e2
000024f4
0000207d
0fffeef5
000022fd
0fffef7d
0fffe114
0000234c
0fffe88c
00000743
0fffee0d
0fffd97c
0000242d
000013c4
0ffff4d9
0fffe5c7
000006b3
0000283e
0fffe5a4
0ffff1f5
00000d22
0ffff159
00002195
00001a71
0fffdb00
00001e51
0fffe8df
00000002
0ffff5af
0fffd8b2
0ffffe2b
0fffd623
00001886
0fffde90
0ffff1ce
00001f47
0000211b
0fffdb23
0fffe9c6
0000281a
0fffeeb8
00000be9
0000018e
0fffeda2
00000efc
00000307
0fffe6e7
0fffdc4a
0fffef37
00000316
0fffdb7c
0fffe4e0
0ffff138
0fffff19
0fffd627
0000180a
000017e1
0fffff60
000027f9
0000180e
00001cc8
0fffd88d
000024f9
00000377
0000077f
000016a1
00001b5d
0ffff85f
0fffe78a
0fffecde
00001b50
00002516
0fffe973
00000053
000018c5
0fffe9d9
0000198b
00000498
0fffe749
00001a3d
000021e4
000003a3
0ffff344
00002915
00001850
00001ec8
00002a16
0fffe2e3
0fffdf2f
0fffe06e
0fffdc97
0fffeb66
0ffff583
00000570
0fffdec5
0ffff176
0ffff8be
0fffd88a
00000c39
0fffdd6d
0fffd93c
00000395
0fffebe9
0ffff80e
0fffdfd1
0000055f
0fffd67c
0fffd707
0fffe2bb
0fffddf7
0fffe521
0fffd756
00000f29
00001685
0fffdc5e
0fffe76b
0fffe008
0000226e
0fffe0a5
00002900
0fffe246
0fffd760
0fffe636
00001d95
000026ab
00001600
0ffffb00
0fffdeee
0fffdc51
0fffd7b0
00001d60
0ffff598
0fffe04e
00001287
000009f6
0ffff7c9
0fffd614
00001af9
00001b1d
00000bcf
0000150b
0ffffc8a
00001ff8
0ffffd97
00002ad1
00002931
00000f80
0fffd845
0fffdc2c
00001674
000028af
00000e0f
0fffedd7
0fffd54a
0ffff06b
0fffea8c
0fffd9dc
0fffdb0f
0ffffb2b
00000802
0fffe629
0fffe826
0fffe68a
0000211f
0fffe83f
000010a0
0fffd8c5
00002311
0ffffc2e
0fffea80
0000167d
00000555
0ffffd28
0fffde59
000002c7
0fffe798
00002488
00000346
000002e9
0fffe686
0fffdb5c
0ffffccf
000005fc
0fffed6f
0fffe7aa
00002b9a
0fffe490
0fffda21
0fffe0b1
0000298b
000000d2
0ffff2f8
000010df
0fffeb1d
00000891
0fffec3e
0000200d
0ffffce6
00002ad6
0fffde7b
000022d3
000019bd
000000ea
0000160a
00000291
0ffffbca
00002144
0000206f
0000049e
00001904
0fffdbdc
0000078e
0fffffa5
0000140a
00001d6c
0ffff0b6
00002976
00002569
0ffffcf0
00001652
0fffe0c4
0fffd7f2
00000039
0fffe723
0ffff3a3
0ffff330
000028f5
000015e6
00002a4a
0fffe6d8
0fffff9d
00000ef4
00002a3e
0ffffb44
0000056c
00000f1a
0fffdf7f
0fffdb99
00000a56
0fffeecd
0fffea71
0fffea1a
0fffea82
0ffff366
000003ce
00000de9
0ffff926
0ffff283
0fffefc1
0fffd4fc
00001cda
0fffdecd
0fffda91
0fffef61
0fffe110
0ffff3a7
00001279
0fffe566
00002565
00001fa3
00000c20
00002bd7
0000127a
0fffdede
0fffd67b
00000cf5
000025f4
0ffffb1b
0fffe814
0ffffaed
0fffee01
0fffebfa
0ffff521
0fffe50f
0fffd96f
0fffda1d
0fffecb2
0fffd7f4
0000257d
0fffe5b9
00000a33
0000063e
0000135f
0ffff22c
000007f9
0fffd62f
00000d27
00000de0
0fffe16f
0fffe015
0fffe994
0000134b
0fffdf75
0000160d
0fffd6af
0ffff7d4
0fffedeb
00001d2c
0fffda6d
00000609
000027a9
00002658
0000229f
0ffff3e9
0ffff95d
000000af
000015fe
0fffedbf
0ffffcef
0fffe2e2
00001608
000007dd
0fffe860
00001b52
0ffffef2
0fffdef4
0fffe1c6
00002181
0ffff155
0000094b
0fffe21f
000016f4
0000081e
0fffdf32
00001b89
00001216
0ffff6a8
0fffe483
0ffff2d8
00000cd1
0ffffb4e
000024c7
0ffffa84
0fffdd1b
0fffef8f
0fffeffc
000008db
0000077f
0fffeca6
00000b5a
0ffff0d9
0fffec47
0000211d
0000200d
00000b22
000008e6
0fffd9df
0fffebeb
0ffff994
0fffee8b
0ffff392
0fffd3b7
0fffd5e8
00000a3f
0fffddf1
0ffff939
0000289e
0ffffa95
00000e5b
000010ac
000029aa
0ffff4db
0fffda47
0ffffc07
0ffff45d
0fffe85c
0fffe792
00001775
0fffdb99
00001d6b
00001c9b
0000052a
0ffff2d1
0ffff7d4
0ffffced
00002099
000000eb
00001bde
0fffdf94
00001a61
0ffffe99
00002b7e
00000bfb
00002a54
0fffeaa6
0fffeb8d
00000366
0ffffc5d
000009cb
0fffecdc
0fffe2bd
0fffeaf4
000002f0
00000c24
0fffe30a
0ffff4d3
0000202d
0000153b
00001129
00000631
0fffe2fb
000019ab
0ffffdac
000007fd
0ffff571
000003b2
0fffe806
0ffffd0c
0fffeb2a
0fffd80b
00002682
0fffe607
0fffe278
0ffff19e
0fffdfe7
0000083f
00001edb
0000168a
0ffff4f8
0ffff8bc
00001f5b
0ffffe22
0fffd786
000012c7
00001311
0fffebad
0000105b
00000025
000021fc
000005a4
000000ad
0ffff7a0
0fffdd76
0fffe011
0fffd7a2
0fffe632
0fffdf0c
000024ed
00001883
0fffdfd1
0ffffea6
00002958
0fffdfae
0ffff392
0fffd992
0fffd922
0fffed61
0fffea2a
000024c9
000015ce
0fffd7b6
0fffd688
0fffe6e9
0000203b
0fffebc7
0fffe028
0ffffb55
00002594
0ffff197
00001513
00001af4
00002a22
00001063
0ffff995
000002c4
0fffe754
00001813
0ffff3ce
000013f0
0ffff4c7
0fffe375
0ffff2b5
0ffff9fa
000019b2
0000000e
0fffed48
0fffe7fa
000015bf
000029c5
0fffd7f8
00001542
00000ba1
0ffff353
0fffff42
000004ad
0000126f
0fffdb27
0fffed5e
0fffefcd
0fffde6e
0000244f
0000290e
0fffe6f1
00002a23
000015a5
00002835
000012b4
00001719
00002443
00001b78
0fffe11f
00001412
0ffff79a
0fffed1c
0000173c
000011d8
00001e94
0000107a
0ffff482
00001a74
00001de0
00002823
0ffff931
0fffef6f
0ffff83d
0ffff61a
0fffdc5c
0ffffc9c
0000209f
0fffdfd7
0fffff6d
000016cf
0ffff80e
0fffd8b1
0ffffada
0fffe450
00000c53
0000182f
0000154b
0000098b
000001c8
0ffffb59
0ffff0e1
0fffdd79
0fffe968
00002942
00001361
0fffd605
000009d6
00001f57
00000e74
00001bda
00000ea6
0fffdbb5
00001469
0000159b
0fffd84e
0000150e
0000093f
00001b75
0fffe936
0fffdc5a
00002554
0000273f
00000537
00000603
00001858
000002c8
0000012a
000009be
00000e2c
0fffeaec
0000242a
0fffe849
0fffdef7
00001a20
0fffeebe
000006f9
0fffefc8
0fffddc3
000002a5
0ffff170
0fffeb35
0fffdc81
0fffdf56
0fffde30
0ffff15c
000011cc
0ffffcb1
0fffedfc
0fffd97b
00001beb
0ffff249
0000074c
0ffff9e0
0fffdf22
000026aa
00001789
0000156b
0ffff4cd
0ffffdc1
0ffffa53
00001e6f
0ffff512
0fffd8d9
0ffff866
0fffeef1
00001383
0fffdf0a
0000191a
0fffdf05
0fffd84a
00001a4c
0000153f
0ffff331
00000f26
000012d4
0fffd771
000029f5
0ffff285
0ffffa44
0ffff0ec
0ffffef9
00000a46
0ffff1aa
0ffffefa
0fffddce
0fffd5df
0000291a
000029b2
0000005a
000015fc
0fffeb0e
0000209c
00001df0
00000c03
00002a0c
0fffdc95
000029ea
000008f3
00002042
0fffd8da
00002c2e
00000e42
00000986
0fffe49d
00001d34
0ffffb79
000015de
0000214d
00001ccd
00001c25
0ffff928
0fffddfe
0fffe4a6
0ffffa83
00001127
000019e2
0fffd675
0000092f
00001b23
00001808
00002945
000023fe
0fffdf1c
00001c58
0fffe6c8
0ffff9c4
00001ac3
00002c60
00000cc4
00001989
00000e46
00000e72
00000014
0000080c
0000110e
0fffd0f0
00000a64
0fffe14b
0000033c
0ffffda4
0fffd8f3
0fffe7c6
00001b23
00002295
00000c10
000025ad
0fffe487
00002647
0fffec5b
00001f65
000012a7
0fffe646
0fffe64d
000028ae
00001133
00002db7
00000f2b
0fffe89c
0000255c
00001398
0ffffbda
000004b5
00001131
0fffec19
0000114c
0ffff7aa
0ffff550
0ffffe31
0000132a
000029a2
000000be
0000281d
00001672
000003bc
0ffff0ac
0ffffdbd
0fffd97c
0ffff889
0fffe840
0fffe1ab
0fffd6fa
00001dce
0ffffe7f
0fffe3ba
000041b1
0000114d
0ffffa88
0ffffbb4
00002882
0fffdd8b
00001973
0ffffbe3
0fffdd39
00001089
0fffe629
00001ea9
00001142
0ffff034
0fffde01
00002786
0ffff63b
0000052e
0ffff082
0000243d
0fffd50e
0fffd67f
00001e90
0fffe6d4
00000e5e
0fffde42
000011db
0fffdd0c
0000012d
00004c0e
00001e90
00003372
00001e37
0ffff638
0000175a
00001996
0000011e
0fffdaf3
0fffdedf
0000002f
0ffff1a2
00000046
0fffe6a1
0fffe10c
00001158
0fffe51f
00000f20
0fffeda6
000005db
0fffd7ef
0fffef93
0fffec29
0fffd6ab
0fffd9c6
0fffc6e8
0ffff310
0000216d
00000c94
000011ac
0fffef63
0fffde6a
0ffff9c7
000002ae
0000154c
00000264
0ffffd51
0fffdfc7
00001cfb
0ffffd3c
0fffe401
0ffff794
00002897
000012a5
0ffffa66
0000073a
0fffe578
0fffef83
000013b8
0fffd404
0ffff041
0ffff96b
0fffc780
0fffbf7d
0fffe425
0000224d
0fffffe4
0ffff0c5
00002adf
0ffffd5c
000024cb
00001e4d
0fffe44b
0ffff45f
0fffe6bb
00001749
00000f07
00000a0f
00001eb1
0fffd9a1
000015b4
0fffd47b
00000535
000003a2
0fffefe3
00000737
0fffdc03
0ffff6fb
0fffe561
00000d0a
00000d2c
0000099e
0ffff792
0ffff441
0ffffb05
00001fa3
0fffe82e
000003a5
000009fc
0ffff77c
0fffec65
0fffd78a
00002438
0fffd807
00002a5e
0fffe0ba
0fffe6eb
0fffdec3
0ffff320
0fffe96a
00001de5
00001cda
0fffcaed
0ffff8d9
0fffeee7
0ffff7ad
0fffdfa6
0fffccfc
0fffd44f
0fffd8cc
0000113c
00003411
00002fdf
00000b7a
0ffff814
000008de
00001a96
00002235
0ffff09e
00002459
0fffd42c
0fffdbde
0fffeb1a
0fffe2c2
00002358
0000004a
0ffff370
0ffff0eb
00001206
00000327
000010e5
0fffcca1
0fffce6c
0fffdd52
0fffc82e
00000eae
0fffbe1d
0fffd0e3
0fffc287
0fffebf7
0ffff9df
0000201c
00000806
0fffdf47
0000069f
0000242e
00000e58
00000476
0fffef9d
0fffe440
000023f7
0fffd673
00002734
0fffeeab
0fffdadc
0ffffb84
0fffe9bc
0fffe0e3
0fffcf3e
0fffe1eb
000019cc
0fffd2f9
0fffd525
0fffcb00
0ffff740
0fffb850
00000e76
00002378
00003aa6
0fffeef9
0fffe820
0ffff59b
0ffff422
0000060b
00002673
00000931
0fffed5e
000009da
0fffd931
000019b2
00002461
00002068
00002572
0fffea67
0fffff14
0ffff0da
0fffde69
0fffd892
00000fc5
00000722
0fffccdf
0fffda79
0fffdeef
0ffff5cc
00000b55
0000135e
000032d1
00002c23
00000e51
0fffe32f
00000e7c
0ffff1fc
0ffffbc0
00000821
0ffff9aa
0fffdd75
0ffff659
000011a7
00000bfa
0ffffc99
00001761
00000f5f
0fffebab
00000b26
00001d2f
0fffed21
00002679
0000232c
0fffde6c
00000456
00000643
0ffff949
0000068b
0ffff337
00002168
00000d8b
0fffe47f
0ffff074
0fffe4dd
0ffffc00
0fffec04
0fffe383
0ffffbd4
0ffffb39
00001ed9
0fffee85
00001e03
000008a1
0fffe41c
00000c36
0fffe10b
00001723
0000225f
000011a3
0ffffc83
0fffedd0
0fffff7a
0000171c
00000f73
000014f6
00001c53
00001bbd
0000275a
0fffe69b
0fffe63b
00001fa4
00000074
00000ad5
00000d83
0ffffcde
0fffde87
0fffe790
0fffd904
0fffd98d
000018f5
0fffe8a7
0fffd7a1
0fffe1e1
0000292e
00003936
00002ea2
0fffff2a
0000198e
0000175c
00003a22
00003488
00001cc1
0ffff83b
0ffffe50
0fffe67d
0ffff92c
0ffff287
0fffef82
00001fa9
0fffda9d
0fffdbe6
0fffdd35
00001052
00001748
0ffff903
00000e4f
0fffd8d4
00002530
0ffffc3c
00000b56
0000050b
00002277
00002680
000034f6
000008e9
000021d2
00002da9
00000497
00001305
000009cf
0fffe017
00001e6e
000002ac
00000c6e
00001240
000016c8
00001043
0fffef4d
0ffff8e6
00000a8d
00000b97
0fffde89
00000011
00001c15
00002524
0fffdd5f
000015f5
0fffd966
0ffff2c7
000018c9
0ffffaab
00000891
00003065
000033f1
0ffff792
000007ef
0ffffaac
00002e17
00002399
00002ca7
0fffef70
0000188c
00000398
0000014a
0fffe7b7
0ffff21c
0fffe620
00000ffa
0fffe229
00002061
0fffe78d
0fffe152
0000158f
00001520
0000106e
00001cda
00001a69
00001d58
0ffff378
0ffff624
0000372a
0ffff306
0000235a
0ffff19d
00001af7
0fffe60b
00001794
0fffed91
0fffe259
0fffe1cf
0fffe40b
0fffe1d3
000019d0
0ffffb14
0fffe695
000018b3
0000070d
00002018
000020a4
0ffff5fc
000012dd
00000bfe
0000109b
0ffff8d1
00001e0c
000018be
00001308
0fffebdb
00000fc8
00003008
00000216
00001f71
00000899
0fffebec
00001690
0fffecc1
0ffff091
0000034d
0ffff6ec
0fffee94
00000b8a
000007b0
0fffdee4
00001e3d
0fffe0a1
00000043
0000023f
0ffff380
0ffff946
0ffffa24
0fffdc96
0ffff54a
0ffff9d5
0fffea9b
0fffe440
0fffe953
0000212d
00000fd5
0fffe94b
000001d9
0fffec84
0fffd457
0fffeb1a
0fffe334
0fffe587
0fffca2b
0fffcd0c
0fffede7
0fffe0eb
0fffe576
0ffff943
0ffff04a
00000a65
0fffed10
0fffe091
00001dc9
000023a5
0fffec8e
000026ee
0000098d
0fffde0b
0fffe752
0ffff87b
0fffe741
00001d47
0fffcc8d
0fffd4fa
00000e2c
0ffff6b9
0fffc905
00001e85
00000348
0fffdc50
00000eda
0fffd570
0fffe451
0fffe5fe
000026d0
000013a8
0fffdfc3
0fffe848
0fffea56
0000063c
0fffeb26
00001dbf
00000f03
00001ef7
00002a23
0fffe1ac
00000275
000019b5
0fffee71
0fffe007
0ffff730
0fffe875
0fffc4e4
000009df
0fffd1d6
0fffdc41
00000407
0fffcfdd
0000092c
00002091
00001324
00002d58
0fffee29
0ffff25d
0ffffd65
0000189f
0fffeddf
00000169
0fffe633
0ffffcf0
000003b1
0fffd53a
0fffdbaa
0fffd929
0fffdb92
00000a27
0000297f
0fffee8f
0ffff9ca
0ffffdeb
00002023
0fffda15
000012f3
0fffeec6
000016ea
00000eea
0fffd7fb
00001522
0fffe3e1
0fffdc28
000002a8
000004b6
0000033c
0fffece4
00000022
000003a7
00001dc5
0fffe5e7
00001ae6
0fffdcfa
000012d6
0ffffe82
0fffd532
0fffeca3
0fffef14
0fffec13
0fffdf5a
00001365
0fffd24b
0000022c
0fffdf42
0fffdb51
0fffe8cb
0ffffce8
000015a5
0fffeff0
00001643
00001037
0ffff4fb
0fffd742
0fffdaa6
00001038
00001ad3
0ffff0aa
0ffffd45
0fffdc36
0ffffca8
0fffef69
00001a16
00001ead
00000dd7
0fffeafc
00000aea
0ffff60c
000002bd
0ffffc8e
0fffddd1
0fffeb58
0fffe5e2
00001c61
00000664
0000072a
0ffff52a
0fffd20c
0fffd8e2
0ffffb92
0fffe17b
0fffeee7
0ffff548
0fffff4c
0ffffd36
00002548
0000112e
0fffd9ae
000002d3
000026f0
0000075a
0ffffd5a
0fffe486
0ffff764
00000224
000006ff
0fffe92c
000006ba
0ffff3aa
0fffec99
0fffff70
0000089c
0000079c
0ffff3ca
000011c3
000005a5
0fffee8e
0fffd191
0fffef60
0fffe22c
000014fd
00000032
00001ffd
00001af9
0000197e
000017f3
00000f89
0fffea75
0fffede7
00002818
0ffff020
0fffde52
000008e5
000020ef
0fffeb48
000025ee
0fffea3d
0fffe2fb
0fffdee4
0000204a
0000119a
0ffff50d
0fffe30e
0ffff323
00000775
000017af
000024cc
000028fb
000029ac
0fffe3e5
0fffee56
0fffe953
00001f93
0ffff3b2
000014ee
0fffd53a
00000731
0ffffcbb
0ffff84e
000004cc
00000386
0ffff05e
0fffd718
0fffe909
0fffdf76
00001b3f
0fffd77d
0000002c
0fffdae4
0ffffb7c
0ffff733
00000839
000003f7
0fffdf70
00000c9c
0ffff0d1
00002776
00000be0
000004e4
0fffe262
0ffffbcb
0fffe9c4
000029ee
00000a8d
0fffeef8
00001ce9
0fffec49
0ffff3f3
0fffe80a
00000586
0fffe68b
0fffd590
0000282f
00000b88
00000db8
0fffddcb
00001761
0ffff709
0ffff26f
0fffd9ec
00002736
00001cd3
0fffe8c6
0fffe0a2
00000163
0ffff647
0fffd7f7
00001f94
0fffde72
0fffe88c
00001936
0fffe942
0ffffbe9
0fffde24
00001b3d
0fffed45
0ffffd13
000015f5
0fffe32d
00001b25
0000139e
0fffea78
000029e1
0ffff591
00001cad
0000101a
0000028c
0fffd8dd
0fffe6d3
0fffe61e
0fffd9c9
0fffebd3
00001e39
000010bf
00002305
0fffea72
0fffde94
0ffff228
00001929
0fffdf33
00002252
00001efc
00001c0d
000023bc
00000ed5
0ffff353
0fffdd41
00000ed6
0fffed4a
0ffffb48
0fffedd6
00002c1b
0fffec97
0fffdac9
00001bd3
0ffffdb0
0fffd523
0ffff824
0fffe629
000014e5
0fffd759
000006b3
00001825
00002ad5
0fffeb02
00002669
00001090
0ffff884
0000212b
00000ec8
0fffea80
0fffde76
0fffed14
000003de
0fffe549
000017cc
000016ad
00002876
0fffec79
0fffff59
00002c0b
00001f57
000013c1
0fffea58
0ffff30e
0fffd3ff
0ffff200
00000abf
0fffe8dc
0ffff0c2
0ffff5a3
000005ca
00001c38
00001239
0ffffae0
0fffe1b3
0ffff4ba
0ffff423
0fffdbba
0ffff83b
0fffe71d
0ffffabb
000034ed
0000273b
00000cb9
00000def
000020b1
0000309e
0fffedde
000024fd
0fffea8c
0ffff484
0fffdb6a
0000118b
00001f0b
0000059f
0000137b
0000153c
0fffe1a8
0fffea42
0fffe380
0fffe5d8
00001c80
0fffeca1
0fffd8c1
00002526
0fffe957
0000280e
0000208e
0ffff34a
00002439
0fffef3f
0ffff5e3
00000f20
0ffffb61
000007eb
00000354
00001e58
0ffff72e
0fffe49a
0fffdaee
0ffff799
0ffff628
0ffff54f
00001890
0fffdb45
0fffec8a
0fffeabf
000005d6
000002ba
0ffff949
0ffff340
00000188
000006ea
000007e5
0fffe51e
00000ab3
00003358
00000a51
0ffffd73
000006b5
00003336
0000222c
0fffea70
0fffdc30
0fffcdb5
000013d0
00001d39
0fffe112
0fffdab4
00001c20
000002f0
0ffffa9e
00001c5d
00000a76
00000586
00002ac3
0ffff8f3
0fffe5c9
0000289c
0fffd5a5
0fffd83f
00002086
00002571
00002659
0fffeaf9
000005b0
0ffffbd2
0000057f
00001ee7
0ffffd57
0fffd6ec
0fffd8ed
0fffede2
00001785
0fffe8c5
00000fc1
000009a5
0ffffc6c
00001218
0fffe801
0fffffa1
00000f3c
0fffe801
000011a6
0fffd54e
00001268
0fffdad8
0fffd66e
0fffdda7
00000fb3
00001b64
00002e21
0000053b
0ffff352
00001083
0ffff18b
0fffe17c
0fffea83
0fffc51f
0ffff6ac
00000046
00000855
0fffd83e
0fffea27
00000d5c
0fffd4c6
0ffff559
00001901
00001f1e
00001917
000008c5
0ffff1db
0ffff1f2
00002983
00001182
0ffffe6a
0fffe0bb
000004fb
0ffff1b2
0fffed86
00002a22
00002a72
0fffe51c
0ffffb0f
00000178
0fffe780
0fffefde
0fffcf8c
00002789
0fffe2ba
0ffff0d2
00001e6c
00001b7f
0ffffc8a
000005a4
0fffe013
0fffe405
000016c2
0fffe2c8
0fffe246
0ffff8f8
0ffffe69
0000076b
00001f83
000025af
00002837
0ffff28b
0fffeb9b
00001d74
0ffffec1
0fffe346
00001cb4
0fffe413
0ffff8cc
0fffe768
00001b3a
00001750
0ffff612
000038e8
00001311
00002986
0fffe827
00001961
0000240a
0000099c
0fffdbdd
0000194c
0fffe1a2
0fffed82
00000a37
0ffffc51
00000c1c
000025ee
000020ba
00001f86
0fffff72
0fffea67
00001712
0fffe3c8
0ffffcd5
0fffd52c
00000c5c
0fffe46f
0fffcf0c
0fffe979
00001091
0ffff2ea
00001d42
00001b40
00001a9f
000003f0
0fffdf92
000009d5
000015be
000022d2
0ffff000
0fffd6b0
0ffff356
00001472
00001d5c
0fffdbff
0000052d
0fffe482
000000c9
00001325
0fffe280
0fffe641
0fffe71d
0fffc911
00000fe5
0fffe7c9
0fffe8ba
0ffff221
0000072f
000011ba
00001c50
0ffff0eb
00002960
0000097d
0fffe734
0000220f
0ffffe70
0fffe68f
000012ae
0fffdea2
0000226c
000014b6
000003ba
0fffe919
0fffffa1
0fffe8df
000027ce
00000208
0ffff839
0ffffc25
000001b2
000013b9
0fffe594
00000bd3
0ffffcd6
0fffdc7e
0fffe3af
0fffe2a3
0ffff3fa
0ffffe4c
0fffecc2
0fffdf17
0ffff319
0ffff282
00001fb8
0fffffa6
00000da3
000008be
0000018c
0000275f
0fffe433
0fffddfd
0fffdb81
0ffff13a
00002983
00003295
0ffffbec
0fffdc5f
000010fc
000016f4
0ffff341
0fffcf4c
0fffde79
0ffff2dc
0000242f
00000850
00000535
0fffd1ed
00001e44
00000ddc
00001538
00001791
00001bbe
00002041
0ffffcbb
0fffe8c0
0000168f
0ffffea9
00001be2
0fffdebc
000009d5
0ffff5b0
00001662
000023f3
0ffff820
0fffcbcb
00001c98
000019b4
0fffe865
0fffd8eb
0000014d
00001c87
00001263
0fffd3df
0ffff631
00001b7e
0000213b
0000062e
0fffebd0
00002b96
0fffedd3
0ffff621
0ffff62e
00002ad6
00000e7f
0ffff145
00001d5c
0fffefa4
0fffd34b
0000233d
00002e23
00000979
00002755
0fffd62e
0ffffa54
0fffca21
0fffbf84
0ffff8b4
0ffff387
0ffffd6c
0ffff659
00002192
00000cc9
0fffff8c
00000ea5
00000d82
000010c1
00000397
0fffe68d
000016f4
0fffd8b1
00001eec
000026c1
00001016
000004df
00001d1a
0ffff44e
00002132
0fffdc01
00001fa3
00000b16
00001d17
00000ebc
00001e41
0fffdbd6
0ffff690
00001fb3
0ffff8e8
00000310
00000938
00001568
0ffff16c
0fffdee9
000003ef
0000091a
0fffe81d
00000d3c
0000208b
0fffdce3
0000054c
00000774
0fffda15
0fffedb0
0ffff1e5
000028bd
0fffd80f
00001b04
0fffe95d
0fffe9dd
00002120
0fffe52a
0fffebe0
000014fb
00001275
0fffdf4f
000022f9
0fffebca
000013e4
00001083
0fffd20c
00003124
00001c32
00000a9e
0ffffeea
0ffffca1
000020b1
000023d6
00000575
0ffff864
00000738
0ffffb83
0fffdaaf
0ffffbe1
00000bfc
00000f2a
0fffe562
0ffffcd5
0fffe35e
00000d84
0fffd9a3
0fffe02f
00002e4e
0ffff09b
00002ed4
00000ea4
00000a76
0fffda39
00001221
000019c0
000019d4
0fffe65a
00001e8f
0fffd90a
0fffe9d5
00002ae5
0000196d
0ffffaad
000013c0
0fffe8c7
0fffecb2
000028bb
00003004
0fffe9a2
0ffffb4d
0fffea91
0ffffd8b
0000163e
000016a6
000017ca
0fffe250
00002cf1
00002d1c
0fffe725
0ffffe87
000003ae
0ffff403
0ffffa66
000033c0
0fffe029
0fffdec6
00002e0c
00002aee
00001f5e
0fffd5b2
0fffd59a
0fffed50
000011d7
0fffeefc
000013f9
0fffecd0
00002f73
0ffff0f4
00002828
0ffff5fa
0fffd871
00001cd9
0fffd57c
00000c29
0fffe837
0ffff52b
00001fdb
0ffff2ee
0000112f
000011de
0fffe7e0
00001845
00001ded
000029d4
0ffff3a8
00002771
00000637
0ffff5c0
0ffff14e
0ffff4a7
000006d2
0ffffee2
000028d9
00002171
0fffe6ea
0fffe2cc
0fffeca9
0fffe463
00001a02
00001bf3
0fffda27
0ffff8d0
0ffff0d5
0ffff70b
0fffe97c
0fffda1f
00001801
0ffff3a1
00000e01
00001669
00002569
00002a28
000028fe
000015f3
0ffff952
0fffeb78
00001b9c
0000035c
00000fa7
00001460
000014b7
0fffe972
00000905
0fffd5cb
00000a61
000001ec
00001f2e
0fffdf9a
0ffff333
0fffe544
0fffdeec
0fffd607
00000781
0fffea3b
0fffe5e7
00002363
0000032e
0fffe2b6
000025de
000022ab
000014c2
0fffdc3d
0ffff802
000009ca
0fffdf44
0ffffc06
0fffe186
00001645
00000772
0fffd932
00001f34
00000021
0000283f
0ffffee8
0ffffde9
000008a8
0fffe6ac
0000270f
000001fd
00001b0d
0ffff6e1
00001b90
0fffff3a
0fffd6cf
0ffff392
000023be
0fffdbee
000001e2
0000163d
0fffedb9
00000907
0fffe4b3
0fffd53a
0ffffb25
0fffd966
0ffffea6
000007de
0fffe7e8
00000ab6
0fffd7e0
0fffec6f
00001b98
0ffff076
00001283
00000e40
0fffef01
000010aa
0000189a
0fffefd0
0000196f
0ffffbab
00001be4
000013bd
0ffffc5f
00001949
00000bd2
0fffed49
0ffff4f1
00000a55
0ffff00f
00002a02
0fffd9ba
0ffffc0e
000005a1
000008bb
0ffffee1
00000c9e
00001643
0fffd962
000003cd
00000082
0fffda91
0fffeff0
0fffdcd1
00002342
0fffda46
00001e02
000002ab
0fffff0d
000006a3
0fffef59
0fffd5dd
0fffde82
00002371
000004f0
00000a4f
000008f6
00002128
000018dc
00000b62
0000274e
000010d6
00001a5c
0fffe1db
0fffe520
0fffeecf
00001377
00001833
0fffdca6
0ffff549
0fffefb0
0ffff977
0fffdad7
000013cd
0000063e
0fffec39
0000135d
0ffff3b1
000019fe
0000166c
00001f5d
0ffff57e
0fffefd4
0ffffec9
0fffdc7e
0fffe14c
00000907
00000a52
0000080b
0ffffdb6
000019a6
0ffffbb6
0ffff709
0ffffc78
0ffffd35
0ffff7b7
00000b1d
0ffffb77
0fffd2d6
000021b3
000023ef
0fffd213
0ffffb19
00000335
00001b85
0000151e
00001a67
000005ed
0fffe1e3
0fffe8b6
0fffdb89
0fffd5f5
0fffe54a
000018d9
00002280
0fffee11
0ffff069
0ffff32f
0fffda8a
0fffe917
0ffff7e7
0fffe2b7
00001fee
0fffdcb9
0fffe765
000017eb
00000123
0fffdced
0ffff4cb
0ffff55e
000018ba
00000402
0fffdf59
0ffff72a
0ffff47b
0fffe689
00000de7
000018e0
00001daf
000018d0
000022a8
000002e9
0fffdbcb
0ffff92d
0fffda2d
0fffeca5
0fffd840
000027d9
0ffffa65
0fffd26a
000006fd
0fffdf1e
0fffe111
00000066
0fffc4ee
0fffd6c3
0000021c
0fffe9c2
0fffdced
0ffffe54
00001ddf
0fffe358
00001eba
0fffe3a5
0fffe2fc
000003a9
0000141f
0fffe794
00002828
0000126e
0ffffb47
0000119b
00000ed6
0000287b
0000136d
000028b8
00000e9e
0fffe4b2
0fffe5a4
0fffd4f7
000004df
0fffe16d
0ffff065
0fffee2b
0fffb959
0fffb9fb
0fffde4c
0fffdb4f
0ffff058
0000166b
0ffffe76
0fffeb3e
000022c3
00001ccc
00000c34
0ffffc8b
00001899
0fffdeb2
0fffdaa6
00002721
0ffff8fa
000001c8
0fffff95
0ffff0fc
0fffec87
00000649
0fffe90b
000006b3
0ffffb0d
000020d0
0fffe2ad
0fffea79
0fffd020
0fffd987
0fffe18a
0fffe364
0ffff0b6
0fffb315
00000341
00000313
00001a69
0000249a
00000dd6
0000251e
0000161d
0fffefd7
00000604
0000140f
0fffdb19
00001f36
00000c5d
00000d89
0fffe96d
0fffda62
0fffd34c
00000b68
0fffd67e
00000278
00002749
00000517
0000177d
0fffe080
0ffff098
00000360
0fffe846
000008e7
000004ff
00003611
0000148b
00001863
00002ced
0000069f
0fffe91e
0fffe32a
0fffee73
0fffdef4
0fffe0f3
00001edc
00000924
0fffd322
000017e5
0ffffcb5
000011e4
00003696
00002340
0fffe5eb
0fffe66b
0ffff88a
0fffd7c3
0fffead9
0fffcb35
0fffffdc
0fffd38e
0fffc974
0ffff3ec
00000187
0000073f
00001473
00003324
0ffff61c
0000079c
0000256a
0fffddf0
000004c6
00001833
00002c69
0fffe21d
0ffff9c6
000011a7
0fffe630
00000912
00000368
0fffefcd
00000b32
00000d1f
0ffff108
00001f34
0fffe8d7
0fffb5c8
0fffdc01
0ffff352
0fffe52f
00000dd2
00003121
00001c27
000013aa
00004214
0ffffa9f
0fffefba
0ffff588
0fffe0c3
0ffff9b2
0fffd9c9
00001fd5
0fffe4d8
00000f16
0000035a
000019eb
0000162a
0000286e
0ffff081
00000b4a
00001254
0fffdd03
0ffff6f2
0000043d
0fffff88
00001237
00001230
000005a6
0ffff5d1
00002e60
00002ab9
00001c3f
000025ff
0fffe5b3
00000f9f
0fffddc1
0fffe6c1
0fffe763
0fffed3a
000027be
00000695
000000cf
00002720
00004197
00001e3e
00003730
0ffff4db
00000e31
0000278a
0ffffb84
0fffc3f9
000014c9
00002edb
00000e17
0fffe42c
00002b7d
00002a42
0ffff623
000037a3
0fffea4e
00001c14
0fffd797
0fffd540
000023e4
00000889
0fffe5d8
0ffffa91
00000e5f
000026ef
0000321b
00003d46
00001202
00004a88
0000384a
000023eb
00001661
000059ff
0fffdc1c
0ffff29e
00000a29
0ffffc80
0fffecd7
0000288e
0000220a
00001eae
00001197
00001fe3
0ffffd61
0ffff458
0fffdb7e
0fffd8c3
0fffe0ec
0fffdb88
00000a17
0ffff82a
0fffe866
0ffff3c0
000024a8
000043c8
00003815
00006616
0000231e
000014fe
000017bc
0ffff09f
0fffe7c7
00000c03
000034e5
000014b8
00002827
000013ab
00004473
00003608
0000108f
000007d7
0fffdd37
00001761
000008d4
0fffe09f
0000258d
0fffe79e
00000835
000015e1
000000d0
00001d1a
00004601
000022bf
0000444d
000034c9
0000389b
000042fd
00001e7f
0ffffb21
00000913
000037b9
0ffff9f9
000013f7
00002f0b
000051e4
00001c90
00004fff
00000f3a
000017a9
0fffeb10
0fffec67
00001959
000015ba
0fffe379
0ffffb00
00000c38
000008d7
0ffff45c
00003505
000044e1
00000c21
0000424e
00001cf4
0000393b
000035f2
000040c1
0ffff0fc
0fffe2e0
00004572
000028f5
000026be
000054b9
00002a46
000035a2
0000198e
0ffff225
00001bc1
0fffc9ed
000005ef
0fffd8c2
000024ee
0fffd55e
0fffeb81
0ffff39f
00000561
0000277f
000007ac
00001734
00000c41
00003293
00001235
00001d16
0ffffed2
00001f21
0000164a
00000d7b
00002811
000007b8
00003746
000031bc
00003798
00000910
000015a9
0ffff010
0fffe5e1
0ffffbca
0fffe1e3
0fffdd23
0fffe014
0fffe56e
000008c3
00001307
0ffff433
00001015
0fffd9c5
00001538
0fffdfe3
00001176
00002e66
0000287e
0fffe2c4
00001cc9
0000195d
000024a1
000002d6
00000adc
0ffff396
00003c4f
00000d3c
0fffee5a
0fffd16c
0fffe9a7
0fffd34c
0fffd54a
0fffbe0f
0ffffcf1
0fffcff5
000000ec
0000007e
000015fb
0000235f
0fffe536
00002372
0ffff1d0
0fffbf2c
0fffe29c
0fffffd0
0ffff072
00000c5a
0fffe5df
00000610
00001e4c
0fffd887
0fffb93c
00001989
0fffd85b
0fffd322
0fffbf85
0fffc67a
0fffd7e9
0ffffedd
0fffce7c
00000386
00001ea4
0fffea48
00001557
0fffdea6
0fffe87d
00000e15
0ffffc32
0fffc5ac
00000058
0fffede5
0fffd9b1
0fffcda1
0fffd345
0fff8a4d
0fffaeab
0fffe1e9
0fffeb71
0fffc7be
0fffa9c4
0fffce49
0fffbb6f
0fffe30a
0fffb1de
0fffc962
0fffd969
0fffb761
0fffea39
0ffff0d5
00001083
0fffee0e
00000af0
0fffeaba
0ffffd5e
0000155c
0000066b
0ffffd99
0ffffb63
0ffff56f
0fffb0c7
0fffe940
0fffaa5f
0fff7ef9
0fffcdae
0fffb9a5
0fffd395
0fffe3eb
0fffbcca
0fffae96
0fffedc3
0fffb3aa
000002b2
0fffe9b7
0fffb74e
0fffdcd8
0fffd713
0fffd5f3
00001b7e
00002355
0ffffec6
00000839
0fffea4f
0fffed65
0ffff286
00000401
0fffdd38
0fffda55
0fffa958
0fffc703
0fffadb7
0fffe710
0ffffa57
0fffc474
0fffd419
0fffd264
0fff9e9e
0000033e
0fffdf46
0ffff1d8
0fffd05f
0fffd2a4
0fffca66
0fffcb7a
0ffff5fc
0fffebf7
0fffe6e3
00002a1a
0000138f
00001e19
0fffe9cf
00000631
0ffff119
0ffffc18
000008dd
0ffff18c
0fffe997
000002db
0fffe104
00000208
000019e7
000018f8
00000e89
0fffebb9
000001f5
0fffe551
0fffef38
00001a29
0ffffd8f
0fffdb1d
000003f0
000002bb
0fffe7b9
0fffed79
0fffed0c
0000182c
0000253e
0fffff8d
0000069c
0ffff376
0ffffdcb
0ffff399
0fffecc1
0ffff414
0fffc0ca
0fffe10a
0ffff0d5
0ffffcae
00004c46
00002b3e
0fffe21b
0fffd7d4
0fffeea5
0fffc462
0fffcad2
0fffeda7
00000814
0000055f
00001e90
0fffe542
00000c20
0000261d
0fffe931
00001d81
00000ed3
0000163a
00000a94
0ffff4ef
0ffff498
00001315
0fffc18b
0ffff5de
00000cbe
0fffeb81
00003398
00001528
000038b9
0ffff67e
00000f55
0fffcab8
00000325
0fffffd2
0ffff908
00003e32
00002888
0000010a
00001562
0ffff75f
0ffff7cb
0ffffdcc
0fffeb06
00001c0b
00001b00
00001f46
0fffe3c1
0fffe009
00001851
0fffdc4a
0fffde73
0000154c
0fffffdb
0ffff031
000030a1
00001301
0ffff1c0
00001075
00000b04
0fffdd62
00000039
00002e01
0fffe60a
0ffffdd0
0000388a
0ffff42a
000027a3
0fffe436
00002758
0ffff365
0000078f
00000818
0fffd581
0ffff943
00002559
0ffff2a1
000002c8
000027bf
0000190d
0ffff6e7
0000151a
0ffffdea
0fffe9a6
0fffdd8b
0fffd34d
0ffff203
0fffea21
0000144b
0fffca28
0fffd956
00001b76
0fffff9f
0fffe988
0ffff893
000010af
0000107f
0ffff258
00001a39
0ffffa83
0ffff86c
00000a91
0fffe751
000010ad
00001498
0000220f
0fffede4
0ffff576
0fffe31b
000009a7
000024c4
0fffe4ff
0000252c
000001a4
0ffffe24
000033e5
000007a6
00002bd8
00000e92
00001ebe
0000053e
0ffffc15
0fffef47
0ffff0e5
0fffed08
00001939
0ffff325
00000067
00001768
0ffff227
0fffd7a0
0000055f
000006aa
00000f9d
0000120d
0fffe3d0
0000169b
00001fce
000026fd
0ffffe4c
00000c96
000022d6
00000a04
00001b0c
0fffe1da
0fffd94e
000020ad
0fffef5e
0000027f
0fffda52
0ffff571
0fffe0b8
0ffff779
0fffdafb
0fffeb68
00001fd9
0000006e
00000114
0fffec8c
0ffffc6f
000011cf
0fffebcf
00001852
00000bab
0000131f
000004c0
000007b2
0fffe587
00000990
0fffdd92
0fffdbe8
000012e6
0000130f
00001376
00002773
0fffe14b
0000040d
00001c5b
0fffe1c6
000007a1
00000b15
000018ac
00002817
00002962
00001caf
000007e2
0ffffb4e
00000752
000028a0
000006ca
0fffdaa6
0000186f
000027ad
0000196d
0ffffbd1
00000311
0ffff3a4
0fffd7cc
0ffff59c
0ffff761
0ffffc63
0fffe2ec
00002a5c
0ffffb82
0fffec9b
0ffff287
000024eb
000026d3
0fffefa0
0ffff99b
0ffff3c0
0fffedde
000023e5
0fffe0e5
0fffeaba
00000b36
0fffe842
000015d9
000000a7
0ffffc0b
0fffe352
0ffff4e3
0fffe332
0000280d
00001215
0fffdb31
0fffe8d4
0ffff26a
0ffff58c
00002348
0fffe429
00000c43
0fffe122
00000b2f
0000184a
00000d6e
0fffee05
00000178
0fffe970
0fffddbf
0fffe9fd
0ffffee2
0fffd6be
0000221d
000003f2
0ffffee3
0fffe417
0fffd8d8
0000184e
0fffe89c
0ffffe29
0ffffe89
0fffcc51
0fffcbb3
0fffe27e
00000f77
0000111b
0fffdf44
0ffff0c2
00000227
0fffe0b8
000012cc
0fffd81a
00001dd9
0fffd600
00000943
00002570
000009bf
0ffff8be
0000192f
00000bb7
00001c80
00001086
00000fe3
0ffff051
0000224f
00000536
0fffffb8
0fffe1b8
0fffcea7
0000226d
00001252
0fffdf03
0fffcdc3
00002689
0fffe108
00000de4
0ffff31e
0fffeb81
000002ab
0ffff60c
00001ba5
000002aa
000025aa
00000570
0fffdf59
0fffe036
00000963
0fffdea0
0fffe935
00002861
0fffe91c
0fffd61e
0fffe43e
000026a6
00000759
0000130a
00000cdc
00000572
00001355
000017d3
0fffcb2e
0fffe49a
000019d2
0ffff377
0fffb486
0fffedd1
0fffca25
0fffeb7b
00001aad
0000190c
0fffd88e
0fffeb9f
00000404
0ffff093
0ffffd80
0000138c
0fffeb54
0000214d
00001cde
00002137
0ffff0ac
00002a27
000008c9
0fffe656
000009fa
00000df5
000010a4
0ffffd86
00001ecc
0ffff03d
0fffe600
0ffffb1d
00000d63
00001499
00001c42
000011fc
00000476
0ffff1d3
00000039
0fffe95d
0000302b
0ffff579
0000048a
000017a7
0fffde4a
0ffff27c
0ffffdce
000005f6
00001d30
0000189b
00003d39
000004be
000014f6
00000439
00000dd9
0ffff27e
000000b5
0fffe620
0ffffea6
0ffff4c3
0ffffb09
00000d56
0fffe51c
0ffff01b
0fffea3f
0fffcf67
0fffe980
0fffe804
00001c4c
00000be5
0fffe37a
00000873
0ffff252
00001d81
0fffd998
0000008e
0fffec1e
0fffe884
00002aaf
00003106
000002e8
0fffddbb
0fffb035
0ffff27a
0ffffb4e
00000560
00002039
00003e86
00000acb
000028f7
0000101e
00000dba
00001103
0fffcf11
0fffe55a
00002435
0ffff372
0fffeada
0fffeff3
00000252
000014e0
000000bf
0fffdc57
00001e22
0ffff348
00003182
0ffff38f
0ffffdbd
0fffe923
0ffff043
0fffdc06
0fffd294
0fffeb05
00001476
0ffff67d
00001b7f
000028cc
0fffdc1a
0fffdd30
0fffd758
00000df7
00001f93
000035ca
0000165d
0ffffc8b
000000bb
0fffe6ab
000014a2
0fffdfad
00002251
000010ec
0ffffdc6
00000df4
0000090d
0ffff8a7
0000289f
00001cc6
0000041c
0fffd0ce
0fffd8fc
000003db
000000e5
0fffe2d2
0ffff1d1
0fffccd7
0ffff217
0fffe508
00000b7d
0ffff849
0000414d
00002932
0000323e
000010e3
000002ce
0000180b
0fffde8f
0ffff133
0ffffc3b
00000952
0ffffae1
00001db7
00003c3f
00000334
0000324b
000026b1
000027ae
0ffff16a
0fffb70e
0fffd540
0fffd91a
0fffe1d3
0fffa99e
0fffc744
0fffd0bc
0ffff78e
0000245a
00003379
00004516
00004ddd
00002c41
000003f2
0000284d
0fffee6d
0ffff2d6
00000ea6
0fffe05b
00000af7
0ffff06e
000050e1
00005d8e
000025ac
0fffed85
00001250
00001f34
000012a8
0fffd005
0fffea93
0fffc3e6
0ffff606
0ffffb5f
0fffb4ae
0fffefe3
000010a5
00002d99
00000c32
00002aad
00002480
00000a80
00001215
00001fd4
0fffdcf6
0ffff6cf
0ffff6e0
0000210b
0ffff589
00000e0f
00002de2
0ffff6dd
0000146e
00003518
00002235
00003b7d
0000101a
0ffff737
0fffe405
0fffdef2
0fffd53d
0fffddb1
00000b84
0000155c
00000a3e
000025c0
0fffe492
000002ab
000010aa
0fffdc57
00001c83
00000259
0fffdfa7
0ffffb49
00000101
00002648
0fffe85e
00001c34
0000190a
0000299d
000007a1
000049bd
0000485c
000066e9
0000488d
00000c78
0fffd9b3
0fffea62
000024f9
00000bc8
0000137d
0ffffc0e
00001b8a
0fffdafa
00001613
0000028a
0fffec6f
0fffe7d4
00000f0b
00000df0
0fffeb9b
0ffffff3
000020fb
0fffeac4
00001026
0fffd3e5
00000b2d
00001b69
00000f30
00000830
00000be0
00005e0d
00007393
00000aa5
00001e78
00003ddd
0000432c
00002071
0fffef49
0fffd4ef
0ffff90e
0000025f
0fffec19
0fffd675
0fffced8
0fffda6e
0fffe1de
00000de4
0fffed15
0ffff0dc
0fffee51
00001068
00000a32
000016c7
0fffcd10
0fffe3dd
0fffe549
00000a74
00001028
000048b4
000072de
00006f7f
00004e9f
000040ea
0fffddf6
00000fdc
0ffff63b
0fffdaca
0fffe0d4
0fffe974
0fffde60
0fffe679
00000323
0fffdfc2
0fffd746
0ffff11a
00001fe9
0000015c
0fffd594
0ffff9e3
0fffd609
0ffff5ae
0fffd322
0fffd113
0fffdc0f
00000ae9
0000065b
00001138
00001f2b
00005964
0000336d
00000db8
0fffdb03
0fffcc6d
0fffc66a
000001f7
0fffd8c2
0fffe15d
0ffff232
0ffff11f
0000204e
00001539
0fffc673
0ffffce6
0fffe600
0fffd63f
0fffdfac
00001a4d
0000156f
0ffff6c4
0fffee0f
00001995
00000401
0fffc604
0fffe572
0ffffbc3
00002407
000019d4
00001a67
000029dc
0ffffd4e
0fffddc4
0fffae75
0ffff172
0fffe608
00000197
00001442
00002bec
0000184d
000020f3
0ffffdd5
0fffe992
0fffea9a
0fffffb4
0fffebe4
0fffd5d8
000001db
0fffc359
0fffcd8c
0fffd4e1
0fffcf9b
00000dcf
0fffeb13
0ffff79a
0fffddf6
00000a63
0fffeb69
0ffff3ad
00000b84
0ffff2cf
0fffb6b6
000017f2
00002a72
0fffd952
0000274b
000036f1
00003c2b
0fffec11
0fffed12
00001e0c
0fffffe2
00000f92
0ffff1e7
0fffd998
000001b9
0fffe9b5
0fffee5c
00000a45
0fffe610
0ffff2c2
0fffea45
0fffeccd
0ffff1e3
0fffcd9c
0ffff3ca
0fffed64
000042e8
0000124c
0fffe8bd
0ffffa96
00001112
00000aef
00004222
00002b7b
0000260c
00000fe8
0ffff429
000023e9
0fffe1d5
0ffffa6b
00002379
0ffffb25
0fffddaf
00001666
000006ee
00000bf4
0000393a
0fffe39f
0ffff937
0fffe831
0ffff4c8
0000017b
00001379
000004d7
0fffedbb
0fffd223
0fffd733
0fffea49
000039b6
0000470a
0000456c
000031c0
00002654
00000425
0fffe29d
0fffd59b
000024da
0fffdfcb
0fffd9ef
0ffff7cb
0fffe24f
00000ceb
0fffdbfa
0000202a
0fffd9bf
0000076a
00000062
0ffffecc
0ffffac4
0ffff194
0fffdc35
0fffbe07
0fffe2e6
000003d0
00000a71
00004924
00003c99
000036aa
000003ce
00002789
00001ba9
00001017
00002012
0ffff710
0fffdc6b
0fffdd23
0ffffe8c
0fffe8d3
000029a5
00000248
00001ad2
0fffd144
0fffe7f6
0ffffc62
0ffff7c2
0fffe6f2
0fffc8e1
0fffdfa9
0fffcea6
0fffe6f8
000019a6
00000480
000053e1
00002636
000033bd
000020f9
00000531
0ffff4c2
00003615
000026f7
00000fe9
000001db
000002ee
00000faa
00001942
00002aea
0fffeecd
00002fac
0fffdf4b
0ffffd8c
00002443
0ffffa82
000013df
000029a6
0ffff633
00001c76
00003cb1
000011cd
00002d3d
0000051c
00000b54
0000287f
0000205b
000015b1
0ffff8ec
00002e1e
0ffff1f5
0fffeb5c
0ffffe65
0fffe6fe
0fffed22
000005f1
0fffe657
0000232a
000007af
0fffe19a
0fffd572
0fffddd0
0ffff4ca
00002a4e
000001a3
00001b27
000041e8
00003c0c
00001bc3
00000cd7
00004226
000045a7
00003437
000013e4
00003492
00001beb
00001acb
000023f4
00002cd8
0000014d
0fffef5a
00000391
000018ca
0fffe32f
0fffe8a0
00001dc7
000000cf
0000268b
00000b62
00000ffe
00001693
0fffe346
0fffe41d
00000df3
00002776
00002827
00003427
000000f3
000002f2
0ffff68f
000015d1
00001207
00001e88
0ffff74a
0fffeba7
000001e4
0ffffc15
00001548
0000137a
0000030f
0fffeb98
00001fe9
0ffff592
0000289e
00001ce2
000007d5
00001685
00001246
00000c22
0fffe3d1
0000226c
000015b2
0fffde1d
0000162e
00000205
000023c0
00002397
00000e76
00000149
0000287a
0fffdfd1
0fffe744
00000fbc
0fffe57c
0ffffef2
00000503
00002663
0000228e
0fffd915
0fffe4f7
0fffed39
0fffe81d
00002097
0fffe2b0
00000906
00000db9
0fffe066
000029b6
00001cac
000018ce
0fffe30c
0ffff217
000001d7
0fffde66
0fffd926
000002b5
00000d18
0fffd952
0fffeac6
0fffe7f5
0fffd825
000024cc
0ffff5b3
00002126
00000a29
0000116f
0000102c
00001c4e
0fffd666
0ffff6a8
00000073
0fffdb0b
0ffff334
0ffff44b
0ffff82c
00000d12
00001000
00001f0c
0fffd6d2
0fffda2c
0000025b
000014b2
0000244c
0ffffdfa
00000f29
00001b02
0000191f
0ffffa94
0000297d
000008d6
0fffe724
00000daa
0ffff00f
000023d8
00001271
0fffde8d
000007b6
00000925
0fffde15
0fffe8ec
00001df5
000028dc
00000884
000001af
0000249a
0fffd5ac
0fffe7e2
00000959
000019c8
000012be
0ffff6e9
00001f07
0fffe8b6
00002eb9
0ffff52f
0fffec9f
00000633
00001b22
0fffe5bc
0fffd6d0
000012ff
00000a67
00000a46
0ffff160
0000009c
0fffe6de
0fffe5e2
0ffffacd
0fffde61
0fffddfa
0fffd58c
0fffd5ac
00000517
00000d9f
00001479
0fffff19
000014a6
0fffe153
000018a7
00001fe4
000004d5
00001581
0000157a
0fffe7e9
0fffe4ea
00000121
0ffff1b7
0fffdabf
0fffe2ed
0fffed1b
00002447
0fffddd5
00001485
0ffff940
00001ab7
0fffee7d
0fffedf0
0fffddd3
00002577
0000005d
0ffff8e8
0ffffcba
00001b71
0000033f
0fffe74c
0ffffe45
0ffff54c
00001fd9
0000218f
000011f5
00002024
0fffdc99
0fffd0e4
0fffbe9d
00001417
000013af
00000fdf
000029b8
0fffec40
0fffe97b
0fffd8cc
00000d54
00002a84
0fffebdb
00000685
0ffff799
0fffe86f
00002328
0fffe907
0000059d
0fffe41c
0ffff8ab
00000280
0ffff024
0fffda73
0ffffecd
0fffc7c7
0fffc955
0fffda8f
0fffce5f
00000c0d
0fffc166
0ffffff4
0fffd0c8
0fffe946
0000193f
0fffed81
0fffde0b
0fffea36
0000137b
0fffdc2f
0000052c
00001cf3
00000a1f
0fffdc8b
0fffdbfe
0fffe3e0
0fffe21f
00001196
0fffbea9
0fffd77e
0ffff68e
0fffa93b
0fffacef
0fffc9bc
0fffd514
0fffd250
0fffa1d0
0fffb30c
0fffe0fb
0fffde67
0fffd142
00001dda
0fffe36d
0fffddde
0000268d
00002a95
0fffd940
0000147e
0000018c
0fffdbc6
0fffe369
0000260d
0fffe9d8
0fffc2bc
0ffff79e
0fffdcf0
0fffc580
0fffc651
0fffb580
0fff9619
0fffaa76
0fffc27b
0fff9ce5
0ffface8
0fffee00
0fffec6c
0000056a
0ffff430
00000c9a
00001eb2
0000046b
000005c9
0fffe1be
00001ba1
0fffde82
00001b73
0ffff453
0ffff8e9
00001606
0fffcc1c
0fffdc61
0fffbc5d
0ffff459
0fffcd3c
0fffc8cf
0fffcc06
0fffeca4
0ffffc18
0ffff316
0fffed20
00000b30
00003262
00000ddc
0ffff9e1
0000252b
000045ef
00001cc1
00001773
0fffe630
000003e3
0ffffe14
0fffdf79
000010dd
0ffff4b4
000001b5
000011e8
0fffd7d1
0fffeffb
0ffff755
0fffd70c
0ffff5c7
0ffff217
00001183
000049b8
00001940
00006031
000048d2
00007598
00003e83
00004197
0000238a
0ffff388
000041f2
00004618
00004ec7
0000181a
00001289
0fffe7c9
0ffff4c2
0000050e
0000057d
0fffe638
00001410
0000023f
0ffff202
0fffe6f6
0000089a
0fffe7fa
000042f6
00004720
00003038
000058ab
00006863
00005732
000096ae
00003008
0000276a
00000889
00002a97
00003375
0ffffecb
00004c3f
000021d9
000029a5
000011fd
0fffde11
00001302
000013f0
00002025
0ffff6e0
00001542
0fffe055
000009eb
000012d9
0fffcafc
00002b65
000041ca
00004b45
00003b5d
000036d4
00002ddc
00005b06
0000396e
00004149
000034f0
000041fd
00002264
000009f5
000000cc
00000f78
000035ab
00000334
0ffffa6d
0ffff4f0
0fffdb1b
0fffead7
00001097
0ffff31c
0ffff0b7
0fffee8f
0ffffe5e
000041aa
00000602
0ffffd00
00002cff
00001783
0ffff3d6
00000cda
000003da
00003b9b
0fffdecb
00001420
00000eab
0000365f
00000967
00000ce2
0ffff04e
00000a0a
00000add
00002b2c
0fffe7f3
0fffda12
0fffda45
00001740
0000160d
0fffe6b6
0fffd91e
0000073e
00000f6e
00002497
0fffff67
0ffff55f
0fffe18c
0ffff2e5
0fffebcf
0fffdc3e
0fffd22d
0ffff7e9
0ffffb96
0fffc07f
00001677
00001cec
0fffdfc8
0fffe5ea
0fffdd2a
0fffd410
0fffe821
000016b8
0000272a
0fffea6c
0fffd859
00000dca
000006e1
0ffff69f
000003ae
00002f42
00001241
0fffdd07
000013d3
0ffff7cc
000008bc
0fffc8ca
0fffdf1b
0fffd83c
0fffc378
0fffe9c5
0fffcb43
00000ce3
0fffeb17
00002feb
0fffeb38
0fffe1de
0000094e
0ffff6c7
0ffff49b
0fffed46
0ffffd12
0ffff1e6
0ffffe3c
0ffffdf1
00002625
0ffff21b
000019b6
00002a31
00003993
000000cf
0fffd3ec
0fffe80a
0fffe34b
0fffe829
0fffff0c
00000c40
0fffb843
0fffde01
0fffd13d
0fffd864
00000062
0ffff8b3
00001594
0000149c
0000136a
00000011
0fffe2c6
0ffff41d
00002346
0fffdaad
000013fd
0ffff632
00000ea2
0fffd4da
00002a65
000045d0
00000259
0fffe489
0fffdfa4
000013d8
0ffff73f
0ffff4f1
0fffd96f
0ffff40b
0fffa295
0fffd115
0fffcbf0
00001a95
0fffe184
00002a1a
0fffe44c
0fffea53
0fffd435
0fffd854
000003cc
0fffffd1
0000016f
00001b09
0ffff6c4
00002ac4
0fffd5e1
0ffffdd4
0ffffe32
0000426e
00002201
0000129e
000001e2
0000045b
00002d41
0ffff809
0fffdd5b
0fffdc2e
0ffff4cb
0fffde9b
0ffff7cc
00002be0
0ffffca6
0fffee92
0000057e
0fffe93c
0fffe264
000011de
0ffffd40
0ffffaf0
00001796
0fffef2a
0000121b
00001ca2
0000122b
000019f1
0ffff5fb
00000add
000019a8
0000429b
00003b50
00001a31
00002e77
00000749
0fffe718
0ffff7ff
0ffffdab
0ffff637
000000a5
0fffe991
0fffea6d
00000543
0fffe1a8
0fffdd30
0ffff22a
000003d8
00000fc0
0fffdb00
0fffddb5
0fffdcbf
00001c0a
0ffff3d9
0fffdaa8
00001bed
000003fd
000020df
00001944
00001963
00001c62
000009e7
0000069a
0000294e
00002a1d
0ffffdcc
0ffff195
0000229c
0000007c
0fffee38
0fffeecd
0ffffc8c
0ffffa81
0fffe694
0fffc816
000005b7
0fffdf23
00001eab
00000179
000022de
00000282
000001d5
0000015a
00000a28
0fffe3f5
00001ffe
00002ed0
00002561
00004030
00002f30
000030f2
00003548
0fffe8e1
00002656
00001d9d
0ffffa54
0ffffc10
0ffffae9
0fffee7f
00001c85
0fffc7c7
0fffcbe7
000015b8
0ffff211
0fffff9a
0fffd3a6
0fffdc94
000005d8
0fffe9b8
000025d0
0fffecb8
0fffe3a7
00000cd5
0ffff11d
0ffff22a
0fffc207
0fffc904
0fffef33
0fffcd35
000021da
0000253d
00000a66
0fffdb5b
00001ef8
0fffebb7
000001c7
0ffff993
00000b15
0fffc4c9
0fffcb37
000014a0
00000f0b
00001387
0fffdcb2
0fffe93a
0000046e
00000fc7
0fffd795
000001f5
0fffedec
0fffeda9
0fffcc95
0fffce9b
0fffdb04
0fffda5b
0fffc8d6
000005c8
0fffc932
0ffff23b
00001b6f
00002eca
00000f2a
00001e43
00004066
0ffff576
0fffe0a4
0fffeb62
00000803
00000eaa
00001eb3
00001b7c
00001f85
0ffff4c8
0fffef57
0fffeb03
00000f8a
0ffff4ba
00001871
0fffe9e1
00000551
0ffffb49
0ffffbe2
0000071c
0fffeed8
0fffca09
0ffff6a8
00002542
0fffde9c
00000dbe
0fffff09
00001a29
000038bf
0fffff8e
0fffe268
000015b3
00001ae7
0fffd639
0fffe4c3
00000643
00000453
000020e8
0fffe66f
0fffef23
0fffe767
0000024e
0fffdab0
0ffff4a5
0ffff6e7
0fffe344
0fffe4e6
0fffcf6b
0000035b
000007d8
0ffffa1f
0fffdb8e
000012a6
000016f5
0fffce14
00001ddc
0ffff77a
00002c51
0fffee99
000023f1
0fffd105
0000068a
0ffff60c
00000ae0
0ffff69a
0fffff4a
0ffff966
0fffda69
00001528
0fffe7a2
00001083
0fffe66a
0fffe4e2
00002588
0ffff197
0ffff57f
00000529
0000050a
0fffdd2a
000017fa
00001e8a
0fffe685
0ffff71f
00000093
000018a7
00001299
00000ed9
0ffff049
000012c6
000004a2
0ffff486
0fffdc2a
0fffe720
0fffe033
0fffe97c
0fffec6d
00001594
0ffffc75
0000252a
0fffeed1
00001595
0ffff724
000015e1
0fffe85d
0fffe58d
0ffff31b
0ffff992
0fffe4cb
00003235
0fffeb3a
00002626
00002b5d
0ffff6f0
0000204d
0000182b
0fffd6fb
0fffdc50
0ffff0dc
000026e4
0fffdede
0ffff88d
0000134e
0fffe6a8
00001f30
0fffe4b8
0fffe11c
000012a8
0fffe21a
00001abb
00002239
0ffff100
00000149
00001553
0ffff8df
0fffeee7
00002138
0ffffd00
0fffe764
00000f5b
0ffff94e
0000207c
00000e0d
00001232
000008c2
0fffd998
00000c1d
0fffec89
0fffdfc8
00000d12
0ffff6f9
0ffffc03
0000234a
0fffe3d5
000021c4
000019e0
0ffffc7d
0fffe896
0ffff099
00001c52
0ffff208
0ffffd07
00000dc5
0fffee61
0fffdcae
0ffff63b
00000f7d
0ffff339
0fffdcf2
0fffda6a
00001c02
00000030
0fffe8b8
0000236f
0fffdd30
0fffd8a7
00002073
0fffedfb
0fffdbda
0fffec25
0000226c
0ffff031
0ffff94d
0fffda50
0fffe017
0fffea4c
0ffffca4
00001635
000010fa
0000261a
0fffffa9
000006a5
00001fd7
00001af2
0fffdb68
00000687
0fffe3f7
00001b7e
0ffffd3e
0ffffcf3
0fffe92f
00001c4b
00000844
0fffdf71
00001413
0000249a
0fffff36
0000119b
000007a4
00001182
00001f3d
0ffffbc8
0ffff6db
0fffd977
0fffe655
00000d73
000024db
00000abe
00001e9d
0ffff237
0fffdfbb
00001965
0fffe844
00001203
0000090f
0000180e
0fffd3a9
000009ec
0fffd8d2
0fffef60
0fffd9ef
0fffd9ff
0ffffac4
0fffef37
0fffef56
0ffffd3c
0fffe6f3
000001be
000017f0
0ffff902
00001c23
0ffff802
0fffefb1
00001662
0fffe469
000022b0
0000146b
0ffffd89
000002bd
0ffffeeb
00002198
00001836
0fffe882
000017bc
0ffffb7d
000018e4
0ffff58c
00000d4d
0fffd442
00001d27
0ffff83b
0ffffc03
0ffff31a
00002274
0ffff304
0fffddb5
0ffff5a4
0fffdbed
00001c24
0000219e
000013f1
00002a92
00001dc4
00000422
0ffffe78
00003113
00002709
000038d5
000025ca
00002b9a
00005828
000000c7
00002bbb
00003606
00000381
0fffde06
0fffd914
