000032a2
ffffed93
00001404
ffffe807
ffffa6fc
ffffdde4
fffff1ef
00005e04
000037f6
000081ea
0000779c
0000cfdc
fffff595
ffffc099
00009870
00007a9f
ffffd8cc
ffff97b3
ffffe5b7
00008167
0000d642
000076f6
000012e6
fffff6a9
0000cf40
00003d29
ffff9dbe
000085ce
00003848
ffffef7f
00005a64
ffffe7d7
0000a263
0000137a
0000a6c9
00006610
ffffe454
000039e1
000013d1
ffff8f6f
000087bc
ffffde8f
00005e98
ffff2ecf
00004783
ffff4f26
00010c05
ffffb406
00006533
0000979d
ffffc1d6
ffffcb9f
00009235
00012466
00002249
fffffa19
00005651
ffff885d
fffff991
00009e57
00004166
ffffe505
ffff50e7
0000b1c8
00002392
0000c429
ffff8a0f
000025fe
00005b49
000068d8
ffffbc0e
ffff828c
ffffcdde
ffff6998
00004039
000036ad
0000a70e
00004012
ffff73b8
ffffdaed
00000686
ffff9b46
00004983
0000a223
ffffbe70
ffffcf23
ffffe13e
0000813b
00007591
0000286a
0000082b
ffffdc83
ffff7812
ffffc536
ffffc663
000096b7
00000f41
0000251d
00002e6f
00000e21
0000018f
00005b28
fffffd12
00001e1b
ffffcd32
000052ce
00000f04
00004412
ffff7eea
ffff81f0
ffff9793
00001be2
00005648
ffffc7ed
ffff998b
000000c9
ffff6d59
ffff897f
ffffa796
00004fec
ffffb872
000035d5
00007175
ffffd2cc
ffff7262
ffff7f79
ffffd76c
ffffda03
ffffcb6b
ffff7fc7
ffffc309
00006c5a
000083c6
ffffee88
00007b8b
ffffaa2f
ffffb937
ffffcbb4
ffffbbcc
ffffcc70
ffffbe70
ffffecd1
ffff6c6b
ffffa07d
ffffccd8
000071e5
ffffb417
ffffd22c
ffff7980
ffffc2a7
ffffb913
fffff716
00004c08
000048d1
ffff82a0
000061a8
000011fb
000029a9
00000813
fffff288
000095d5
0000144a
00004244
000031ec
000058ac
ffffad2d
ffffae4f
ffffe36e
ffff88b1
00005058
ffffcb8f
0000349e
00002e7c
ffffdda0
000001d2
ffffce9f
ffffecba
00005072
0000a52c
ffffda17
00000b4d
ffff8c87
ffff9772
ffffcfa3
ffff87b1
fffffb92
ffffaaeb
ffffc72e
fffff2fe
00003d5a
00001aca
00008535
00006d28
fffff50e
000030e0
00005cfd
ffffa8f5
ffffec94
00004a24
ffff8dd5
00005fa0
00003fe5
ffffffd7
ffffa543
ffffe0ba
ffff8ff8
00009952
0000737b
000008b6
ffff6bf2
ffff462d
ffff946b
ffff648b
ffff957c
ffffe44c
00005087
ffffa3ac
0000c1f9
00008dc8
00002ca7
ffffad9b
00005eb7
ffffadb4
ffff9f3a
000007f1
ffffddb6
00003807
0000360b
000072e4
ffff9fed
ffffd514
00006cd8
ffffa8c7
000087c0
ffff994b
00008941
0000b9c3
00000c5b
ffff72f5
00002d31
000034ea
ffff8393
ffff692a
00008458
ffff6e7d
ffff3681
000045fb
00008f7f
ffff6cb5
0000286c
ffff87bf
ffff63f9
ffff1dbb
00004799
0000a693
00003068
00002cd4
ffff0aa6
ffff93e4
ffffcdcb
ffff6b41
ffffa3f5
000076fa
ffffe38f
000070ce
ffff660f
ffff9ba2
0000ba4b
ffff9b6e
000077b1
ffffc132
ffffbe16
00000142
ffffe091
ffffa834
ffff66c9
0000c58f
ffff84b4
00001eb5
ffffb4e2
00006d4f
fffffd07
00003230
00004623
0000745b
ffff9413
0000dd22
000050ee
00003cf1
0000bcd3
00009e9b
ffffd696
ffffa850
ffffda15
0000b454
0000337a
0000df3a
ffffaf74
000083f2
ffff9824
ffffe0ae
ffff29ca
00001b0e
00001d44
00008251
00008545
00008b54
000005d7
ffffff9c
00009396
ffffcfab
00003ee9
fffffc8b
ffffa434
0000b060
00005c8c
00005349
00001a7a
0000630d
00007262
00008cb9
ffffda99
ffff83a8
ffff85f7
00005ed5
00009b57
00003309
00008b48
00006c74
ffffff4f
ffffd06d
ffffea58
ffff687b
ffffbffd
ffff3dc1
000054d2
00003163
000043e9
000011c0
00007447
00002240
00004127
fffff1a1
00007fcd
ffff78c7
ffffe931
ffffbde2
00005536
ffffc4eb
ffffdbbe
ffffb36c
00007fdf
ffffcbd1
0000abb8
ffff809d
00001624
00002e9e
fffff866
000067ef
ffff9946
fffff08e
ffffb6b6
000008a8
0000b082
0000193b
00003ea1
fffff324
0000503c
ffffd3e8
00003a30
000067f0
00008f0c
ffffdd33
ffffa93e
000004db
fffff818
ffff40bf
00003d0e
00002e95
ffffefee
0000260e
00002342
00006559
ffff7d84
ffffbc39
ffff965a
ffffe1de
000022ec
fffff696
ffffd115
00000fc4
00001092
00003e3b
ffffaf32
ffffbca4
ffff8c1c
ffffa91f
ffffcca9
00006972
000035c3
ffffc84a
ffffac09
ffff77a9
00007bf4
ffffe387
ffff2d8a
00005afb
ffff6755
ffffcc41
ffffe255
ffffde4d
00007f81
0000716f
00001b4c
ffff587c
ffffd3d1
0000351a
ffff98e7
ffffa0a4
ffffb023
ffffbb6e
000001b4
0000920a
0000e8b4
00002606
ffffc05e
fffff131
0000a731
0000299e
00004ee9
ffffe246
ffff6bed
0000a5fe
000003b6
ffffc317
0000719e
000021c6
00002a85
ffffdd0a
0000cd60
0000171b
ffffa543
000010de
0000077b
ffffb318
ffffa14a
00005fb0
00004969
00003e77
ffff5830
ffffcfe4
0000493e
ffffa996
ffffb2d1
ffffe436
ffffab45
00000914
000009f9
ffffeb7a
000085ac
000081b4
ffff0982
ffffbc78
ffff8514
ffff6ab6
ffff4bd3
ffffb10c
000045cb
00005026
ffffbc57
ffffe483
ffff9d5f
00001689
00004143
ffff99ce
000095eb
000028d3
0000821d
ffff5760
ffff9e42
000039de
000006ee
00006860
ffff96fa
0000aef2
ffff785b
00008f01
00004aa8
00007972
ffff8d7f
000050a9
ffffb75f
000088c9
ffff7e39
00002531
ffff7f41
000076db
000044eb
ffffa332
ffffd313
00004167
0000a210
00004593
0000c91e
ffffc526
ffff27ca
ffffb504
00002a98
ffffb658
ffffbbcd
00003f03
ffffd586
00003631
00004125
000035df
00001673
00005a9a
ffffc9fc
ffffbcf1
00003ae9
00000a09
ffffda0c
ffffc9d3
00003e7e
fffffdf8
000071f1
ffff9fcc
ffffa308
ffffbbbd
ffffdd7f
000003de
ffffb819
ffffb0e0
00007661
ffffd396
00008047
0000c4a1
ffff976b
fffffc1f
000034dc
0000085b
00006f38
ffffb9b4
000016ad
fffffceb
000058e0
ffffd096
ffffc39a
ffff9152
ffffe4db
00001396
00000799
ffffb696
000033bf
00001d08
000003b4
ffffd322
00003afb
ffffa161
ffff8e4f
ffffa316
ffffa170
ffffa6e2
ffff9901
0000d139
000010a7
00001bea
000075bc
ffffd15a
00005e0f
ffffa6fa
ffffb71f
000059fa
00008dfe
fffffc08
000058c0
0000644a
ffff95ca
00008132
00005769
ffff879c
00008424
fffff9df
000021fb
00001157
ffffb0ce
ffff7b8f
fffffb04
ffffebd3
ffffc8c2
00006ccf
00003b74
ffffcd1b
ffffaf5c
00001c8f
00003aa9
00004bbf
000014fa
ffff6dee
fffff53a
00005a0d
0000a3dc
ffffb478
ffffdddf
00000d93
000050aa
ffffb5f1
00004c58
0000cf13
0000182d
ffffa7a7
ffff9503
ffff713c
ffff658b
ffffe212
00001b2c
ffff4cc7
ffffb6a6
00005f84
ffff8985
00002a2c
000007a2
ffffeef5
ffffed5b
ffffbc32
00007c9c
fffffb06
ffffc81f
000000f7
ffffd57e
000034ba
ffff84c4
000085a3
fffffa50
ffffea51
00000983
ffffc163
ffffdb6b
00003e34
ffffbdfa
ffffee21
ffffe087
00009345
ffff7c7c
0000e732
0000284d
00000217
00002ac3
00006c9b
00005cff
00005520
ffff63e4
00001d68
00001a41
ffffe8df
ffff64d1
000046f6
ffff87f8
0000ca09
ffffb82b
00008fca
00000a3d
00007746
00008d71
ffffa5e4
00004452
ffff62b9
00002a66
ffff960d
ffff9e0b
ffffb050
ffffda63
ffff913b
0000a1af
ffffe759
000098a8
00002c18
0000083e
00009d26
ffffa768
fffffc8b
ffffd655
fffff2f4
000081d9
ffffa716
00003062
00005cda
ffffa2f9
ffffd717
00004584
ffffd57c
ffff88b4
fffff4e7
00005a2a
0000acb0
0000864b
00007b1d
ffffc532
ffff763e
000038ed
000013d6
fffff9fa
0000c269
ffffe387
000040ab
00002e48
ffff8444
ffffe09e
ffff7a29
0000ad7a
00008f74
000066bc
ffffc126
ffffc48e
fffffd31
00002e59
ffffc09e
000051b5
ffff7189
0000a63f
00001579
0000b76e
ffff9ba2
000066c0
0000035c
0000183c
ffffb13e
ffff9f79
000037b8
ffffc07b
ffffbe58
ffffaac8
ffff7f55
ffffa07b
00004a7d
0000d5c6
ffffd719
0000d6dc
ffff3346
fffff818
0000b189
ffffc020
00005701
ffff68db
000085f8
fffffe5e
ffffa305
fffff26c
00001f3a
fffffb5f
00000b08
00003f81
0000eb2d
00007311
ffffec03
00005bcc
00001e3d
ffff6099
ffff6524
0000118f
00007161
fffffc0f
000052c6
00008840
ffff967c
ffffdbf7
ffffd2e3
ffff6286
ffffbee8
ffff976b
ffffab0b
000086c5
ffffb654
ffffa1c2
00002614
ffff7a64
00007365
ffffe96e
fffff442
ffff8d6f
ffffb02b
ffff8234
00006935
000054c0
00003992
ffff8c35
ffffe4f9
0000b9fe
000088c7
ffffc75d
ffffb7e6
00005501
00000a94
00001817
fffff3ce
0000199e
00007bb2
ffffcd65
000064df
00006db9
ffff99af
ffffbf77
ffff8225
ffffcc2d
0000250f
ffff8952
00000f9a
00001f55
ffffb317
fffff189
00007b60
000083b2
00007ffe
00006a4c
ffffdcaa
ffff8844
ffffdf05
ffffb83d
ffffce58
ffffc2df
00007cc2
ffff976f
ffffac94
00008b4a
000080f3
00000871
ffff6f0a
00002592
ffff508c
fffff45c
fffff81f
ffffa55c
000024ee
ffff6fe3
ffff9765
ffff21ac
ffffe2d1
000053f6
00005472
0000486b
ffff9ef9
0000450c
00001233
0000ae1b
ffff9af9
00005977
ffffa5ee
00000776
00006361
ffff891c
ffffe6be
ffff7953
00004bcc
00003994
ffffbaea
ffff9714
ffff8144
00003d34
ffff991a
ffff9e75
00006ede
ffff93a9
0000a681
ffff4de3
00001211
0000d21b
ffff4844
0000196f
ffffd296
000004f9
00002280
ffffd969
00004c8d
ffff89bc
ffffe4a5
00001b6d
00006d4e
ffffe5bf
ffffdaac
0000036b
0000ca7c
0000270a
00009b3c
00007b41
00001523
00002821
000046bc
ffffa1dc
00004200
0000609c
00000e4f
00008c85
00004620
ffffc0a4
ffff71bb
00008e3e
ffffd793
00004f34
ffffb0d3
ffff744e
ffff9ad8
0000099b
ffffccdc
000050dd
000042db
ffff7dda
00002fb9
0000b693
ffff8c25
ffff5db2
000001e7
00008386
ffff9661
000003f3
ffff79ff
00009662
00009377
00003927
00008937
00003660
ffffd4f0
ffffb8f1
ffffb15d
ffffc96b
0000126d
0000933d
ffff95e3
ffff3fc2
00009120
ffffd03e
ffffbe9d
ffff96b5
000090aa
ffff6cca
ffffd7b4
000027de
00000e8c
00003036
0000bfa5
0000768a
ffff85c3
ffff7b87
00011484
00006c37
00007755
000046fb
ffff2164
0000061e
ffff9528
ffffc660
0000a0e4
000072b4
00004933
ffff9b6d
00004b7c
ffffb6b8
ffff3757
ffff9a55
ffffab64
ffff7af4
00002062
0000084b
ffffcccc
0000d48a
0001105c
00000387
ffff69cc
ffffd590
00006d0a
ffff8488
000006e0
000004b1
ffffbaca
00000772
0000304b
fffff525
ffffa902
ffffdb66
ffffe302
00001aab
00000b39
ffffa3af
ffffc767
ffffcc04
0000de27
0000026e
fffffa43
ffff9e21
fffff255
00001d05
0000259b
ffffb353
ffffa91b
ffffdea2
00001cb9
ffffac40
ffff9438
ffffcc2b
ffffdd0c
0000e391
0000519f
0000687c
00004787
0000965b
ffffad9c
ffffddb0
0000dcf3
ffff4657
fffff035
ffffaab0
fffff7e5
00007640
0000b220
ffffb5d7
00008744
0000792c
ffffaf83
00011512
ffff60ba
000027b0
00001dd4
00003a77
ffffbbf5
fffffc6d
00008163
00007a84
ffffb2d6
ffffe2d5
ffff39c9
ffffbff9
fffff8c4
ffffe873
00005c8d
00002575
fffffe8b
00000238
00006a83
ffffb650
00008ccd
00009d75
ffff9bf2
ffffd8c8
ffff8d8c
0000196f
fffee646
ffff44d3
ffff6824
ffffb886
00002c79
0000197d
00007a5f
ffff532b
ffffd057
000029de
ffff8df2
0001095d
ffff89bf
0000463b
0000b6ba
ffff9851
00001f0c
00001da0
00001ddf
ffffcfec
0000382b
00001a38
0000087b
ffffa335
ffffc4ce
0000c19e
ffff828d
ffffcdd7
0000815c
00001440
ffff53f1
00010fa2
000021ae
ffff7fc9
ffffd128
00005df8
ffffd52f
ffff40e9
ffff868c
ffff7a0d
00004744
fffef763
0000e2c2
000060ae
00003430
00004dd5
ffff1ecb
000067c7
00008cbd
ffffbe4f
0000293d
0000c80b
fffff16a
000019c7
ffffca8a
ffff7127
00005a60
00003f9d
ffffc8ee
ffff9ac4
00001fae
ffffcc46
00007c6f
00007f46
ffffd8f0
ffff9bb5
ffffd70b
00001753
ffffce66
ffffabf4
0000af33
fffff0bb
00000b02
ffff58ed
ffffc71a
00007d88
000027b9
00008016
000044ab
ffffc61e
ffffc80f
0000257a
ffffb552
00006a44
ffff9e18
000024c7
ffff8db5
00005d6a
00005172
0000dd90
000018ef
ffffdde8
000080d3
ffff7173
0000ab10
0000aef9
00003458
00002342
00008f40
ffffa223
ffffe251
00010d00
ffffe03f
000056c9
00009dd6
ffff4ea6
00003427
00007cc5
ffff950e
ffffc6bf
0000ebed
00003607
ffff80d7
ffff6811
ffffded0
fffffff6
00002e24
00000553
ffffad98
ffffdccf
ffffc16e
00001939
0000ca0c
ffffedac
fffff207
0000aad3
fffff1e5
ffff3ae0
ffff7e9a
00005431
0000aa27
0000473c
ffffd0cb
0000fe30
00009227
000036ad
000046e2
00008a38
0000b106
000033a5
0000bd50
ffffcc66
00006c98
0000609e
0000ae6d
0000328f
00006860
000014dd
0000a1c9
ffffe75b
ffff4928
ffffe628
ffff463d
ffffe115
ffffab55
0000c9ef
00003898
0000cc54
00000753
ffff6713
0000935d
0000199b
ffff7a96
ffff925f
000079ce
ffffc67d
00007ac2
000014cc
00013749
0000aacd
ffff9943
000138a4
ffffcd39
ffffdfd9
00009c8e
ffffdd01
00001d10
00004229
00009f77
ffffda90
00002268
ffffdb22
ffffb087
0000993e
00007fba
0000f889
ffff8a53
ffffab81
0000536a
0000d7b8
00015b5a
00002b5e
ffffa5aa
0000d710
ffffce5d
ffffccf5
ffffc12b
ffff649d
ffffa814
ffffd36c
ffffe4de
ffffe006
00005f90
0000cc82
ffff95a2
0000745b
000018ce
00004c92
00006143
000093ff
ffff8364
ffff4d81
ffffd1a2
0000b6eb
00009cef
0000434a
ffffaeab
0000356b
00006131
000078dc
ffffbc95
0000a518
ffffd397
ffff681a
ffffc5a5
ffffd36e
ffff57fd
fffff926
000124e7
00001a87
00013798
ffffdc34
ffffaafe
0000525b
00005446
ffffc75b
ffff7ade
ffff8a19
000037e4
ffffc67d
fffff5f5
00002e90
ffffdd86
00001f20
00001554
0000012d
0000043c
00006074
ffffaea2
ffff851f
ffff892b
000067b0
0000549b
ffffebc0
ffff8602
00003741
ffffeb35
ffff331d
000058c9
ffffeba0
ffffb4c4
000002d8
00005d95
0000656a
00002eb4
0000732d
ffffba14
ffffb3e9
000045f2
ffff7b8b
ffffd689
ffffe810
0000102c
00007103
00007864
ffffef29
00003795
00006025
00006450
00004220
00001b8d
ffffb4da
ffffd789
ffffe13e
00009664
0000352b
ffffe533
ffff8676
00002acf
0000232c
00008aef
00004c7a
ffffd346
ffff88e7
ffffe370
ffffe937
00000eb0
00003c05
0000750d
00008425
000047bc
00000a62
00008bb3
000073e0
00000e7d
fffff335
00001797
0000cac7
00003b24
ffffe861
ffff6eb2
ffff9630
0000157b
0000304b
0000dc0d
000041eb
0000c627
00006c82
00006874
000002cd
ffffd9f5
000083d0
000018ba
fffed776
ffff7532
00000059
0000449a
ffff1010
ffffbea0
00003759
ffff2149
0000543d
0001836b
ffff34f1
0000006c
ffffc747
00007aae
ffff6bba
ffff99d2
00008703
ffffc7f1
ffff1a96
ffff9de3
ffff4e03
ffffc564
00000eaf
ffffca30
ffff3281
ffffe728
00005b22
0000015c
ffffd208
ffffc655
0000aef3
00001ff5
ffff645e
0000960f
00005ccd
fffff772
ffffdabf
0000c60e
ffff2990
00005a95
00001415
000011ce
ffff8b9f
000057c1
00000fa1
0000175d
00003a4b
ffff90ae
ffff87bc
00002c50
ffff72d2
0000346a
00002919
ffffcd62
ffff8517
ffffe58c
ffffd95b
ffff8b22
00009dbe
ffff82da
00002c02
00001efd
ffff81e5
0000978f
ffffcb21
000057b5
00005da9
00001d38
00003a8a
ffffceb2
ffff99cc
0000a6ed
ffff9925
ffffcc71
000048a8
ffff8439
0000462a
0000a650
00002a14
0000d621
00000e93
0000236a
00007209
ffffb2db
0000116d
ffffb226
ffff8007
0000d4f0
000024f8
000098e7
ffffdf3e
000060b6
fffff078
00003b7e
ffff87db
00003336
00003396
00007177
000074c4
0000357f
0000a5e1
ffff9bb8
00002dcc
ffffbd7a
fffff630
ffffc68a
0000595d
0000570f
0000ba7d
00003438
00005915
0000367e
ffff7084
00000c84
ffffa20e
00005bb7
00007555
0000d02a
ffffcba9
00001b06
00007b34
000056f5
ffffaf82
0000332d
00009279
00002948
ffffd824
ffff8001
ffffd9b3
ffffd4e9
00001e1b
ffff8ae7
ffffb4b6
000050c7
ffffb4f9
00001fde
00008552
ffff619d
000003bc
ffffa584
00007063
0000efd1
ffffba7c
00002fd5
0000165b
000016bc
0000700d
0000892b
000023f0
00001afd
fffff089
ffff8fb9
00002bd6
000048ee
ffff9190
fffeb723
ffffb94f
ffff6e21
ffff636f
fffff1d0
00007c11
ffffdc4e
ffff7306
000024f9
ffff8dd8
ffff36b1
ffff46be
0000cc6a
ffff33bb
0000cd31
ffff9441
ffff2b0c
ffffdbd5
ffff9854
ffffc6ca
00007e8c
ffffb370
ffffb115
00007c43
00006446
ffff583d
ffff862d
ffffb200
00001b19
000009d0
ffffdddc
00005f01
ffffce59
0000c2f3
00008e3b
ffff7ac5
0000af76
000015c5
0000681a
ffffd82e
00002e03
00002ab5
ffffd0a8
ffffd6ff
0000570c
0000214d
000013c8
0000ffff
ffff23b0
00002beb
ffff52de
00000235
0000026a
0000380f
ffffec87
00001186
00001217
00002535
00002b7c
ffff986e
ffffd478
000089f9
000062dc
00002a6e
00009737
fffff36f
0000aced
00001585
ffff8724
ffffc505
00006b29
ffffdf4f
ffff6eda
000094e2
00002674
000082b8
000057fa
ffffdf21
0000234a
0000aa5e
00004e84
00009354
000039a6
ffff76ab
ffff2e62
00003db0
ffff8321
00009a18
ffffba80
ffffb2cd
ffff9548
ffffa4c6
00004825
000028ee
00005619
000095bd
000055f6
00003e43
ffff6bba
0000936e
ffff3c4e
ffffe3e0
00009501
ffffdcaf
00000f5f
00000939
ffff9d4a
ffffd3d8
00004a40
000061a5
ffffd483
ffff09bc
0000d54d
ffff9e28
00005379
ffffdd21
ffff67d7
ffff9596
0000190e
0000283b
ffff5a13
ffffd364
ffffddec
0000fce8
0000aa14
ffff15fc
ffffab64
00008e82
0000a271
0000586a
00009ff7
0000de14
00004a14
0000a48b
ffffd4f1
00003c85
fffffd1a
000004ac
0000fe60
ffff5939
ffff92bb
000075e0
0000811e
ffff7e2b
ffff9c2a
00004d81
ffffeeae
ffff8323
00005334
00005a34
000026ca
0000707c
ffff9bca
000067c1
ffffc6d0
0000626e
ffffc386
000069bd
00006fd4
ffff8364
00002baa
00006053
ffffc303
ffff86da
ffffc5a8
ffffd744
ffff9cf5
000086ed
ffffc78e
00001a96
0000421d
ffff8f98
ffffaca4
00001962
ffff9b02
ffffc64c
00003b2d
000060f5
ffffa70f
ffffba14
ffff9bbb
00007be2
00000ece
fffff2f3
fffffe39
fffffe0b
ffffa1cd
ffff85ed
ffffa5fa
00003a08
00006c91
000000e8
00005e2d
0000296e
ffff98b3
ffffa83b
00007002
00005386
ffffd608
0000099e
ffffabea
00002ec9
ffffe458
ffff9564
ffff903e
ffffb8db
ffff880e
ffff8f41
00004036
ffff9287
0000f18c
ffffa078
0000a896
00001e62
00007a2b
00004a67
0000397a
ffffb932
0000da1e
0000bb1c
0000ba96
ffff2d1f
ffff67c0
ffff5e45
000085bf
ffffee22
ffffde47
00004f3b
0000786b
0000c248
ffff8e8f
fffee47b
fffffad4
00008551
ffff9837
ffff1d82
ffffe6ea
000007ed
ffffa92c
fffffa41
00002828
ffffc89f
ffff7df2
0000f742
fffff8ec
0000555b
ffff7115
00003936
0000a252
0000ff4e
0000adf6
0000a43a
ffffd6d0
000012f2
ffff97f9
00005dd9
000035b5
ffff67ae
ffff7706
00007a7e
ffffd7e8
0000f380
000057cb
00010cc0
00006124
ffff0a67
ffffdb46
00008108
0000946a
fffff094
fffff850
000025b6
0000f919
ffffac3a
000059f8
00005dfd
0000d77e
00004f00
ffff97b3
00002a29
ffffd719
ffff1aa9
000062a3
0000c7a0
00005e0e
ffffa38b
00007a89
00002038
0000cf01
ffffc0d3
ffffb088
0000beda
000021e1
00008ac8
ffff7fab
00004608
ffff7ed1
000057b6
0000289a
00000ffd
00004bd4
ffff9f88
00002e25
000027e0
00003faa
00000c3e
000072e5
ffffbb6d
ffffbacb
00001a7c
ffff48d7
00008746
0000a2bd
ffffaa63
ffff993c
00006d24
ffffb61d
00008368
00000a79
ffffc7d9
00005805
00001421
ffff4583
00007e2e
ffff9a02
0000650b
ffffcc04
ffffcbd4
0000370e
00001189
0000096e
ffffd5d5
00005d69
ffff5af1
0000554c
fffff558
ffffcac1
ffffd232
000014f8
fffff8fb
0000b863
ffffb67f
ffffca63
ffff7ea7
0000760f
ffffcc04
ffffa571
00004c4a
00006b5a
ffffdd3e
ffff88d2
000021ab
ffff8d92
00009364
ffffd73d
ffffeaaf
0000079a
ffff9ad1
ffffa260
000043e6
00004bf9
ffffaa5c
ffffe3cf
ffffa8d6
ffffc726
ffffd8d8
000078a5
000053de
ffff3c01
00006c8a
ffff616b
ffffbee8
ffffd1f0
0000a916
ffffdb0f
ffffdcea
ffffdb90
0000afeb
ffffddff
ffffcc8f
00004e56
000011c3
ffffe112
ffff93bd
00006ab8
00008249
ffffc461
ffff9230
00008b8f
000057cd
0000292d
0000a784
ffff437d
fffff580
ffff7465
00000a1c
00008e13
ffffa9e8
000023bd
0000abc7
000022d8
ffffda80
000002bc
000000c1
ffff7551
00005d8f
ffffb1d4
fffffad5
00002604
00000d13
ffff57c1
ffffc226
ffffe0e6
00007dba
000008f6
ffffdea1
ffffb962
000042b5
ffffe06e
ffff4559
00005616
00006966
00009e06
00008712
0000acb9
0000ccaa
ffffefe4
0000c31c
0000a651
ffff6d7f
00005ea0
fffffbe3
00005e59
ffffc803
ffffdfdc
000016d7
ffff678c
ffff9b4c
00001b96
0000ae62
ffffdf6e
ffffe282
ffff9265
00002ffa
ffff7f54
ffffa852
ffff88f5
0000026a
ffffde62
ffffdcfa
0000f05b
ffff9fe7
ffffc03b
00005525
ffffbb37
00005192
ffff1af8
ffff603a
00004361
00006d13
0000722c
00001d01
000076ff
ffffc17f
ffff9446
00007455
ffff91d6
fffff5d5
00004106
ffff9a1b
fffff072
ffffc2e7
ffffb1b3
ffffeb99
00005857
00000458
00000cb5
ffff9c54
ffffea68
ffffbbdf
000063a6
000081c4
0000502b
00002ac4
fffffc4f
ffffa906
00002555
00008453
0000347f
ffffd9cc
ffff8cf9
0000779b
ffff87c2
ffffd224
00004a01
00002cc7
fffffaef
00008603
ffffaba9
00004c2a
00008ef4
00002ab6
ffffa7e2
ffffacea
00005ee3
fffff291
00005824
00002a96
ffffd711
0000430b
00005d58
ffffeef4
ffffd6c0
ffff74bc
ffffca2f
00002119
ffff866f
ffff881f
ffffcc1c
ffffc164
00004ed4
ffff75a4
ffff910b
0000827c
ffffc747
ffffffb8
