-- begin_signature
-- weightRAM_layer1
-- end_signature
WIDTH=32;
DEPTH=50176;

ADDRESS_RADIX=UNS;
DATA_RADIX=BIN;

CONTENT BEGIN
	50175 :	00000000000000000001000110100111;
	50174 :	11111111111111111111110111101100;
	50173 :	00000000000000000010000101010011;
	50172 :	00000000000000000010000000000100;
	50171 :	11111111111111111110000111001011;
	50170 :	00000000000000000000100010010101;
	50169 :	11111111111111111101101111100111;
	50168 :	00000000000000000001011111011111;
	50167 :	11111111111111111101100100101111;
	50166 :	00000000000000000001010010010100;
	50165 :	00000000000000000010101110000000;
	50164 :	11111111111111111111111111100111;
	50163 :	11111111111111111101101001000001;
	50162 :	00000000000000000001010101111111;
	50161 :	00000000000000000001110001111101;
	50160 :	11111111111111111101111101011000;
	50159 :	11111111111111111110111000001100;
	50158 :	00000000000000000001011010111010;
	50157 :	00000000000000000000100110100010;
	50156 :	11111111111111111101110001101111;
	50155 :	00000000000000000010011000101011;
	50154 :	11111111111111111111110110100000;
	50153 :	11111111111111111111110111010110;
	50152 :	00000000000000000000111001111110;
	50151 :	11111111111111111110011110101000;
	50150 :	00000000000000000000101100100010;
	50149 :	00000000000000000000001011100011;
	50148 :	11111111111111111111111101010111;
	50147 :	11111111111111111101011110001000;
	50146 :	00000000000000000000001110001100;
	50145 :	00000000000000000000010100010010;
	50144 :	00000000000000000001111110110010;
	50143 :	00000000000000000000110001000100;
	50142 :	11111111111111111101111011100001;
	50141 :	11111111111111111111011100010000;
	50140 :	00000000000000000000100111111100;
	50139 :	11111111111111111111101011011110;
	50138 :	00000000000000000001001010110111;
	50137 :	11111111111111111110111000010111;
	50136 :	11111111111111111111001010010101;
	50135 :	00000000000000000001110111010011;
	50134 :	00000000000000000000111001110111;
	50133 :	00000000000000000000010111101001;
	50132 :	11111111111111111111100001100001;
	50131 :	11111111111111111110000001000011;
	50130 :	11111111111111111100111001011000;
	50129 :	11111111111111111101101010011011;
	50128 :	11111111111111111111100010100010;
	50127 :	11111111111111111110110010001000;
	50126 :	11111111111111111101010110110001;
	50125 :	00000000000000000001100011111101;
	50124 :	00000000000000000001110100001011;
	50123 :	00000000000000000001101101110111;
	50122 :	00000000000000000001111011101101;
	50121 :	11111111111111111110001100011110;
	50120 :	11111111111111111101111101000110;
	50119 :	11111111111111111111110010110100;
	50118 :	11111111111111111101111000110000;
	50117 :	00000000000000000010001001001101;
	50116 :	11111111111111111110111111101111;
	50115 :	11111111111111111111000011001101;
	50114 :	11111111111111111100111001100010;
	50113 :	00000000000000000001011001110101;
	50112 :	00000000000000000001101000100111;
	50111 :	00000000000000000010011001100110;
	50110 :	00000000000000000001110111101000;
	50109 :	11111111111111111110110110110111;
	50108 :	00000000000000000010000010000011;
	50107 :	11111111111111111111000101110001;
	50106 :	00000000000000000010111001011001;
	50105 :	11111111111111111111011011000100;
	50104 :	11111111111111111110010101110001;
	50103 :	00000000000000000001110011110011;
	50102 :	00000000000000000000000000110101;
	50101 :	11111111111111111110100110110010;
	50100 :	00000000000000000000101000000001;
	50099 :	00000000000000000011000100111010;
	50098 :	00000000000000000010011010011011;
	50097 :	11111111111111111110010011110100;
	50096 :	00000000000000000010101011010011;
	50095 :	11111111111111111101100101000000;
	50094 :	00000000000000000001100011001111;
	50093 :	11111111111111111111110000110001;
	50092 :	11111111111111111101100001001001;
	50091 :	11111111111111111101110101000010;
	50090 :	11111111111111111110100100000011;
	50089 :	00000000000000000001100101110101;
	50088 :	00000000000000000010000001011101;
	50087 :	11111111111111111101001101101110;
	50086 :	11111111111111111110010010101000;
	50085 :	11111111111111111110011001010110;
	50084 :	11111111111111111110101100010100;
	50083 :	11111111111111111111111000001010;
	50082 :	00000000000000000010110011011011;
	50081 :	00000000000000000000010100100101;
	50080 :	11111111111111111111111110000011;
	50079 :	00000000000000000011100111101000;
	50078 :	11111111111111111111111101110111;
	50077 :	00000000000000000001011111011110;
	50076 :	00000000000000000010000011100000;
	50075 :	11111111111111111110011101100000;
	50074 :	11111111111111111111000101101001;
	50073 :	11111111111111111111000111011111;
	50072 :	00000000000000000011011110000101;
	50071 :	00000000000000000001111101011101;
	50070 :	00000000000000000101000100010001;
	50069 :	00000000000000000010011010011011;
	50068 :	00000000000000000010100011001110;
	50067 :	11111111111111111111000100010100;
	50066 :	00000000000000000001010100111010;
	50065 :	00000000000000000010010001011100;
	50064 :	00000000000000000010000100010111;
	50063 :	11111111111111111101100000000111;
	50062 :	00000000000000000000101010110110;
	50061 :	11111111111111111111010000011101;
	50060 :	11111111111111111111111101011101;
	50059 :	00000000000000000010000110100100;
	50058 :	00000000000000000000110101000111;
	50057 :	11111111111111111101110101110000;
	50056 :	11111111111111111111100110000101;
	50055 :	00000000000000000010111001110010;
	50054 :	00000000000000000010001000100111;
	50053 :	00000000000000000010001001010011;
	50052 :	00000000000000000001111000110111;
	50051 :	00000000000000000011001010001111;
	50050 :	11111111111111111111011111000000;
	50049 :	00000000000000000010111110110100;
	50048 :	11111111111111111110100000000010;
	50047 :	11111111111111111111111010010100;
	50046 :	00000000000000000000000001000111;
	50045 :	00000000000000000011011000101000;
	50044 :	11111111111111111110101101100010;
	50043 :	00000000000000000000010110111000;
	50042 :	00000000000000000100101100000110;
	50041 :	00000000000000000001001101000110;
	50040 :	00000000000000000010001100101010;
	50039 :	11111111111111111101101101110111;
	50038 :	00000000000000000001011110010101;
	50037 :	00000000000000000000101110001011;
	50036 :	00000000000000000000100001110110;
	50035 :	11111111111111111101111111100000;
	50034 :	11111111111111111110100110111110;
	50033 :	00000000000000000010011111000111;
	50032 :	00000000000000000000000100110100;
	50031 :	00000000000000000001100010000011;
	50030 :	11111111111111111110110110100100;
	50029 :	11111111111111111110010011110100;
	50028 :	11111111111111111110010001011111;
	50027 :	11111111111111111101111100010100;
	50026 :	11111111111111111111101010111101;
	50025 :	00000000000000000000111101011000;
	50024 :	11111111111111111111001101111011;
	50023 :	00000000000000000100010110100110;
	50022 :	00000000000000000010110001010100;
	50021 :	00000000000000000000000100011010;
	50020 :	11111111111111111111010011011110;
	50019 :	00000000000000000010101100100111;
	50018 :	11111111111111111111101100110000;
	50017 :	00000000000000000010001001001010;
	50016 :	11111111111111111110100011001111;
	50015 :	11111111111111111111011110111000;
	50014 :	00000000000000000001010111111101;
	50013 :	11111111111111111101111100111100;
	50012 :	11111111111111111111010101000100;
	50011 :	00000000000000000001010010010101;
	50010 :	11111111111111111111100111100001;
	50009 :	11111111111111111110011000111011;
	50008 :	11111111111111111111101110101010;
	50007 :	00000000000000000001000100000111;
	50006 :	11111111111111111110010011001000;
	50005 :	11111111111111111110111011100100;
	50004 :	00000000000000000001010111000110;
	50003 :	11111111111111111110010001100100;
	50002 :	11111111111111111111010010100110;
	50001 :	11111111111111111110001111101100;
	50000 :	00000000000000000000001010001100;
	49999 :	11111111111111111111110001110001;
	49998 :	00000000000000000000011110001010;
	49997 :	11111111111111111111011001010111;
	49996 :	11111111111111111111101100010100;
	49995 :	00000000000000000010001111011000;
	49994 :	00000000000000000000001100011010;
	49993 :	00000000000000000010011010111111;
	49992 :	00000000000000000010011111101001;
	49991 :	00000000000000000010111000001000;
	49990 :	11111111111111111111010100011110;
	49989 :	11111111111111111101100110010000;
	49988 :	11111111111111111101011000111001;
	49987 :	11111111111111111110000010110011;
	49986 :	00000000000000000010000100001110;
	49985 :	00000000000000000000001001011110;
	49984 :	00000000000000000001101000001100;
	49983 :	00000000000000000010011010100001;
	49982 :	00000000000000000000011111101100;
	49981 :	00000000000000000001001101000100;
	49980 :	00000000000000000001010010111001;
	49979 :	11111111111111111111111100101001;
	49978 :	00000000000000000000111001000001;
	49977 :	00000000000000000001111011010101;
	49976 :	00000000000000000010000010000110;
	49975 :	00000000000000000001000100101011;
	49974 :	11111111111111111100010110011010;
	49973 :	11111111111111111111101001001110;
	49972 :	11111111111111111011011011111000;
	49971 :	11111111111111111100101110101101;
	49970 :	11111111111111111100010000110010;
	49969 :	11111111111111111100010010110001;
	49968 :	00000000000000000000111110111101;
	49967 :	00000000000000000001011110110111;
	49966 :	00000000000000000000101110101010;
	49965 :	11111111111111111111101000111101;
	49964 :	00000000000000000001001111011011;
	49963 :	00000000000000000001001110110110;
	49962 :	00000000000000000001010001010110;
	49961 :	00000000000000000001110110111001;
	49960 :	11111111111111111110111111111011;
	49959 :	11111111111111111111111110000101;
	49958 :	00000000000000000000010101110001;
	49957 :	11111111111111111100111101000100;
	49956 :	11111111111111111111001000010001;
	49955 :	00000000000000000000010101001010;
	49954 :	11111111111111111111111110000010;
	49953 :	00000000000000000000001110011000;
	49952 :	11111111111111111110101110001001;
	49951 :	11111111111111111101111001111001;
	49950 :	11111111111111111101100000100100;
	49949 :	11111111111111111111100111111001;
	49948 :	11111111111111111111110101110000;
	49947 :	11111111111111111111101111001000;
	49946 :	00000000000000000000011101110001;
	49945 :	11111111111111111110010111000000;
	49944 :	11111111111111111011111010011110;
	49943 :	11111111111111111110110001110111;
	49942 :	11111111111111111101110000101100;
	49941 :	11111111111111111101011011110000;
	49940 :	11111111111111111111001010100000;
	49939 :	00000000000000000000111011010101;
	49938 :	00000000000000000011001010001001;
	49937 :	00000000000000000011011011011000;
	49936 :	00000000000000000000010000010010;
	49935 :	00000000000000000010001111000101;
	49934 :	11111111111111111101000001111010;
	49933 :	11111111111111111110001111100010;
	49932 :	11111111111111111100111101111110;
	49931 :	11111111111111111110000101110001;
	49930 :	11111111111111111111111001000100;
	49929 :	11111111111111111110110111100101;
	49928 :	00000000000000000001110000001111;
	49927 :	11111111111111111111110100011011;
	49926 :	00000000000000000010100010000101;
	49925 :	00000000000000000001010110000101;
	49924 :	00000000000000000010010110101100;
	49923 :	11111111111111111110111110000100;
	49922 :	00000000000000000000000110000011;
	49921 :	11111111111111111101110111010000;
	49920 :	00000000000000000010001110101100;
	49919 :	11111111111111111111000010111101;
	49918 :	11111111111111111101110001111010;
	49917 :	11111111111111111111100111110101;
	49916 :	11111111111111111101010000100111;
	49915 :	11111111111111111110011011001001;
	49914 :	00000000000000000000100011110001;
	49913 :	00000000000000000000001010101010;
	49912 :	11111111111111111111111010110101;
	49911 :	00000000000000000001011011011100;
	49910 :	00000000000000000001110101100001;
	49909 :	00000000000000000001011000011100;
	49908 :	00000000000000000000110011110111;
	49907 :	11111111111111111111100110010100;
	49906 :	11111111111111111110110011111000;
	49905 :	11111111111111111110110100001111;
	49904 :	11111111111111111110011101001001;
	49903 :	11111111111111111100000110001000;
	49902 :	11111111111111111110010001011001;
	49901 :	11111111111111111111111100100010;
	49900 :	11111111111111111111010100011011;
	49899 :	00000000000000000000000110001001;
	49898 :	11111111111111111110001100000111;
	49897 :	11111111111111111111011001101010;
	49896 :	11111111111111111110001011001101;
	49895 :	11111111111111111111101101101001;
	49894 :	11111111111111111101010101110011;
	49893 :	00000000000000000000110010111100;
	49892 :	11111111111111111110110111011100;
	49891 :	11111111111111111101101101100100;
	49890 :	00000000000000000010000011011010;
	49889 :	11111111111111111110101001001101;
	49888 :	00000000000000000000001000000101;
	49887 :	00000000000000000010111010010110;
	49886 :	00000000000000000010010100111011;
	49885 :	00000000000000000001000111011001;
	49884 :	11111111111111111110011101100110;
	49883 :	00000000000000000000000000101101;
	49882 :	00000000000000000001110010100110;
	49881 :	00000000000000000010101011100110;
	49880 :	11111111111111111100001110001010;
	49879 :	11111111111111111110101010111100;
	49878 :	11111111111111111101100100110111;
	49877 :	11111111111111111101010110010110;
	49876 :	11111111111111111100010101011001;
	49875 :	11111111111111111010000010000110;
	49874 :	11111111111111111011111010011111;
	49873 :	11111111111111111101101101000001;
	49872 :	00000000000000000001000111001000;
	49871 :	11111111111111111101100101010101;
	49870 :	11111111111111111110100100000111;
	49869 :	11111111111111111111100100100111;
	49868 :	11111111111111111101011000111010;
	49867 :	00000000000000000001001111110001;
	49866 :	00000000000000000000001000111100;
	49865 :	11111111111111111110011000110110;
	49864 :	11111111111111111101111111100110;
	49863 :	11111111111111111110101110101000;
	49862 :	00000000000000000000110110101101;
	49861 :	00000000000000000100101110110011;
	49860 :	11111111111111111111011111101110;
	49859 :	00000000000000000001010000010110;
	49858 :	11111111111111111111001101010111;
	49857 :	00000000000000000001000111010011;
	49856 :	11111111111111111111001110110010;
	49855 :	00000000000000000001110011001011;
	49854 :	00000000000000000000011100011110;
	49853 :	00000000000000000000111010011101;
	49852 :	11111111111111111101001000011110;
	49851 :	11111111111111111100100000011011;
	49850 :	11111111111111111000110011101001;
	49849 :	11111111111111111001001101110001;
	49848 :	11111111111111111010101000110010;
	49847 :	11111111111111111100001111100001;
	49846 :	11111111111111111100000111010111;
	49845 :	11111111111111111010110110001100;
	49844 :	11111111111111111101001000101000;
	49843 :	11111111111111111100111001110100;
	49842 :	00000000000000000010000001001100;
	49841 :	11111111111111111111010101100100;
	49840 :	00000000000000000001110101001111;
	49839 :	11111111111111111101010100110110;
	49838 :	00000000000000000001100000110111;
	49837 :	00000000000000000000010101000010;
	49836 :	11111111111111111111110011001011;
	49835 :	11111111111111111111000100001000;
	49834 :	00000000000000000010100100000010;
	49833 :	00000000000000000001010111001001;
	49832 :	00000000000000000000101001011111;
	49831 :	00000000000000000010111000010000;
	49830 :	11111111111111111110001110001100;
	49829 :	00000000000000000001010000000010;
	49828 :	11111111111111111101101001011110;
	49827 :	00000000000000000010011000010101;
	49826 :	00000000000000000000111110000000;
	49825 :	11111111111111111011110010110110;
	49824 :	11111111111111111000100110000100;
	49823 :	11111111111111111001001010111001;
	49822 :	11111111111111111000100101001111;
	49821 :	11111111111111111010010010001000;
	49820 :	11111111111111111010001110111101;
	49819 :	11111111111111111101001100010000;
	49818 :	11111111111111111111010110010000;
	49817 :	11111111111111111100011011110111;
	49816 :	11111111111111111110000011011111;
	49815 :	00000000000000000000101011010011;
	49814 :	11111111111111111111011110100100;
	49813 :	00000000000000000010010110111110;
	49812 :	00000000000000000000000111111001;
	49811 :	00000000000000000010000101000100;
	49810 :	11111111111111111101010101100010;
	49809 :	00000000000000000000001101110000;
	49808 :	00000000000000000000000100101100;
	49807 :	00000000000000000000010010010000;
	49806 :	00000000000000000010000101111101;
	49805 :	00000000000000000000100000000000;
	49804 :	11111111111111111011111001111001;
	49803 :	11111111111111111111000111111000;
	49802 :	00000000000000000000101100001001;
	49801 :	11111111111111111111000011010001;
	49800 :	00000000000000000001000000100100;
	49799 :	00000000000000000000110001110111;
	49798 :	11111111111111111110100101001101;
	49797 :	11111111111111111000101100111101;
	49796 :	11111111111111110111110101100000;
	49795 :	11111111111111111010011010100001;
	49794 :	11111111111111111110100100010100;
	49793 :	11111111111111111010111110001110;
	49792 :	11111111111111111111011010110010;
	49791 :	11111111111111111110011110001010;
	49790 :	00000000000000000000011111111100;
	49789 :	11111111111111111100111100011000;
	49788 :	11111111111111111110010010101110;
	49787 :	11111111111111111111101101011000;
	49786 :	11111111111111111110010000101111;
	49785 :	11111111111111111111011101111110;
	49784 :	11111111111111111101110001110110;
	49783 :	00000000000000000001010001000011;
	49782 :	11111111111111111111101101011100;
	49781 :	11111111111111111111001011101101;
	49780 :	11111111111111111101100000010100;
	49779 :	00000000000000000001010011111100;
	49778 :	11111111111111111101001111111000;
	49777 :	11111111111111111010011100010111;
	49776 :	11111111111111111011111001011001;
	49775 :	11111111111111111100010110100101;
	49774 :	11111111111111111100000110111111;
	49773 :	00000000000000000001110100110000;
	49772 :	11111111111111111111101111000101;
	49771 :	11111111111111111101000001010000;
	49770 :	11111111111111111001110011101001;
	49769 :	11111111111111110100100100110000;
	49768 :	11111111111111110111100110010000;
	49767 :	11111111111111111010100111001101;
	49766 :	11111111111111111011010110010001;
	49765 :	11111111111111111101111011101110;
	49764 :	00000000000000000000111111011010;
	49763 :	00000000000000000000011100000101;
	49762 :	11111111111111111111110000001000;
	49761 :	11111111111111111111011010001111;
	49760 :	11111111111111111100101101110111;
	49759 :	00000000000000000001000100111011;
	49758 :	00000000000000000010001111100111;
	49757 :	11111111111111111111000001001001;
	49756 :	00000000000000000001010000011000;
	49755 :	11111111111111111110110001100110;
	49754 :	00000000000000000000110000001011;
	49753 :	11111111111111111101101110101011;
	49752 :	00000000000000000010010101001100;
	49751 :	11111111111111111110111000001011;
	49750 :	11111111111111111110100011011011;
	49749 :	11111111111111111110001000011010;
	49748 :	11111111111111111101000101001010;
	49747 :	11111111111111111100010101001001;
	49746 :	11111111111111111111101110001010;
	49745 :	00000000000000000010011001110110;
	49744 :	00000000000000000001011000110110;
	49743 :	11111111111111111110001110010011;
	49742 :	11111111111111110101101110101110;
	49741 :	11111111111111110010101101100001;
	49740 :	11111111111111111001011111111101;
	49739 :	11111111111111111011101010100001;
	49738 :	11111111111111111111110101010011;
	49737 :	00000000000000000000001110110011;
	49736 :	11111111111111111111010000011101;
	49735 :	00000000000000000000100001111100;
	49734 :	11111111111111111111001111110001;
	49733 :	00000000000000000000010100011100;
	49732 :	11111111111111111110001011111101;
	49731 :	00000000000000000010001110100011;
	49730 :	11111111111111111101011101101001;
	49729 :	00000000000000000001010100101111;
	49728 :	11111111111111111111100011100100;
	49727 :	11111111111111111101111111100011;
	49726 :	00000000000000000010100000010111;
	49725 :	00000000000000000010100011011000;
	49724 :	00000000000000000000101111111000;
	49723 :	00000000000000000000000110010010;
	49722 :	00000000000000000000010100010001;
	49721 :	11111111111111111111011001010000;
	49720 :	11111111111111111111110010010100;
	49719 :	11111111111111111111011101001101;
	49718 :	11111111111111111110010100110100;
	49717 :	00000000000000000000110100110110;
	49716 :	00000000000000000000000111000100;
	49715 :	11111111111111111001111011111011;
	49714 :	11111111111111111000101101101100;
	49713 :	11111111111111111001000000110010;
	49712 :	11111111111111111101001011000110;
	49711 :	11111111111111111111101001100001;
	49710 :	00000000000000000011001100111111;
	49709 :	11111111111111111111101110110110;
	49708 :	00000000000000000011001010010100;
	49707 :	00000000000000000010011001001100;
	49706 :	11111111111111111111010111100101;
	49705 :	00000000000000000001110000100111;
	49704 :	00000000000000000000110101110111;
	49703 :	11111111111111111111010101010111;
	49702 :	11111111111111111110010001010100;
	49701 :	00000000000000000010011010011110;
	49700 :	00000000000000000001111111001100;
	49699 :	11111111111111111101101100110110;
	49698 :	11111111111111111111011110000011;
	49697 :	00000000000000000000110011001100;
	49696 :	11111111111111111111100110111000;
	49695 :	11111111111111111101000100111011;
	49694 :	11111111111111111110101100101111;
	49693 :	00000000000000000000101011011011;
	49692 :	00000000000000000001111111000000;
	49691 :	00000000000000000010101111111101;
	49690 :	00000000000000000001011110011000;
	49689 :	00000000000000000000110001100100;
	49688 :	00000000000000000011000100001011;
	49687 :	00000000000000000001000000010100;
	49686 :	11111111111111111111111010010000;
	49685 :	00000000000000000000011100001001;
	49684 :	00000000000000000000110101100010;
	49683 :	00000000000000000101001010001010;
	49682 :	00000000000000000001111111100011;
	49681 :	00000000000000000011100111101100;
	49680 :	11111111111111111111001110100100;
	49679 :	00000000000000000000000110101101;
	49678 :	00000000000000000011111001000001;
	49677 :	00000000000000000011001001111011;
	49676 :	11111111111111111111100011111111;
	49675 :	00000000000000000011010010100010;
	49674 :	00000000000000000001110110101111;
	49673 :	11111111111111111111100110110100;
	49672 :	00000000000000000000001110101011;
	49671 :	11111111111111111101011110100110;
	49670 :	00000000000000000010000000110010;
	49669 :	00000000000000000000101001000100;
	49668 :	11111111111111111101001110110111;
	49667 :	11111111111111111111101110111110;
	49666 :	00000000000000000011000101101111;
	49665 :	11111111111111111111101010010100;
	49664 :	00000000000000000010111010001000;
	49663 :	00000000000000000000010010010111;
	49662 :	00000000000000000100010011110000;
	49661 :	00000000000000000000011111100111;
	49660 :	00000000000000000011001000000110;
	49659 :	00000000000000000100000000001001;
	49658 :	00000000000000000001010001101110;
	49657 :	00000000000000000011111011011101;
	49656 :	00000000000000000010110111011101;
	49655 :	00000000000000000001001011101111;
	49654 :	00000000000000000010010001001010;
	49653 :	00000000000000000100000000111010;
	49652 :	00000000000000000000111001011100;
	49651 :	00000000000000000011101111111100;
	49650 :	00000000000000000011010110100001;
	49649 :	00000000000000000001011100000110;
	49648 :	00000000000000000001010010111101;
	49647 :	00000000000000000000010010111010;
	49646 :	00000000000000000000110011110000;
	49645 :	11111111111111111111010001010100;
	49644 :	00000000000000000001100101001101;
	49643 :	11111111111111111110011111110001;
	49642 :	00000000000000000001001000101111;
	49641 :	11111111111111111111110010011100;
	49640 :	11111111111111111110111000010011;
	49639 :	00000000000000000001111001000010;
	49638 :	00000000000000000100001110000100;
	49637 :	00000000000000000000101101100001;
	49636 :	00000000000000000100001011101001;
	49635 :	00000000000000000011011111110010;
	49634 :	00000000000000000000101010001110;
	49633 :	00000000000000000011100001001111;
	49632 :	00000000000000000000101011101100;
	49631 :	00000000000000000001010111000110;
	49630 :	11111111111111111111101000001011;
	49629 :	11111111111111111111100000000101;
	49628 :	00000000000000000010110111010101;
	49627 :	00000000000000000001001101010101;
	49626 :	00000000000000000000100000001111;
	49625 :	00000000000000000100001001000101;
	49624 :	00000000000000000011100101100110;
	49623 :	00000000000000000001001111000100;
	49622 :	00000000000000000010001000001010;
	49621 :	11111111111111111111110111010010;
	49620 :	00000000000000000011101110010101;
	49619 :	00000000000000000001010010001101;
	49618 :	00000000000000000000010000001000;
	49617 :	00000000000000000010001111100000;
	49616 :	00000000000000000001000111011010;
	49615 :	00000000000000000000000011001001;
	49614 :	00000000000000000001010000000100;
	49613 :	00000000000000000000010011111110;
	49612 :	00000000000000000001011100001000;
	49611 :	11111111111111111110011011011101;
	49610 :	11111111111111111111100001011111;
	49609 :	00000000000000000000011011001100;
	49608 :	00000000000000000100000011110110;
	49607 :	00000000000000000010111101100100;
	49606 :	00000000000000000011011011111001;
	49605 :	00000000000000000000101011111110;
	49604 :	00000000000000000000111000000000;
	49603 :	11111111111111111001100010110000;
	49602 :	11111111111111111011000101010111;
	49601 :	11111111111111111111001000101010;
	49600 :	11111111111111111101101011010110;
	49599 :	11111111111111111110001011100100;
	49598 :	00000000000000000011011011010101;
	49597 :	00000000000000000001110101110101;
	49596 :	00000000000000000100000110110100;
	49595 :	00000000000000000100010101010011;
	49594 :	00000000000000000010011011001011;
	49593 :	00000000000000000001110001111010;
	49592 :	00000000000000000010011101101001;
	49591 :	11111111111111111111001010010001;
	49590 :	00000000000000000010011001011010;
	49589 :	11111111111111111111100011100111;
	49588 :	11111111111111111101111100110101;
	49587 :	00000000000000000001000101101001;
	49586 :	11111111111111111110111110111110;
	49585 :	00000000000000000000111010010101;
	49584 :	11111111111111111101010110100101;
	49583 :	11111111111111111111100001111111;
	49582 :	00000000000000000000110110101010;
	49581 :	11111111111111111111011011100010;
	49580 :	00000000000000000010110011100101;
	49579 :	00000000000000000001101001011000;
	49578 :	00000000000000000001101101000111;
	49577 :	00000000000000000010100010010011;
	49576 :	00000000000000000001011000110111;
	49575 :	11111111111111111011000010010110;
	49574 :	11111111111111111110100001101111;
	49573 :	11111111111111111111010001101000;
	49572 :	00000000000000000001011100111100;
	49571 :	00000000000000000000110100000011;
	49570 :	00000000000000000001100011110000;
	49569 :	11111111111111111111110100011111;
	49568 :	11111111111111111111111000101101;
	49567 :	00000000000000000001101111110000;
	49566 :	00000000000000000000000101011110;
	49565 :	11111111111111111110001110011000;
	49564 :	11111111111111111111110101100000;
	49563 :	11111111111111111110001101111010;
	49562 :	00000000000000000010101011011000;
	49561 :	11111111111111111110011100100100;
	49560 :	11111111111111111111010111100011;
	49559 :	00000000000000000001110000010101;
	49558 :	00000000000000000001110101010000;
	49557 :	11111111111111111101110000001110;
	49556 :	00000000000000000000101111111001;
	49555 :	00000000000000000001101001001100;
	49554 :	00000000000000000000100011011111;
	49553 :	00000000000000000010011000111111;
	49552 :	11111111111111111101010001111010;
	49551 :	11111111111111111101111111000010;
	49550 :	11111111111111111111110111110101;
	49549 :	11111111111111111101011001011111;
	49548 :	11111111111111111111111100010100;
	49547 :	11111111111111111110011010100101;
	49546 :	11111111111111111100011001111100;
	49545 :	11111111111111111111101101010001;
	49544 :	11111111111111111101100011101011;
	49543 :	11111111111111111101011110001011;
	49542 :	11111111111111111101010010100101;
	49541 :	11111111111111111111000100011110;
	49540 :	00000000000000000001001110001011;
	49539 :	11111111111111111111010111001011;
	49538 :	11111111111111111110100100110010;
	49537 :	00000000000000000000100100100001;
	49536 :	00000000000000000000111011010101;
	49535 :	00000000000000000000010111010011;
	49534 :	00000000000000000000010010010010;
	49533 :	00000000000000000000111001100001;
	49532 :	11111111111111111101011111001000;
	49531 :	00000000000000000010011111011001;
	49530 :	00000000000000000000110010101011;
	49529 :	11111111111111111101111101110101;
	49528 :	11111111111111111110000010001000;
	49527 :	00000000000000000000001001110111;
	49526 :	11111111111111111110010100000100;
	49525 :	00000000000000000000011101000001;
	49524 :	00000000000000000001101010110111;
	49523 :	00000000000000000001010110111110;
	49522 :	11111111111111111101111111101110;
	49521 :	11111111111111111111100000000010;
	49520 :	11111111111111111101011110001010;
	49519 :	00000000000000000000010100110100;
	49518 :	00000000000000000000101101111011;
	49517 :	11111111111111111110111000010000;
	49516 :	11111111111111111100110000101110;
	49515 :	00000000000000000001001110010011;
	49514 :	11111111111111111101101100101100;
	49513 :	00000000000000000000111000001000;
	49512 :	11111111111111111111110101100110;
	49511 :	00000000000000000000100110001011;
	49510 :	11111111111111111110100011111111;
	49509 :	11111111111111111101111011001100;
	49508 :	11111111111111111111111100110110;
	49507 :	00000000000000000001111111101011;
	49506 :	11111111111111111101100001101111;
	49505 :	00000000000000000000101111100010;
	49504 :	11111111111111111101100011101001;
	49503 :	00000000000000000001110001101010;
	49502 :	11111111111111111110101011111110;
	49501 :	11111111111111111110110011010101;
	49500 :	11111111111111111111101101000100;
	49499 :	00000000000000000001110010010100;
	49498 :	00000000000000000000001101001110;
	49497 :	11111111111111111111000001100110;
	49496 :	11111111111111111101011001100101;
	49495 :	11111111111111111101100110100010;
	49494 :	11111111111111111110101001101110;
	49493 :	00000000000000000001110010011101;
	49492 :	00000000000000000000010001110000;
	49491 :	11111111111111111110011000101001;
	49490 :	00000000000000000001111111111111;
	49489 :	00000000000000000001001100000001;
	49488 :	00000000000000000001110101101011;
	49487 :	11111111111111111101010101011011;
	49486 :	11111111111111111111011010001100;
	49485 :	00000000000000000001010100101110;
	49484 :	00000000000000000001101101110111;
	49483 :	11111111111111111111100001001111;
	49482 :	00000000000000000000100111101011;
	49481 :	11111111111111111101011111011100;
	49480 :	00000000000000000010010101111111;
	49479 :	11111111111111111111001110111110;
	49478 :	00000000000000000010100111011010;
	49477 :	00000000000000000000110010111010;
	49476 :	00000000000000000000001110000000;
	49475 :	11111111111111111111011110001000;
	49474 :	00000000000000000001101011001110;
	49473 :	00000000000000000000100000101100;
	49472 :	11111111111111111101011000101010;
	49471 :	00000000000000000010100010101100;
	49470 :	00000000000000000010100000111100;
	49469 :	00000000000000000000110000000000;
	49468 :	00000000000000000000110001001101;
	49467 :	11111111111111111111001000010111;
	49466 :	00000000000000000000011001011001;
	49465 :	11111111111111111111101100001110;
	49464 :	11111111111111111101101111000011;
	49463 :	11111111111111111111101000111101;
	49462 :	11111111111111111111000110000101;
	49461 :	00000000000000000000100000000111;
	49460 :	11111111111111111111100101000110;
	49459 :	00000000000000000001000010011010;
	49458 :	00000000000000000001110001110100;
	49457 :	00000000000000000001110100101000;
	49456 :	00000000000000000010011101001111;
	49455 :	11111111111111111101110010000110;
	49454 :	00000000000000000001001111000101;
	49453 :	11111111111111111111110011101010;
	49452 :	00000000000000000000010101101111;
	49451 :	00000000000000000001011111110011;
	49450 :	00000000000000000000001111101000;
	49449 :	00000000000000000000111001111110;
	49448 :	00000000000000000000010101111110;
	49447 :	00000000000000000001010101100101;
	49446 :	00000000000000000010011011001111;
	49445 :	00000000000000000010100100000001;
	49444 :	11111111111111111101011101111001;
	49443 :	11111111111111111111010100010011;
	49442 :	11111111111111111110110100010000;
	49441 :	11111111111111111101110000010011;
	49440 :	00000000000000000001000011001001;
	49439 :	11111111111111111110110000010101;
	49438 :	00000000000000000001110101101011;
	49437 :	11111111111111111111100001100001;
	49436 :	11111111111111111111000011001111;
	49435 :	00000000000000000010001111101110;
	49434 :	11111111111111111110111011110100;
	49433 :	11111111111111111110100010111001;
	49432 :	00000000000000000000110001000100;
	49431 :	00000000000000000010011111110100;
	49430 :	11111111111111111111101011100010;
	49429 :	11111111111111111101111011101011;
	49428 :	11111111111111111110000101000101;
	49427 :	00000000000000000010010000010111;
	49426 :	00000000000000000000001011111110;
	49425 :	11111111111111111111111100000000;
	49424 :	11111111111111111101111101001001;
	49423 :	11111111111111111110110000010111;
	49422 :	11111111111111111101010101110100;
	49421 :	11111111111111111110000111001010;
	49420 :	00000000000000000000101101010010;
	49419 :	11111111111111111111110111111001;
	49418 :	11111111111111111101110000101001;
	49417 :	11111111111111111111011001101110;
	49416 :	11111111111111111110010110101010;
	49415 :	00000000000000000000101010011111;
	49414 :	11111111111111111111101011001101;
	49413 :	11111111111111111111100001010101;
	49412 :	00000000000000000000111101011010;
	49411 :	11111111111111111111111110011011;
	49410 :	11111111111111111110111100100101;
	49409 :	11111111111111111101100100101001;
	49408 :	11111111111111111110010111111100;
	49407 :	00000000000000000001110001101010;
	49406 :	11111111111111111111110110011110;
	49405 :	11111111111111111111000001001000;
	49404 :	00000000000000000000001011000101;
	49403 :	11111111111111111110100101111111;
	49402 :	00000000000000000001111111001100;
	49401 :	11111111111111111101101110001000;
	49400 :	11111111111111111111100111010111;
	49399 :	00000000000000000000001000101001;
	49398 :	00000000000000000001000001101001;
	49397 :	00000000000000000010000001001100;
	49396 :	00000000000000000010100000110001;
	49395 :	00000000000000000001000010011001;
	49394 :	00000000000000000001101011101001;
	49393 :	11111111111111111110100110010110;
	49392 :	11111111111111111111101000111110;
	49391 :	11111111111111111111101010000110;
	49390 :	00000000000000000001000000000010;
	49389 :	00000000000000000010100101101101;
	49388 :	00000000000000000010000000010001;
	49387 :	00000000000000000001100100000100;
	49386 :	11111111111111111110101110110010;
	49385 :	11111111111111111111101111111101;
	49384 :	11111111111111111110000110001100;
	49383 :	00000000000000000001001000110000;
	49382 :	00000000000000000010001000101111;
	49381 :	11111111111111111110000111011110;
	49380 :	00000000000000000010011011001101;
	49379 :	11111111111111111111110111001100;
	49378 :	11111111111111111110010010101111;
	49377 :	00000000000000000001100110001100;
	49376 :	11111111111111111110101111000100;
	49375 :	11111111111111111111000010101101;
	49374 :	11111111111111111110110101001111;
	49373 :	11111111111111111111011111110011;
	49372 :	00000000000000000001000101001111;
	49371 :	11111111111111111101010111101110;
	49370 :	00000000000000000010010111111001;
	49369 :	00000000000000000001001000011100;
	49368 :	00000000000000000001111100011111;
	49367 :	11111111111111111110111110110000;
	49366 :	11111111111111111101100110010101;
	49365 :	00000000000000000010010000111101;
	49364 :	00000000000000000001110001111001;
	49363 :	00000000000000000001011100100101;
	49362 :	11111111111111111111011100111101;
	49361 :	00000000000000000000101110101010;
	49360 :	00000000000000000010000101011100;
	49359 :	00000000000000000000110100101101;
	49358 :	11111111111111111110111011100100;
	49357 :	11111111111111111111011100010100;
	49356 :	11111111111111111111100110001101;
	49355 :	11111111111111111101010011110101;
	49354 :	00000000000000000001110110011011;
	49353 :	11111111111111111110110011010110;
	49352 :	11111111111111111111100111101111;
	49351 :	11111111111111111111011011001011;
	49350 :	11111111111111111101000000011100;
	49349 :	00000000000000000000101110110000;
	49348 :	00000000000000000001111100010110;
	49347 :	00000000000000000000110101101110;
	49346 :	11111111111111111101100001001100;
	49345 :	11111111111111111111100001100101;
	49344 :	11111111111111111110111000011011;
	49343 :	11111111111111111101010110101100;
	49342 :	00000000000000000000001101011110;
	49341 :	11111111111111111111010110011110;
	49340 :	11111111111111111111111101100111;
	49339 :	00000000000000000001100001001001;
	49338 :	00000000000000000000001001011100;
	49337 :	00000000000000000000100010001101;
	49336 :	11111111111111111111011001101000;
	49335 :	00000000000000000000111011001100;
	49334 :	00000000000000000000111011100100;
	49333 :	11111111111111111111110010001010;
	49332 :	00000000000000000001001101000000;
	49331 :	00000000000000000010101001011010;
	49330 :	11111111111111111101111100000101;
	49329 :	00000000000000000010110101011101;
	49328 :	00000000000000000001100000001101;
	49327 :	00000000000000000011010011010110;
	49326 :	00000000000000000001110010010100;
	49325 :	00000000000000000000001111000101;
	49324 :	11111111111111111110110100011101;
	49323 :	00000000000000000011000111000111;
	49322 :	11111111111111111111110110101010;
	49321 :	11111111111111111110110010110101;
	49320 :	11111111111111111111100010100101;
	49319 :	11111111111111111110111111010110;
	49318 :	11111111111111111111110001011010;
	49317 :	11111111111111111110111110101010;
	49316 :	00000000000000000000100111110111;
	49315 :	11111111111111111101010000011001;
	49314 :	11111111111111111110100110001101;
	49313 :	11111111111111111110111011100010;
	49312 :	00000000000000000001100111111100;
	49311 :	00000000000000000010011001101111;
	49310 :	11111111111111111110101100010001;
	49309 :	11111111111111111111110000010101;
	49308 :	00000000000000000000011000110100;
	49307 :	00000000000000000010001010000000;
	49306 :	11111111111111111111101010110100;
	49305 :	00000000000000000000110010110000;
	49304 :	11111111111111111110110111110011;
	49303 :	11111111111111111110110001100111;
	49302 :	11111111111111111101110101001110;
	49301 :	00000000000000000001001011010011;
	49300 :	00000000000000000000000011110111;
	49299 :	11111111111111111111000001110100;
	49298 :	11111111111111111111011000011010;
	49297 :	00000000000000000001011010011101;
	49296 :	00000000000000000000011000001100;
	49295 :	00000000000000000100100000000010;
	49294 :	00000000000000000011000111100010;
	49293 :	00000000000000000101011011000100;
	49292 :	00000000000000000101010100100010;
	49291 :	00000000000000000100111011011001;
	49290 :	00000000000000000010111011100001;
	49289 :	00000000000000000001001000011011;
	49288 :	00000000000000000010111010100101;
	49287 :	00000000000000000001001101111000;
	49286 :	11111111111111111101101111011100;
	49285 :	11111111111111111100100001100010;
	49284 :	00000000000000000000000000011001;
	49283 :	11111111111111111110001000000101;
	49282 :	00000000000000000010000110011100;
	49281 :	00000000000000000001100101110111;
	49280 :	00000000000000000010011010011101;
	49279 :	11111111111111111111001110001011;
	49278 :	00000000000000000001000110010100;
	49277 :	00000000000000000001110001001110;
	49276 :	11111111111111111110111101100001;
	49275 :	11111111111111111111011011101100;
	49274 :	00000000000000000000001001100011;
	49273 :	11111111111111111111011111100101;
	49272 :	11111111111111111110001111111010;
	49271 :	11111111111111111101111110111101;
	49270 :	00000000000000000001010010101010;
	49269 :	00000000000000000000000000111011;
	49268 :	00000000000000000100100101101010;
	49267 :	00000000000000000110011000111011;
	49266 :	00000000000000000010001010100011;
	49265 :	00000000000000000100010110100010;
	49264 :	00000000000000000100111101011101;
	49263 :	00000000000000000100011001100000;
	49262 :	00000000000000000001101001011111;
	49261 :	00000000000000000010000010001111;
	49260 :	00000000000000000011100010110001;
	49259 :	11111111111111111110101011011001;
	49258 :	11111111111111111111100001101000;
	49257 :	11111111111111111110101100111100;
	49256 :	11111111111111111101010110011010;
	49255 :	00000000000000000000010010000110;
	49254 :	00000000000000000010010100010011;
	49253 :	11111111111111111101100111111011;
	49252 :	11111111111111111110110111110101;
	49251 :	11111111111111111110101000111101;
	49250 :	00000000000000000001001001010011;
	49249 :	00000000000000000001010011110101;
	49248 :	11111111111111111110101110001010;
	49247 :	11111111111111111101001000010100;
	49246 :	11111111111111111101011100100100;
	49245 :	11111111111111111110101100101000;
	49244 :	11111111111111111110100111010000;
	49243 :	11111111111111111110111110000001;
	49242 :	11111111111111111101101001100100;
	49241 :	00000000000000000000111000010100;
	49240 :	00000000000000000000111111011111;
	49239 :	11111111111111111111110101111110;
	49238 :	00000000000000000011111100101100;
	49237 :	00000000000000000010000010000000;
	49236 :	00000000000000000101010110011110;
	49235 :	00000000000000000110110001010101;
	49234 :	00000000000000000100111101011111;
	49233 :	11111111111111111111101001000010;
	49232 :	00000000000000000001100111010101;
	49231 :	00000000000000000000000010101110;
	49230 :	11111111111111111110111001101100;
	49229 :	11111111111111111111011001111110;
	49228 :	11111111111111111111111000011001;
	49227 :	11111111111111111111001101101111;
	49226 :	00000000000000000000010100100011;
	49225 :	11111111111111111111011111101100;
	49224 :	00000000000000000001010011001101;
	49223 :	11111111111111111101101110000001;
	49222 :	00000000000000000010101000100000;
	49221 :	00000000000000000001010010101110;
	49220 :	11111111111111111100101100011100;
	49219 :	11111111111111111110010101100100;
	49218 :	11111111111111111110100101101000;
	49217 :	00000000000000000000110101001001;
	49216 :	00000000000000000010100000010011;
	49215 :	11111111111111111110101000001100;
	49214 :	00000000000000000000100110000110;
	49213 :	11111111111111111111010100011000;
	49212 :	11111111111111111100100110001011;
	49211 :	11111111111111111101100010000110;
	49210 :	00000000000000000000001110101010;
	49209 :	11111111111111111111100001010111;
	49208 :	00000000000000000010101110111010;
	49207 :	00000000000000000100111001111110;
	49206 :	00000000000000000101011111100001;
	49205 :	00000000000000000011001011111111;
	49204 :	00000000000000000010111101001111;
	49203 :	00000000000000000011100001111000;
	49202 :	00000000000000000011001110110111;
	49201 :	00000000000000000000110100101001;
	49200 :	11111111111111111111000100011100;
	49199 :	00000000000000000000101111011011;
	49198 :	00000000000000000010100110100101;
	49197 :	00000000000000000010001100111001;
	49196 :	11111111111111111101110111100110;
	49195 :	11111111111111111111110100010100;
	49194 :	11111111111111111111100111001000;
	49193 :	11111111111111111111001010010010;
	49192 :	11111111111111111101010111000100;
	49191 :	11111111111111111111000001010110;
	49190 :	11111111111111111101100000111110;
	49189 :	11111111111111111101100111010001;
	49188 :	11111111111111111110000010011000;
	49187 :	00000000000000000000001110001110;
	49186 :	00000000000000000000100101010001;
	49185 :	11111111111111111101010100000000;
	49184 :	11111111111111111100110010101000;
	49183 :	11111111111111111100110010001111;
	49182 :	11111111111111111011000000000100;
	49181 :	11111111111111111110010111001001;
	49180 :	11111111111111111111111111010101;
	49179 :	00000000000000000100000010011000;
	49178 :	00000000000000000100111110001111;
	49177 :	00000000000000000100110110110000;
	49176 :	00000000000000000000111100000011;
	49175 :	00000000000000000000011111111100;
	49174 :	00000000000000000000110111100000;
	49173 :	11111111111111111111111000111110;
	49172 :	00000000000000000001001010011101;
	49171 :	11111111111111111111101001011010;
	49170 :	11111111111111111101111111111101;
	49169 :	00000000000000000010010111101011;
	49168 :	11111111111111111110101110010111;
	49167 :	11111111111111111110010001010111;
	49166 :	00000000000000000010011001010010;
	49165 :	11111111111111111111111000110111;
	49164 :	11111111111111111100111001100100;
	49163 :	00000000000000000000011100100011;
	49162 :	11111111111111111100001000101110;
	49161 :	00000000000000000000011111010101;
	49160 :	00000000000000000000100111110000;
	49159 :	11111111111111111101101111010011;
	49158 :	00000000000000000001100000110101;
	49157 :	11111111111111111110101000001100;
	49156 :	00000000000000000000011001000011;
	49155 :	11111111111111111110100010111111;
	49154 :	11111111111111111011110111000101;
	49153 :	11111111111111111101101000110011;
	49152 :	00000000000000000000010100101110;
	49151 :	11111111111111111111000000101010;
	49150 :	00000000000000000000010000100101;
	49149 :	00000000000000000001100100011000;
	49148 :	00000000000000000001111000000100;
	49147 :	00000000000000000001111110000010;
	49146 :	00000000000000000000111001000110;
	49145 :	00000000000000000001011101111100;
	49144 :	11111111111111111111001001111011;
	49143 :	11111111111111111111100101011010;
	49142 :	00000000000000000001011111011011;
	49141 :	11111111111111111110000100111100;
	49140 :	11111111111111111101110000111001;
	49139 :	00000000000000000000110011111001;
	49138 :	11111111111111111111111010101100;
	49137 :	11111111111111111111010100011110;
	49136 :	11111111111111111100111110110011;
	49135 :	11111111111111111100011100010110;
	49134 :	11111111111111111100110011000010;
	49133 :	11111111111111111010111001101011;
	49132 :	00000000000000000000110110000100;
	49131 :	11111111111111111110001010001011;
	49130 :	00000000000000000010010010111110;
	49129 :	11111111111111111111000010011110;
	49128 :	11111111111111111101111010101000;
	49127 :	11111111111111111100101110011111;
	49126 :	11111111111111111100001111001111;
	49125 :	11111111111111111001101101001000;
	49124 :	00000000000000000001110101101001;
	49123 :	11111111111111111111011111111100;
	49122 :	00000000000000000010000000111111;
	49121 :	11111111111111111111111100000010;
	49120 :	11111111111111111111111100111001;
	49119 :	00000000000000000010100001111010;
	49118 :	00000000000000000010110100100100;
	49117 :	00000000000000000001101111111011;
	49116 :	00000000000000000001000101111011;
	49115 :	11111111111111111110101000100000;
	49114 :	00000000000000000001100110101011;
	49113 :	11111111111111111110110000000110;
	49112 :	11111111111111111110100110110000;
	49111 :	11111111111111111110100010010010;
	49110 :	11111111111111111111000101110011;
	49109 :	11111111111111111101101110000100;
	49108 :	11111111111111111101100011110100;
	49107 :	00000000000000000000101010100111;
	49106 :	11111111111111111110011101011110;
	49105 :	11111111111111111101010010011111;
	49104 :	00000000000000000000011111010011;
	49103 :	11111111111111111110101001011011;
	49102 :	11111111111111111111100001100000;
	49101 :	00000000000000000001110010000101;
	49100 :	11111111111111111111101101010111;
	49099 :	11111111111111111001111001010010;
	49098 :	11111111111111111011011011100110;
	49097 :	11111111111111111011101101000001;
	49096 :	11111111111111111110111000001001;
	49095 :	11111111111111111111100000111000;
	49094 :	11111111111111111111011011111000;
	49093 :	11111111111111111101011101010110;
	49092 :	11111111111111111111100000011000;
	49091 :	11111111111111111101100111010010;
	49090 :	11111111111111111110110101000111;
	49089 :	00000000000000000001100010100010;
	49088 :	11111111111111111101101000010000;
	49087 :	11111111111111111110101010100000;
	49086 :	11111111111111111101101100011001;
	49085 :	00000000000000000001110000010110;
	49084 :	00000000000000000000111101000001;
	49083 :	11111111111111111110011101100000;
	49082 :	11111111111111111101111000100010;
	49081 :	00000000000000000000110111101011;
	49080 :	11111111111111111100100011011100;
	49079 :	00000000000000000000100111001011;
	49078 :	00000000000000000000011111111110;
	49077 :	11111111111111111100000110000001;
	49076 :	11111111111111111111110000011100;
	49075 :	11111111111111111101101000101001;
	49074 :	00000000000000000000110001100011;
	49073 :	11111111111111111101100010010111;
	49072 :	11111111111111111100010001011001;
	49071 :	11111111111111111101100111000110;
	49070 :	11111111111111111101110001110001;
	49069 :	11111111111111111110011010001010;
	49068 :	00000000000000000010110010001101;
	49067 :	00000000000000000011001001001101;
	49066 :	11111111111111111100110101100001;
	49065 :	00000000000000000000001001001111;
	49064 :	00000000000000000001010110100110;
	49063 :	11111111111111111101111100001011;
	49062 :	11111111111111111011000011001101;
	49061 :	00000000000000000001001000010010;
	49060 :	11111111111111111101110010010001;
	49059 :	00000000000000000001010111000001;
	49058 :	11111111111111111101101100001010;
	49057 :	11111111111111111111101110000011;
	49056 :	00000000000000000010100011011011;
	49055 :	11111111111111111101011011011001;
	49054 :	11111111111111111101011000101011;
	49053 :	00000000000000000001100110000011;
	49052 :	00000000000000000000111101000010;
	49051 :	11111111111111111101100001111001;
	49050 :	11111111111111111100110111100101;
	49049 :	11111111111111111100100000011111;
	49048 :	11111111111111111111010100000111;
	49047 :	11111111111111111110100110101001;
	49046 :	11111111111111111101001010111110;
	49045 :	11111111111111111101100001011011;
	49044 :	11111111111111111101001011100000;
	49043 :	11111111111111111101010110001001;
	49042 :	00000000000000000001001111100010;
	49041 :	00000000000000000010100010000100;
	49040 :	00000000000000000011000111010010;
	49039 :	00000000000000000010101001010010;
	49038 :	11111111111111111101010000000101;
	49037 :	11111111111111111110100000010011;
	49036 :	11111111111111111011111111000100;
	49035 :	11111111111111111111110000101111;
	49034 :	11111111111111111100010101010101;
	49033 :	11111111111111111100110010100000;
	49032 :	00000000000000000001110011100110;
	49031 :	11111111111111111111110110011111;
	49030 :	00000000000000000001010011001100;
	49029 :	11111111111111111110101011111011;
	49028 :	00000000000000000000001000000011;
	49027 :	11111111111111111101111011100011;
	49026 :	00000000000000000010001000011010;
	49025 :	11111111111111111110110110101001;
	49024 :	00000000000000000000001000010110;
	49023 :	11111111111111111100000101001001;
	49022 :	11111111111111111110101110011000;
	49021 :	11111111111111111110000110101101;
	49020 :	11111111111111111110111000110000;
	49019 :	11111111111111111100111000101111;
	49018 :	11111111111111111111010101101001;
	49017 :	11111111111111111101110001110010;
	49016 :	11111111111111111011011100100001;
	49015 :	00000000000000000000110001100100;
	49014 :	00000000000000000011010111100010;
	49013 :	00000000000000000101110001000001;
	49012 :	00000000000000000100000000110111;
	49011 :	00000000000000000010001010110000;
	49010 :	00000000000000000001110101100101;
	49009 :	11111111111111111110000101000010;
	49008 :	11111111111111111110011000000111;
	49007 :	11111111111111111101110110100011;
	49006 :	11111111111111111100010101011010;
	49005 :	11111111111111111110110000010000;
	49004 :	11111111111111111111110010010000;
	49003 :	11111111111111111110001011101010;
	49002 :	11111111111111111101100111100000;
	49001 :	11111111111111111111111110000100;
	49000 :	11111111111111111110011100101011;
	48999 :	00000000000000000010010101101000;
	48998 :	00000000000000000010001011111000;
	48997 :	11111111111111111110111110010001;
	48996 :	11111111111111111111011011010100;
	48995 :	11111111111111111110100110001001;
	48994 :	11111111111111111100100000100100;
	48993 :	11111111111111111111000001000111;
	48992 :	11111111111111111100100101110010;
	48991 :	11111111111111111101100100101110;
	48990 :	11111111111111111101110111000010;
	48989 :	11111111111111111101111101100111;
	48988 :	11111111111111111110100101000011;
	48987 :	00000000000000000101111101101101;
	48986 :	00000000000000000011010110101001;
	48985 :	00000000000000000011101000011110;
	48984 :	00000000000000000101001000111011;
	48983 :	00000000000000000001110010111110;
	48982 :	00000000000000000000001011100101;
	48981 :	00000000000000000001001011000101;
	48980 :	00000000000000000000110111110010;
	48979 :	11111111111111111101011101010011;
	48978 :	00000000000000000000010011110101;
	48977 :	11111111111111111101011101000111;
	48976 :	11111111111111111101100100110010;
	48975 :	11111111111111111111111010100000;
	48974 :	11111111111111111110111101101111;
	48973 :	00000000000000000001001110011110;
	48972 :	00000000000000000001010010110001;
	48971 :	00000000000000000001010010111001;
	48970 :	11111111111111111101011111110011;
	48969 :	00000000000000000000100000111000;
	48968 :	00000000000000000000100000101001;
	48967 :	11111111111111111111000110110010;
	48966 :	00000000000000000001010100010101;
	48965 :	00000000000000000000110001011110;
	48964 :	11111111111111111111011111101001;
	48963 :	11111111111111111101110010010010;
	48962 :	11111111111111111110011000000100;
	48961 :	00000000000000000010101010110111;
	48960 :	11111111111111111110111100101110;
	48959 :	00000000000000000001101100110000;
	48958 :	00000000000000000101011001011101;
	48957 :	00000000000000001001111001011010;
	48956 :	00000000000000000011011101010101;
	48955 :	11111111111111111111001100110010;
	48954 :	11111111111111111110100100010111;
	48953 :	00000000000000000001100011110111;
	48952 :	11111111111111111111010110101000;
	48951 :	11111111111111111110000010101100;
	48950 :	00000000000000000000000110101011;
	48949 :	11111111111111111110010101011000;
	48948 :	11111111111111111110000010111001;
	48947 :	11111111111111111110101110111010;
	48946 :	11111111111111111111111110011001;
	48945 :	11111111111111111101111111001100;
	48944 :	11111111111111111110011001010011;
	48943 :	11111111111111111111101111001001;
	48942 :	00000000000000000000000111011101;
	48941 :	00000000000000000001111111000001;
	48940 :	00000000000000000011001101110010;
	48939 :	00000000000000000011001011100111;
	48938 :	00000000000000000000010001101110;
	48937 :	11111111111111111101101110000011;
	48936 :	11111111111111111101010111011110;
	48935 :	11111111111111111111010101110111;
	48934 :	11111111111111111111111001011100;
	48933 :	00000000000000000001000100001101;
	48932 :	00000000000000000011010010011010;
	48931 :	00000000000000000010001111100011;
	48930 :	00000000000000000100111110011001;
	48929 :	00000000000000000011110111001101;
	48928 :	00000000000000000010010101111101;
	48927 :	11111111111111111111000111010100;
	48926 :	00000000000000000000101010111001;
	48925 :	00000000000000000000000100110101;
	48924 :	00000000000000000001110110010110;
	48923 :	00000000000000000010100101111010;
	48922 :	00000000000000000001010001001000;
	48921 :	11111111111111111111100110100111;
	48920 :	11111111111111111111001000011011;
	48919 :	00000000000000000000000000011000;
	48918 :	11111111111111111111111000111100;
	48917 :	00000000000000000010000010100000;
	48916 :	00000000000000000001100000111111;
	48915 :	00000000000000000001111010000000;
	48914 :	00000000000000000010011000101000;
	48913 :	11111111111111111110101001111110;
	48912 :	00000000000000000000101011100011;
	48911 :	00000000000000000000100010101100;
	48910 :	00000000000000000001001011101001;
	48909 :	00000000000000000000111011111010;
	48908 :	00000000000000000000100011100110;
	48907 :	11111111111111111101010110011001;
	48906 :	00000000000000000010101110000111;
	48905 :	11111111111111111101101011010100;
	48904 :	00000000000000000010001101100001;
	48903 :	11111111111111111111001011011001;
	48902 :	00000000000000000001100000000100;
	48901 :	11111111111111111110100111100101;
	48900 :	00000000000000000000111100111000;
	48899 :	11111111111111111101101000100101;
	48898 :	00000000000000000000111000011000;
	48897 :	00000000000000000000100101000110;
	48896 :	11111111111111111111010110011010;
	48895 :	00000000000000000001010110011101;
	48894 :	11111111111111111111110011111010;
	48893 :	11111111111111111111010100011111;
	48892 :	11111111111111111110101010000001;
	48891 :	00000000000000000010011010000111;
	48890 :	00000000000000000010010011111000;
	48889 :	11111111111111111101011000111111;
	48888 :	11111111111111111101101110011111;
	48887 :	00000000000000000001101100001011;
	48886 :	11111111111111111111110010110101;
	48885 :	00000000000000000000001001100001;
	48884 :	00000000000000000011000001110110;
	48883 :	00000000000000000011011101001110;
	48882 :	00000000000000000011001100101001;
	48881 :	11111111111111111111100100010100;
	48880 :	00000000000000000001011101101100;
	48879 :	00000000000000000010001010010010;
	48878 :	11111111111111111110011111010111;
	48877 :	11111111111111111110110100000010;
	48876 :	00000000000000000010000010001110;
	48875 :	11111111111111111111011101100111;
	48874 :	00000000000000000001000011010010;
	48873 :	11111111111111111110111101010010;
	48872 :	11111111111111111110100111101000;
	48871 :	11111111111111111111010101001011;
	48870 :	00000000000000000001100001101001;
	48869 :	00000000000000000000011111001111;
	48868 :	00000000000000000000101000111001;
	48867 :	00000000000000000010001010011001;
	48866 :	00000000000000000010101001101101;
	48865 :	11111111111111111111101000001011;
	48864 :	11111111111111111101011101100111;
	48863 :	11111111111111111110100110101010;
	48862 :	00000000000000000000100101101100;
	48861 :	11111111111111111111010111111011;
	48860 :	11111111111111111110101001011010;
	48859 :	11111111111111111111001010100000;
	48858 :	00000000000000000001011011101111;
	48857 :	00000000000000000010101110110010;
	48856 :	00000000000000000111000001110100;
	48855 :	00000000000000000011101010100111;
	48854 :	00000000000000000001011100110100;
	48853 :	00000000000000000001110001001101;
	48852 :	00000000000000000000110100110101;
	48851 :	00000000000000000010010000000100;
	48850 :	00000000000000000001011000110001;
	48849 :	00000000000000000011000110000000;
	48848 :	00000000000000000101011110001100;
	48847 :	00000000000000000010011111001110;
	48846 :	11111111111111111110101100011010;
	48845 :	00000000000000000010110100001000;
	48844 :	11111111111111111111000101111000;
	48843 :	11111111111111111110111100111000;
	48842 :	11111111111111111111001110001101;
	48841 :	00000000000000000000100001010100;
	48840 :	00000000000000000001010100100101;
	48839 :	00000000000000000000100100011011;
	48838 :	00000000000000000001110111101011;
	48837 :	00000000000000000010001101110001;
	48836 :	11111111111111111101111111000010;
	48835 :	11111111111111111110101000110110;
	48834 :	00000000000000000001011101010111;
	48833 :	00000000000000000001001001000110;
	48832 :	00000000000000000010010010010101;
	48831 :	11111111111111111110000000100011;
	48830 :	11111111111111111111000101011111;
	48829 :	00000000000000000010111111011111;
	48828 :	00000000000000000100001100010001;
	48827 :	00000000000000000011101011111011;
	48826 :	00000000000000000010110011010111;
	48825 :	11111111111111111111010001010110;
	48824 :	00000000000000000011011010110111;
	48823 :	00000000000000000000110101100011;
	48822 :	00000000000000000011101010100010;
	48821 :	00000000000000000011001001101010;
	48820 :	00000000000000000010011110011011;
	48819 :	00000000000000000011010010011011;
	48818 :	11111111111111111111111100000010;
	48817 :	00000000000000000001101011110000;
	48816 :	00000000000000000000000000111001;
	48815 :	00000000000000000000111100001010;
	48814 :	00000000000000000010010110010101;
	48813 :	00000000000000000010110001011101;
	48812 :	00000000000000000010011001110000;
	48811 :	00000000000000000000011100100100;
	48810 :	00000000000000000000010010011010;
	48809 :	11111111111111111111000011001101;
	48808 :	11111111111111111110001101110110;
	48807 :	11111111111111111110100110011010;
	48806 :	11111111111111111101111111011010;
	48805 :	00000000000000000010010110100011;
	48804 :	11111111111111111101111101100001;
	48803 :	11111111111111111110110001100000;
	48802 :	11111111111111111111000010111100;
	48801 :	11111111111111111111101001110101;
	48800 :	00000000000000000011100100111111;
	48799 :	00000000000000000010111111111001;
	48798 :	00000000000000000001011111001100;
	48797 :	00000000000000000000101111110010;
	48796 :	00000000000000000100011000110101;
	48795 :	00000000000000000011010001001010;
	48794 :	00000000000000000000000010111111;
	48793 :	11111111111111111110010011100000;
	48792 :	00000000000000000001011010010111;
	48791 :	00000000000000000010100000101111;
	48790 :	11111111111111111101110110011011;
	48789 :	11111111111111111101101110011000;
	48788 :	00000000000000000001010000111000;
	48787 :	11111111111111111110101010100100;
	48786 :	11111111111111111100101100100011;
	48785 :	11111111111111111110000110110100;
	48784 :	11111111111111111101001010101011;
	48783 :	11111111111111111111111010101110;
	48782 :	00000000000000000000100010101001;
	48781 :	00000000000000000000011000111011;
	48780 :	11111111111111111101101010010101;
	48779 :	11111111111111111111000011010111;
	48778 :	00000000000000000000100101010000;
	48777 :	00000000000000000001000010110010;
	48776 :	00000000000000000000111000001110;
	48775 :	11111111111111111101011110101110;
	48774 :	00000000000000000010001001011011;
	48773 :	11111111111111111111010010000111;
	48772 :	00000000000000000000100011010111;
	48771 :	00000000000000000001010010011001;
	48770 :	00000000000000000010011000101010;
	48769 :	00000000000000000001110010111010;
	48768 :	00000000000000000001101011101001;
	48767 :	00000000000000000011101000010101;
	48766 :	00000000000000000001010011000000;
	48765 :	00000000000000000001110000000000;
	48764 :	11111111111111111110100101101000;
	48763 :	00000000000000000000110110010111;
	48762 :	11111111111111111110101011001111;
	48761 :	11111111111111111101100000110000;
	48760 :	11111111111111111110110111100000;
	48759 :	11111111111111111111010011110111;
	48758 :	11111111111111111111000010000110;
	48757 :	11111111111111111010111101101101;
	48756 :	11111111111111111110101001011010;
	48755 :	11111111111111111110110011100100;
	48754 :	11111111111111111101010101110001;
	48753 :	11111111111111111101010010110101;
	48752 :	11111111111111111101111001101111;
	48751 :	11111111111111111111111110110111;
	48750 :	00000000000000000010100100101011;
	48749 :	11111111111111111101010111000110;
	48748 :	00000000000000000000010011100101;
	48747 :	00000000000000000010100111010100;
	48746 :	11111111111111111111011111110010;
	48745 :	11111111111111111110110101101000;
	48744 :	11111111111111111110001001100110;
	48743 :	00000000000000000000011011001001;
	48742 :	00000000000000000010000111011100;
	48741 :	00000000000000000010111010111101;
	48740 :	11111111111111111111010101111110;
	48739 :	00000000000000000010000110110001;
	48738 :	00000000000000000001110111100100;
	48737 :	11111111111111111111111011011101;
	48736 :	00000000000000000001011110001010;
	48735 :	11111111111111111111101111001001;
	48734 :	11111111111111111110110111111001;
	48733 :	11111111111111111011110011100110;
	48732 :	11111111111111111100000110001110;
	48731 :	11111111111111111111001000001110;
	48730 :	11111111111111111111110110111011;
	48729 :	11111111111111111101001010010011;
	48728 :	11111111111111111110001100100101;
	48727 :	11111111111111111111100100010001;
	48726 :	00000000000000000001110111001010;
	48725 :	00000000000000000001001001010101;
	48724 :	11111111111111111110111000011111;
	48723 :	00000000000000000000101111010000;
	48722 :	00000000000000000001010011110110;
	48721 :	11111111111111111111011001111110;
	48720 :	11111111111111111111111000110010;
	48719 :	11111111111111111110010011001000;
	48718 :	00000000000000000010001011010011;
	48717 :	00000000000000000001010000110110;
	48716 :	00000000000000000000100101011000;
	48715 :	00000000000000000010111111111110;
	48714 :	00000000000000000000100110000110;
	48713 :	00000000000000000011011100110000;
	48712 :	11111111111111111111111011000001;
	48711 :	00000000000000000001001001001111;
	48710 :	00000000000000000000001100101111;
	48709 :	11111111111111111111000100101000;
	48708 :	11111111111111111101111111100000;
	48707 :	11111111111111111110100101010100;
	48706 :	00000000000000000000010101001100;
	48705 :	11111111111111111110101110010011;
	48704 :	11111111111111111011110110110011;
	48703 :	11111111111111111101010000100100;
	48702 :	11111111111111111100100011110100;
	48701 :	11111111111111111111001100111101;
	48700 :	11111111111111111110001101000001;
	48699 :	00000000000000000010011111101110;
	48698 :	00000000000000000001010110000011;
	48697 :	00000000000000000001100000100010;
	48696 :	11111111111111111111111110100011;
	48695 :	00000000000000000000011101110001;
	48694 :	11111111111111111101011100100000;
	48693 :	00000000000000000001100111010101;
	48692 :	11111111111111111110001000010010;
	48691 :	11111111111111111111111010101101;
	48690 :	11111111111111111101101010011101;
	48689 :	00000000000000000010011011010110;
	48688 :	11111111111111111101100010101001;
	48687 :	11111111111111111111110011110011;
	48686 :	11111111111111111111001011010110;
	48685 :	00000000000000000000110110011111;
	48684 :	11111111111111111110001100110100;
	48683 :	00000000000000000010100000111110;
	48682 :	00000000000000000000001101000100;
	48681 :	11111111111111111110100000011100;
	48680 :	00000000000000000000001101001100;
	48679 :	00000000000000000000110100101110;
	48678 :	00000000000000000001001111000001;
	48677 :	11111111111111111111100100001001;
	48676 :	11111111111111111111111100011111;
	48675 :	11111111111111111111101111011101;
	48674 :	00000000000000000000000101100110;
	48673 :	00000000000000000001101010110111;
	48672 :	11111111111111111101100011001011;
	48671 :	11111111111111111101111101010101;
	48670 :	00000000000000000010011001111111;
	48669 :	00000000000000000010001110001011;
	48668 :	11111111111111111111011101100011;
	48667 :	11111111111111111111011101011111;
	48666 :	00000000000000000010100101010100;
	48665 :	11111111111111111110100101110001;
	48664 :	00000000000000000000101111010101;
	48663 :	11111111111111111111011001111111;
	48662 :	00000000000000000001110011000101;
	48661 :	11111111111111111110000000000101;
	48660 :	00000000000000000000010000111001;
	48659 :	00000000000000000001100101001001;
	48658 :	00000000000000000010011101101110;
	48657 :	11111111111111111110011010000110;
	48656 :	11111111111111111111110110000010;
	48655 :	11111111111111111110101111111010;
	48654 :	00000000000000000001001011010111;
	48653 :	00000000000000000000111101111010;
	48652 :	11111111111111111111110010110000;
	48651 :	00000000000000000001110001110101;
	48650 :	00000000000000000000001100001011;
	48649 :	11111111111111111111111011100111;
	48648 :	11111111111111111111001110010111;
	48647 :	11111111111111111110000111010001;
	48646 :	11111111111111111101111111011111;
	48645 :	00000000000000000000001001000100;
	48644 :	11111111111111111110100000010100;
	48643 :	00000000000000000001001111000100;
	48642 :	00000000000000000000001100101110;
	48641 :	00000000000000000010001000101111;
	48640 :	00000000000000000000010111000001;
	48639 :	00000000000000000001000100000110;
	48638 :	00000000000000000001011010011100;
	48637 :	11111111111111111101101100001100;
	48636 :	00000000000000000000100011011010;
	48635 :	00000000000000000010000010010011;
	48634 :	11111111111111111101110011101011;
	48633 :	11111111111111111111000101111100;
	48632 :	11111111111111111101010101000101;
	48631 :	00000000000000000000011011110110;
	48630 :	11111111111111111101010011111101;
	48629 :	11111111111111111111101010100111;
	48628 :	00000000000000000001110111101111;
	48627 :	00000000000000000001010101100001;
	48626 :	00000000000000000000100011101111;
	48625 :	11111111111111111111010000101100;
	48624 :	11111111111111111101110010110110;
	48623 :	00000000000000000010010010101001;
	48622 :	11111111111111111101011010111011;
	48621 :	00000000000000000010100000011101;
	48620 :	11111111111111111111010001001101;
	48619 :	00000000000000000001110000101100;
	48618 :	00000000000000000000001111110101;
	48617 :	11111111111111111101101010101000;
	48616 :	00000000000000000010011010100100;
	48615 :	11111111111111111110101001000101;
	48614 :	00000000000000000000011001100110;
	48613 :	00000000000000000001010000110110;
	48612 :	11111111111111111111011111001010;
	48611 :	00000000000000000001110000100111;
	48610 :	11111111111111111101110100001000;
	48609 :	11111111111111111111010000011110;
	48608 :	11111111111111111111010110101011;
	48607 :	00000000000000000000001010010101;
	48606 :	00000000000000000000100011101011;
	48605 :	00000000000000000001110010011100;
	48604 :	00000000000000000000001000011000;
	48603 :	11111111111111111111111000011111;
	48602 :	11111111111111111110100110110011;
	48601 :	11111111111111111110110110110011;
	48600 :	00000000000000000001010000010011;
	48599 :	00000000000000000000111011110010;
	48598 :	11111111111111111111101000011101;
	48597 :	11111111111111111101010110110010;
	48596 :	00000000000000000000110010010101;
	48595 :	11111111111111111101010111110011;
	48594 :	00000000000000000001110010110001;
	48593 :	11111111111111111101110011000011;
	48592 :	11111111111111111111001110101011;
	48591 :	00000000000000000001010101000011;
	48590 :	00000000000000000010000111101011;
	48589 :	00000000000000000010010001110010;
	48588 :	11111111111111111111000100111111;
	48587 :	11111111111111111110010010111000;
	48586 :	11111111111111111111101000110101;
	48585 :	00000000000000000010000100010110;
	48584 :	00000000000000000001101101101011;
	48583 :	00000000000000000010000111100010;
	48582 :	11111111111111111110101000001011;
	48581 :	00000000000000000000011100000101;
	48580 :	11111111111111111110100101011110;
	48579 :	11111111111111111110010010010100;
	48578 :	11111111111111111110111111110011;
	48577 :	00000000000000000001111001010000;
	48576 :	00000000000000000001011100110101;
	48575 :	11111111111111111111010000101100;
	48574 :	11111111111111111110101100001010;
	48573 :	11111111111111111101101100111101;
	48572 :	00000000000000000001011101001111;
	48571 :	11111111111111111110010000101010;
	48570 :	00000000000000000001110110110000;
	48569 :	00000000000000000000101111100101;
	48568 :	00000000000000000001110010101101;
	48567 :	00000000000000000001100110010101;
	48566 :	11111111111111111110001101100100;
	48565 :	00000000000000000001000101011010;
	48564 :	11111111111111111110000100110010;
	48563 :	11111111111111111111101101101000;
	48562 :	11111111111111111110011110010111;
	48561 :	00000000000000000001100001101100;
	48560 :	11111111111111111110011001000111;
	48559 :	00000000000000000000101011001000;
	48558 :	11111111111111111111100101000111;
	48557 :	11111111111111111101111110000111;
	48556 :	00000000000000000000100110010101;
	48555 :	00000000000000000000001101101011;
	48554 :	00000000000000000001100111100110;
	48553 :	00000000000000000010100111111100;
	48552 :	00000000000000000010010101001000;
	48551 :	00000000000000000000000011100001;
	48550 :	00000000000000000000100011111110;
	48549 :	11111111111111111110100100101000;
	48548 :	00000000000000000001110100001011;
	48547 :	00000000000000000001101111101101;
	48546 :	00000000000000000001011001111001;
	48545 :	11111111111111111110001000100001;
	48544 :	11111111111111111111011100010010;
	48543 :	11111111111111111101111101011110;
	48542 :	11111111111111111111110010110111;
	48541 :	11111111111111111101011101111010;
	48540 :	00000000000000000000000111000101;
	48539 :	11111111111111111110111001001101;
	48538 :	11111111111111111110100010100111;
	48537 :	11111111111111111111011000011011;
	48536 :	00000000000000000001010101100110;
	48535 :	00000000000000000001001011000111;
	48534 :	00000000000000000001000001011101;
	48533 :	00000000000000000000101101100011;
	48532 :	11111111111111111101110110111000;
	48531 :	00000000000000000000011111011011;
	48530 :	11111111111111111101011000011011;
	48529 :	00000000000000000000010101010000;
	48528 :	00000000000000000000001101100001;
	48527 :	00000000000000000010101111001110;
	48526 :	11111111111111111101111010001011;
	48525 :	11111111111111111111001000110001;
	48524 :	00000000000000000001011111000011;
	48523 :	11111111111111111111101101100000;
	48522 :	00000000000000000001011011001110;
	48521 :	00000000000000000001101100100010;
	48520 :	00000000000000000001000011000110;
	48519 :	00000000000000000000011100100011;
	48518 :	00000000000000000000001000001111;
	48517 :	11111111111111111110010010100110;
	48516 :	00000000000000000010000101101011;
	48515 :	00000000000000000000001111011011;
	48514 :	11111111111111111110001011001001;
	48513 :	00000000000000000001001111000011;
	48512 :	00000000000000000001010100001100;
	48511 :	11111111111111111101011111101010;
	48510 :	11111111111111111101000111011001;
	48509 :	11111111111111111110011111110110;
	48508 :	11111111111111111110111011010101;
	48507 :	11111111111111111101111001001111;
	48506 :	00000000000000000000100010110111;
	48505 :	00000000000000000001000001000001;
	48504 :	00000000000000000001110100111111;
	48503 :	11111111111111111111111101000110;
	48502 :	00000000000000000011100000011011;
	48501 :	00000000000000000000001000010001;
	48500 :	11111111111111111110000000101110;
	48499 :	00000000000000000000110111110110;
	48498 :	00000000000000000000000001111110;
	48497 :	00000000000000000000011100010010;
	48496 :	00000000000000000000110100100101;
	48495 :	00000000000000000010101011100100;
	48494 :	00000000000000000001001010001011;
	48493 :	00000000000000000000110001110100;
	48492 :	11111111111111111101111000111011;
	48491 :	00000000000000000001001111000110;
	48490 :	11111111111111111110000001000110;
	48489 :	00000000000000000001000110011110;
	48488 :	00000000000000000001000000110111;
	48487 :	00000000000000000001000001011010;
	48486 :	00000000000000000000101100000001;
	48485 :	11111111111111111101000111110001;
	48484 :	00000000000000000000110011001001;
	48483 :	11111111111111111111000001011001;
	48482 :	11111111111111111011101001111100;
	48481 :	11111111111111111111100110001101;
	48480 :	11111111111111111101100100001111;
	48479 :	00000000000000000010101111101011;
	48478 :	11111111111111111111010101001111;
	48477 :	00000000000000000011000110110010;
	48476 :	00000000000000000011001100111000;
	48475 :	00000000000000000011111000110100;
	48474 :	00000000000000000001001100110110;
	48473 :	00000000000000000010100100110011;
	48472 :	11111111111111111110001000101010;
	48471 :	00000000000000000001111110100001;
	48470 :	00000000000000000000010111001001;
	48469 :	00000000000000000001011111100000;
	48468 :	00000000000000000010011001111011;
	48467 :	00000000000000000001111110010111;
	48466 :	00000000000000000010000110011100;
	48465 :	11111111111111111110001011110100;
	48464 :	00000000000000000001110100101010;
	48463 :	11111111111111111111010010001110;
	48462 :	11111111111111111101010011100111;
	48461 :	11111111111111111110101100111010;
	48460 :	11111111111111111110100010000100;
	48459 :	11111111111111111110001000100111;
	48458 :	11111111111111111110110100000011;
	48457 :	11111111111111111101010111000100;
	48456 :	11111111111111111111000100100000;
	48455 :	11111111111111111111100100010010;
	48454 :	11111111111111111111001110100101;
	48453 :	11111111111111111101010101001010;
	48452 :	11111111111111111111010010111001;
	48451 :	00000000000000000001010101111110;
	48450 :	00000000000000000010010001101110;
	48449 :	00000000000000000001100000011010;
	48448 :	00000000000000000011111010110111;
	48447 :	11111111111111111111010110000101;
	48446 :	11111111111111111111111001101011;
	48445 :	00000000000000000010100101101101;
	48444 :	00000000000000000000011110111001;
	48443 :	00000000000000000010010110100001;
	48442 :	11111111111111111110100010100110;
	48441 :	11111111111111111101111001110000;
	48440 :	11111111111111111110101101001000;
	48439 :	11111111111111111110000111011110;
	48438 :	11111111111111111110000101010101;
	48437 :	00000000000000000000100001001011;
	48436 :	00000000000000000000010011000000;
	48435 :	11111111111111111101100110110011;
	48434 :	00000000000000000000011011100000;
	48433 :	11111111111111111110101111111110;
	48432 :	11111111111111111101101100111111;
	48431 :	11111111111111111101001101000001;
	48430 :	11111111111111111111011101100110;
	48429 :	00000000000000000001110111100110;
	48428 :	11111111111111111101000100000100;
	48427 :	11111111111111111010100110100000;
	48426 :	11111111111111111101110110011001;
	48425 :	11111111111111111010101000110001;
	48424 :	11111111111111111111010100000100;
	48423 :	11111111111111111111110001001110;
	48422 :	00000000000000000011101001101011;
	48421 :	00000000000000000000011110010111;
	48420 :	00000000000000000001001101100001;
	48419 :	00000000000000000000011011110010;
	48418 :	00000000000000000010100001111110;
	48417 :	00000000000000000010000011000001;
	48416 :	11111111111111111110011010111100;
	48415 :	11111111111111111101111101010101;
	48414 :	00000000000000000000110001001001;
	48413 :	11111111111111111110001111010110;
	48412 :	11111111111111111111110100101011;
	48411 :	00000000000000000010011000100001;
	48410 :	11111111111111111110001101010000;
	48409 :	11111111111111111111001100010000;
	48408 :	11111111111111111111111001110101;
	48407 :	11111111111111111110111011111111;
	48406 :	00000000000000000010000110100101;
	48405 :	11111111111111111110001000110100;
	48404 :	00000000000000000001010111101110;
	48403 :	11111111111111111110101000101000;
	48402 :	11111111111111111101010111000001;
	48401 :	11111111111111111111000101110111;
	48400 :	11111111111111111100010100000000;
	48399 :	11111111111111111101110101010100;
	48398 :	11111111111111111101101100011011;
	48397 :	11111111111111111100110001111110;
	48396 :	00000000000000000000100100001100;
	48395 :	00000000000000000011101011000110;
	48394 :	11111111111111111111111100100011;
	48393 :	00000000000000000011011110111101;
	48392 :	00000000000000000000000110011111;
	48391 :	11111111111111111110110111001011;
	48390 :	11111111111111111101011111100110;
	48389 :	00000000000000000001010011001000;
	48388 :	11111111111111111110001111100000;
	48387 :	11111111111111111111011100111110;
	48386 :	00000000000000000000000100011101;
	48385 :	11111111111111111111011001101001;
	48384 :	11111111111111111111100001101000;
	48383 :	11111111111111111101011110100001;
	48382 :	11111111111111111110100000001000;
	48381 :	11111111111111111101111000100101;
	48380 :	11111111111111111111100100001111;
	48379 :	00000000000000000000011010100011;
	48378 :	00000000000000000001001111000111;
	48377 :	11111111111111111101000001010001;
	48376 :	00000000000000000000010000110101;
	48375 :	00000000000000000000011101001101;
	48374 :	00000000000000000010100001011010;
	48373 :	11111111111111111111100110111101;
	48372 :	11111111111111111110000110000100;
	48371 :	11111111111111111101011011010011;
	48370 :	11111111111111111010000111100010;
	48369 :	11111111111111111100101001001001;
	48368 :	00000000000000000011100110001110;
	48367 :	00000000000000000101010101110010;
	48366 :	00000000000000000010000100101001;
	48365 :	00000000000000000001001011110100;
	48364 :	00000000000000000000100000010110;
	48363 :	11111111111111111101000111011101;
	48362 :	11111111111111111110011111010111;
	48361 :	11111111111111111110101111000010;
	48360 :	11111111111111111101111000110001;
	48359 :	11111111111111111110011100100010;
	48358 :	11111111111111111101101001100101;
	48357 :	00000000000000000001010001101110;
	48356 :	00000000000000000001101111001000;
	48355 :	00000000000000000000110100001000;
	48354 :	11111111111111111110011000010010;
	48353 :	11111111111111111101011010100110;
	48352 :	11111111111111111111011001110010;
	48351 :	11111111111111111101100001110000;
	48350 :	00000000000000000000110011101110;
	48349 :	11111111111111111101010011101100;
	48348 :	11111111111111111111110000101000;
	48347 :	11111111111111111111111010001101;
	48346 :	00000000000000000000100010110001;
	48345 :	00000000000000000000101000100100;
	48344 :	11111111111111111100000000111011;
	48343 :	11111111111111111110010010101110;
	48342 :	11111111111111111011000011110010;
	48341 :	00000000000000000010001100111110;
	48340 :	00000000000000000110011001101011;
	48339 :	00000000000000000001010011100000;
	48338 :	11111111111111111111001010000000;
	48337 :	00000000000000000001100001100010;
	48336 :	11111111111111111110100000111001;
	48335 :	00000000000000000001100111001110;
	48334 :	11111111111111111100011001011110;
	48333 :	00000000000000000000000011110110;
	48332 :	00000000000000000000011101010000;
	48331 :	11111111111111111110100011100010;
	48330 :	00000000000000000000011111110101;
	48329 :	00000000000000000001110010011100;
	48328 :	11111111111111111111110110001010;
	48327 :	11111111111111111101011000101101;
	48326 :	00000000000000000010100111100100;
	48325 :	11111111111111111101110100000000;
	48324 :	00000000000000000001100010110001;
	48323 :	00000000000000000010010001010010;
	48322 :	11111111111111111110100110111101;
	48321 :	00000000000000000000111010100000;
	48320 :	00000000000000000010100001110110;
	48319 :	11111111111111111111100101000001;
	48318 :	00000000000000000001010001011110;
	48317 :	11111111111111111110000010111000;
	48316 :	11111111111111111111001011100011;
	48315 :	11111111111111111100000110111001;
	48314 :	11111111111111111101011010101011;
	48313 :	11111111111111111111010001111000;
	48312 :	00000000000000000101100001100011;
	48311 :	00000000000000000010110100001111;
	48310 :	00000000000000000000110111001101;
	48309 :	11111111111111111111101101011010;
	48308 :	11111111111111111110111100000001;
	48307 :	11111111111111111101001111111110;
	48306 :	00000000000000000001011110010110;
	48305 :	00000000000000000000000000000000;
	48304 :	00000000000000000001011100001000;
	48303 :	11111111111111111101010110101000;
	48302 :	00000000000000000000101010111111;
	48301 :	00000000000000000001000111001100;
	48300 :	00000000000000000010101011101101;
	48299 :	00000000000000000000101100000100;
	48298 :	11111111111111111101110001000011;
	48297 :	11111111111111111110000111100110;
	48296 :	11111111111111111110000010000011;
	48295 :	00000000000000000001000100010010;
	48294 :	11111111111111111111110100111111;
	48293 :	11111111111111111111100101001101;
	48292 :	11111111111111111101110011110010;
	48291 :	00000000000000000010101100101011;
	48290 :	00000000000000000000111101001010;
	48289 :	00000000000000000000101001011111;
	48288 :	11111111111111111111100101100110;
	48287 :	00000000000000000000111111010001;
	48286 :	00000000000000000001010111101010;
	48285 :	00000000000000000011001100110100;
	48284 :	00000000000000000011001101000011;
	48283 :	00000000000000000001100101110110;
	48282 :	11111111111111111111010001010000;
	48281 :	11111111111111111110000110110000;
	48280 :	11111111111111111110101001100011;
	48279 :	11111111111111111101101111111001;
	48278 :	11111111111111111101111011110000;
	48277 :	11111111111111111111010001100000;
	48276 :	00000000000000000000000001000010;
	48275 :	11111111111111111111000010110110;
	48274 :	11111111111111111110101011111101;
	48273 :	00000000000000000000110001110000;
	48272 :	00000000000000000001011110110100;
	48271 :	11111111111111111101100100011110;
	48270 :	11111111111111111110111000011100;
	48269 :	00000000000000000000001110100110;
	48268 :	00000000000000000001001101000010;
	48267 :	11111111111111111110100100001011;
	48266 :	11111111111111111110010111111011;
	48265 :	11111111111111111110100001011111;
	48264 :	00000000000000000001000111010110;
	48263 :	11111111111111111111111100111000;
	48262 :	11111111111111111100111110010111;
	48261 :	00000000000000000000100000100100;
	48260 :	11111111111111111101111111000100;
	48259 :	11111111111111111110101101110000;
	48258 :	11111111111111111101100010100101;
	48257 :	00000000000000000000100101001000;
	48256 :	00000000000000000001110010110000;
	48255 :	11111111111111111111111111000000;
	48254 :	11111111111111111111111111110000;
	48253 :	11111111111111111110010101100101;
	48252 :	00000000000000000001000001011000;
	48251 :	11111111111111111110100110110011;
	48250 :	00000000000000000001100111100101;
	48249 :	11111111111111111110110001011010;
	48248 :	00000000000000000000001010001001;
	48247 :	00000000000000000000011100010010;
	48246 :	11111111111111111110101101001100;
	48245 :	00000000000000000000001100010001;
	48244 :	11111111111111111111100110111111;
	48243 :	11111111111111111110000011011010;
	48242 :	00000000000000000000001011101111;
	48241 :	00000000000000000010001010011101;
	48240 :	00000000000000000000101011011011;
	48239 :	00000000000000000010110101101101;
	48238 :	00000000000000000001010100101110;
	48237 :	11111111111111111110000010010110;
	48236 :	00000000000000000001010010110100;
	48235 :	11111111111111111110011101101111;
	48234 :	11111111111111111011101010001111;
	48233 :	11111111111111111101001110000110;
	48232 :	11111111111111111101000110110001;
	48231 :	11111111111111111111101011011101;
	48230 :	00000000000000000001100011100110;
	48229 :	00000000000000000000100100000011;
	48228 :	00000000000000000001110011010100;
	48227 :	11111111111111111110101001111010;
	48226 :	11111111111111111110001010001011;
	48225 :	11111111111111111110000001110001;
	48224 :	00000000000000000010100010110111;
	48223 :	00000000000000000000110110111110;
	48222 :	11111111111111111101011001001011;
	48221 :	11111111111111111111110110010111;
	48220 :	00000000000000000001010010100001;
	48219 :	00000000000000000010011110001010;
	48218 :	11111111111111111101011000111010;
	48217 :	11111111111111111101011111011101;
	48216 :	00000000000000000001001100000001;
	48215 :	00000000000000000000101111111100;
	48214 :	00000000000000000001111010000001;
	48213 :	00000000000000000010101110001000;
	48212 :	11111111111111111110111110011000;
	48211 :	11111111111111111110101110110100;
	48210 :	11111111111111111111010111111100;
	48209 :	00000000000000000001011100100000;
	48208 :	00000000000000000000011011000100;
	48207 :	00000000000000000001011111011101;
	48206 :	11111111111111111101000000101001;
	48205 :	00000000000000000010001011101001;
	48204 :	11111111111111111111111011000010;
	48203 :	11111111111111111101111110001010;
	48202 :	00000000000000000001001001010001;
	48201 :	00000000000000000000001011100110;
	48200 :	00000000000000000000000010001101;
	48199 :	11111111111111111111001010101001;
	48198 :	00000000000000000010011001100001;
	48197 :	00000000000000000010011100100101;
	48196 :	00000000000000000000111001110111;
	48195 :	00000000000000000000001000100000;
	48194 :	11111111111111111111101001101010;
	48193 :	00000000000000000010011111010101;
	48192 :	00000000000000000001000111110100;
	48191 :	11111111111111111101111100100101;
	48190 :	00000000000000000000000011100000;
	48189 :	11111111111111111110011000011001;
	48188 :	11111111111111111101011011101110;
	48187 :	00000000000000000001111000110110;
	48186 :	11111111111111111111011101011010;
	48185 :	11111111111111111111000010010110;
	48184 :	00000000000000000001000001000011;
	48183 :	00000000000000000010001110010011;
	48182 :	11111111111111111110111110000001;
	48181 :	00000000000000000011111110000111;
	48180 :	00000000000000000001010010011000;
	48179 :	00000000000000000010100001100100;
	48178 :	00000000000000000001011100001001;
	48177 :	00000000000000000010001111110011;
	48176 :	00000000000000000011001101100111;
	48175 :	00000000000000000101111110011110;
	48174 :	00000000000000000011001111011101;
	48173 :	00000000000000000010101000000111;
	48172 :	11111111111111111110110110101111;
	48171 :	11111111111111111101101100000001;
	48170 :	11111111111111111111110101101110;
	48169 :	00000000000000000000100010101001;
	48168 :	00000000000000000010100011101001;
	48167 :	00000000000000000000110110100100;
	48166 :	00000000000000000010011111111011;
	48165 :	11111111111111111111001110011101;
	48164 :	00000000000000000000000001001101;
	48163 :	11111111111111111110101010010111;
	48162 :	00000000000000000010101001001001;
	48161 :	00000000000000000001111110011111;
	48160 :	11111111111111111101111010010100;
	48159 :	11111111111111111110001010011011;
	48158 :	00000000000000000010010010010111;
	48157 :	00000000000000000001110110101100;
	48156 :	00000000000000000011000001110101;
	48155 :	00000000000000000010111011010001;
	48154 :	00000000000000000010110001001101;
	48153 :	00000000000000000100100001101001;
	48152 :	00000000000000000110000011011101;
	48151 :	00000000000000000011011110101110;
	48150 :	00000000000000000010001011010111;
	48149 :	00000000000000000001011111011111;
	48148 :	00000000000000000011010100000110;
	48147 :	00000000000000000100110010010010;
	48146 :	00000000000000000010001100110011;
	48145 :	11111111111111111100100001011101;
	48144 :	11111111111111111101001100001101;
	48143 :	00000000000000000000100000111011;
	48142 :	11111111111111111110100011100101;
	48141 :	11111111111111111111100000111010;
	48140 :	11111111111111111111101111101000;
	48139 :	00000000000000000000000000000101;
	48138 :	11111111111111111111101101010111;
	48137 :	00000000000000000000011011110100;
	48136 :	11111111111111111111000001010111;
	48135 :	00000000000000000010111100111011;
	48134 :	11111111111111111111101000101110;
	48133 :	00000000000000000001110100101100;
	48132 :	11111111111111111110101000111001;
	48131 :	11111111111111111111101001111000;
	48130 :	11111111111111111111110011001000;
	48129 :	00000000000000000011100111000000;
	48128 :	00000000000000000100001001110100;
	48127 :	11111111111111111111110111000000;
	48126 :	00000000000000000001000010101000;
	48125 :	00000000000000000100010011000111;
	48124 :	00000000000000000101010010011010;
	48123 :	00000000000000000100001011111010;
	48122 :	00000000000000000011101100010100;
	48121 :	00000000000000000011011111100010;
	48120 :	00000000000000000100111000010010;
	48119 :	00000000000000000001110111110001;
	48118 :	11111111111111111100100001101000;
	48117 :	11111111111111111000111111101111;
	48116 :	11111111111111111100011101111100;
	48115 :	11111111111111111011111000011001;
	48114 :	11111111111111111111001001101100;
	48113 :	00000000000000000001000001001000;
	48112 :	11111111111111111100111011101000;
	48111 :	11111111111111111110101000100110;
	48110 :	11111111111111111111001110000011;
	48109 :	11111111111111111110010011110111;
	48108 :	00000000000000000010110011000001;
	48107 :	11111111111111111111001100001011;
	48106 :	00000000000000000010101100111010;
	48105 :	00000000000000000000001000110100;
	48104 :	00000000000000000010000000100111;
	48103 :	00000000000000000001110000100100;
	48102 :	11111111111111111110000000000100;
	48101 :	00000000000000000010010100001110;
	48100 :	11111111111111111111100001101010;
	48099 :	00000000000000000001100000110111;
	48098 :	11111111111111111111001001001011;
	48097 :	00000000000000000010110111101000;
	48096 :	00000000000000000001101001001111;
	48095 :	00000000000000000001101100101110;
	48094 :	00000000000000000001000011101001;
	48093 :	00000000000000000001011100010110;
	48092 :	00000000000000000000100011000001;
	48091 :	11111111111111111011100100110001;
	48090 :	11111111111111111001111001000111;
	48089 :	11111111111111111001100111101011;
	48088 :	11111111111111111110101001101000;
	48087 :	11111111111111111110110101111010;
	48086 :	11111111111111111111100111011011;
	48085 :	00000000000000000000010000001011;
	48084 :	11111111111111111110001010100000;
	48083 :	00000000000000000000101000111000;
	48082 :	11111111111111111111001101010100;
	48081 :	00000000000000000001110100011101;
	48080 :	11111111111111111110010100110111;
	48079 :	00000000000000000000011011100100;
	48078 :	00000000000000000000111011100101;
	48077 :	00000000000000000000010001000011;
	48076 :	11111111111111111110011110010000;
	48075 :	11111111111111111101010100101001;
	48074 :	11111111111111111111000111101110;
	48073 :	11111111111111111101010100110001;
	48072 :	11111111111111111110100111001001;
	48071 :	11111111111111111111000011011100;
	48070 :	11111111111111111110011010010111;
	48069 :	11111111111111111111110000100100;
	48068 :	00000000000000000000111000011000;
	48067 :	00000000000000000000011110101111;
	48066 :	11111111111111111110011010001011;
	48065 :	00000000000000000000111001010100;
	48064 :	11111111111111111111010011111011;
	48063 :	11111111111111111011101001010100;
	48062 :	11111111111111111110100011110100;
	48061 :	11111111111111111100100011110001;
	48060 :	11111111111111111111001010100101;
	48059 :	00000000000000000001011011011010;
	48058 :	11111111111111111110100000111100;
	48057 :	11111111111111111101011111000010;
	48056 :	11111111111111111101001101000011;
	48055 :	11111111111111111101010000110011;
	48054 :	00000000000000000001100111101010;
	48053 :	00000000000000000010001110010110;
	48052 :	11111111111111111110011010011000;
	48051 :	00000000000000000000100111100000;
	48050 :	11111111111111111110011110001111;
	48049 :	00000000000000000000101000101111;
	48048 :	00000000000000000001101100001010;
	48047 :	00000000000000000000111111000010;
	48046 :	11111111111111111101111110110001;
	48045 :	11111111111111111111001010111111;
	48044 :	11111111111111111110110110001000;
	48043 :	00000000000000000000001000000110;
	48042 :	11111111111111111101111000010111;
	48041 :	00000000000000000000100000010001;
	48040 :	11111111111111111111100000001101;
	48039 :	11111111111111111111011011010001;
	48038 :	11111111111111111100010010011110;
	48037 :	11111111111111111111001100010001;
	48036 :	11111111111111111101000110100011;
	48035 :	11111111111111111101110000101110;
	48034 :	11111111111111111101111001111001;
	48033 :	00000000000000000000011000000100;
	48032 :	11111111111111111111101101000001;
	48031 :	11111111111111111101011100011000;
	48030 :	00000000000000000010001111111001;
	48029 :	00000000000000000000110000011011;
	48028 :	11111111111111111110000110011101;
	48027 :	11111111111111111101110001110101;
	48026 :	11111111111111111110000011111111;
	48025 :	00000000000000000000010000001001;
	48024 :	00000000000000000001110101100010;
	48023 :	11111111111111111101110001011101;
	48022 :	11111111111111111110010111010111;
	48021 :	11111111111111111101111100010101;
	48020 :	00000000000000000010000010001011;
	48019 :	00000000000000000010010111111011;
	48018 :	00000000000000000001110100000000;
	48017 :	11111111111111111101010101111010;
	48016 :	11111111111111111111100111111000;
	48015 :	11111111111111111111010100101111;
	48014 :	11111111111111111110000001100000;
	48013 :	00000000000000000000001101101111;
	48012 :	11111111111111111110110100110001;
	48011 :	11111111111111111101011000010111;
	48010 :	11111111111111111110011100111000;
	48009 :	11111111111111111111000011010101;
	48008 :	11111111111111111100011011111110;
	48007 :	11111111111111111101000100100001;
	48006 :	11111111111111111110011010101101;
	48005 :	11111111111111111100110010000100;
	48004 :	00000000000000000001000100111010;
	48003 :	00000000000000000010000111010100;
	48002 :	00000000000000000010010101101111;
	48001 :	00000000000000000000010110000110;
	48000 :	11111111111111111111011000001100;
	47999 :	00000000000000000001111111111110;
	47998 :	00000000000000000000011100110011;
	47997 :	00000000000000000001110010010011;
	47996 :	11111111111111111111001101111000;
	47995 :	11111111111111111111011001010100;
	47994 :	11111111111111111110100010011010;
	47993 :	11111111111111111101110101011101;
	47992 :	11111111111111111111011011010010;
	47991 :	11111111111111111111111101000011;
	47990 :	00000000000000000000110000110110;
	47989 :	11111111111111111101011011100100;
	47988 :	11111111111111111111111110111010;
	47987 :	00000000000000000001110110111011;
	47986 :	00000000000000000001111010100000;
	47985 :	11111111111111111101110011110100;
	47984 :	11111111111111111101101100101001;
	47983 :	11111111111111111101110111001001;
	47982 :	11111111111111111101010010011011;
	47981 :	11111111111111111100110011000110;
	47980 :	11111111111111111011000010100011;
	47979 :	11111111111111111110011111000011;
	47978 :	11111111111111111011001001011011;
	47977 :	00000000000000000000111111101110;
	47976 :	11111111111111111110000000000100;
	47975 :	11111111111111111110011101111110;
	47974 :	00000000000000000000101000001011;
	47973 :	00000000000000000001100111101001;
	47972 :	11111111111111111110001001100110;
	47971 :	11111111111111111111001000010111;
	47970 :	11111111111111111110110011100000;
	47969 :	00000000000000000001011110100101;
	47968 :	00000000000000000000011101011100;
	47967 :	00000000000000000000110010000111;
	47966 :	00000000000000000010010001001111;
	47965 :	00000000000000000001010000100010;
	47964 :	11111111111111111111010111100011;
	47963 :	11111111111111111101100101101110;
	47962 :	11111111111111111110110010100000;
	47961 :	11111111111111111111000001010010;
	47960 :	00000000000000000001010110001001;
	47959 :	11111111111111111110000110001001;
	47958 :	11111111111111111111001111000010;
	47957 :	00000000000000000000111100010001;
	47956 :	11111111111111111110001001101110;
	47955 :	11111111111111111110101010010001;
	47954 :	11111111111111111101010001000111;
	47953 :	00000000000000000000010010000010;
	47952 :	11111111111111111100111000010011;
	47951 :	11111111111111111010111001110100;
	47950 :	11111111111111111110010101111000;
	47949 :	11111111111111111101001111001001;
	47948 :	00000000000000000001001010000001;
	47947 :	11111111111111111110110000000111;
	47946 :	00000000000000000001111100100000;
	47945 :	11111111111111111110010111111110;
	47944 :	11111111111111111101111000111101;
	47943 :	00000000000000000001010001100110;
	47942 :	11111111111111111110001111001000;
	47941 :	11111111111111111110000011000001;
	47940 :	00000000000000000000000101100010;
	47939 :	00000000000000000001111100100110;
	47938 :	11111111111111111110101001100011;
	47937 :	11111111111111111110000100001101;
	47936 :	00000000000000000001010100111111;
	47935 :	00000000000000000001110111001001;
	47934 :	11111111111111111111001101100110;
	47933 :	00000000000000000000101110000111;
	47932 :	00000000000000000001001001001110;
	47931 :	11111111111111111101110011111100;
	47930 :	00000000000000000000111101100101;
	47929 :	11111111111111111111000011111110;
	47928 :	00000000000000000010001010010100;
	47927 :	11111111111111111101001011101101;
	47926 :	00000000000000000000011001000110;
	47925 :	11111111111111111101100111101100;
	47924 :	11111111111111111111000100000001;
	47923 :	11111111111111111101010010001001;
	47922 :	00000000000000000001101101100010;
	47921 :	00000000000000000010011101110110;
	47920 :	11111111111111111110011100011100;
	47919 :	11111111111111111110111101010011;
	47918 :	11111111111111111111101110001110;
	47917 :	00000000000000000001000111101111;
	47916 :	11111111111111111110111100101001;
	47915 :	11111111111111111111100010101000;
	47914 :	00000000000000000010011111001010;
	47913 :	11111111111111111101011110011010;
	47912 :	11111111111111111110100110100010;
	47911 :	11111111111111111111011001101000;
	47910 :	00000000000000000001011000000111;
	47909 :	11111111111111111111100100111011;
	47908 :	11111111111111111111011111011100;
	47907 :	00000000000000000000011011101000;
	47906 :	11111111111111111111010111101100;
	47905 :	11111111111111111111010110101000;
	47904 :	11111111111111111111010100101011;
	47903 :	00000000000000000001010110000001;
	47902 :	11111111111111111111111111010111;
	47901 :	00000000000000000000010001111011;
	47900 :	00000000000000000000100111111011;
	47899 :	00000000000000000000011010110110;
	47898 :	11111111111111111111100100010001;
	47897 :	11111111111111111110001111111000;
	47896 :	11111111111111111101011110110000;
	47895 :	11111111111111111101100011001100;
	47894 :	00000000000000000000110111000010;
	47893 :	00000000000000000001100010001100;
	47892 :	00000000000000000010010000100001;
	47891 :	11111111111111111101011100111010;
	47890 :	00000000000000000000011100011011;
	47889 :	00000000000000000001011001111001;
	47888 :	00000000000000000000100000010000;
	47887 :	00000000000000000010000000011110;
	47886 :	00000000000000000001110111101110;
	47885 :	00000000000000000001010010010110;
	47884 :	00000000000000000010101001000101;
	47883 :	00000000000000000000000101110010;
	47882 :	11111111111111111101010110101010;
	47881 :	11111111111111111111010010111001;
	47880 :	11111111111111111111111100110101;
	47879 :	11111111111111111110101111101011;
	47878 :	11111111111111111101011010111101;
	47877 :	00000000000000000001110101101011;
	47876 :	00000000000000000000101000000110;
	47875 :	00000000000000000000000100111111;
	47874 :	11111111111111111111101110101001;
	47873 :	00000000000000000000011111100111;
	47872 :	11111111111111111110000110011101;
	47871 :	00000000000000000010100001011100;
	47870 :	00000000000000000010101011101101;
	47869 :	00000000000000000010011110110010;
	47868 :	00000000000000000000110100010110;
	47867 :	11111111111111111111000011001000;
	47866 :	00000000000000000000100110011010;
	47865 :	11111111111111111110110100100111;
	47864 :	11111111111111111111110101100001;
	47863 :	11111111111111111101101011101000;
	47862 :	00000000000000000001100011010010;
	47861 :	00000000000000000001000001101110;
	47860 :	00000000000000000000011011011010;
	47859 :	11111111111111111110101101011100;
	47858 :	00000000000000000001101110101111;
	47857 :	00000000000000000001010110010100;
	47856 :	00000000000000000010100010011110;
	47855 :	00000000000000000000110101011101;
	47854 :	11111111111111111110100101000100;
