-- begin_signature
-- weightRAM_layer2
-- end_signature
WIDTH=32;
DEPTH=2048;

ADDRESS_RADIX=UNS;
DATA_RADIX=BIN;

CONTENT BEGIN
	2047 :	11111111111111111111111110111000;
	2046 :	11111111111111111100011101000111;
	2045 :	00000000000000001000001001111100;
	2044 :	11111111111111111001000100001011;
	2043 :	11111111111111110111010110100100;
	2042 :	00000000000000000100111011010100;
	2041 :	11111111111111111100000101100100;
	2040 :	11111111111111111100110000011100;
	2039 :	11111111111111111000100000011111;
	2038 :	11111111111111111000011001101111;
	2037 :	00000000000000000010000100011001;
	2036 :	11111111111111111100101000101111;
	2035 :	11111111111111110111010010111100;
	2034 :	11111111111111111101011011000000;
	2033 :	11111111111111111110111011110100;
	2032 :	00000000000000000101110101011000;
	2031 :	00000000000000000100001100001011;
	2030 :	11111111111111111101011100010001;
	2029 :	00000000000000000010101010010110;
	2028 :	00000000000000000101100000100100;
	2027 :	11111111111111111111001010010001;
	2026 :	00000000000000000101111011100011;
	2025 :	11111111111111111010110011101010;
	2024 :	11111111111111111010011111100010;
	2023 :	00000000000000000010101010110110;
	2022 :	00000000000000001000111011110100;
	2021 :	00000000000000000100110000101010;
	2020 :	11111111111111111010101110101001;
	2019 :	00000000000000001000011000000011;
	2018 :	11111111111111111111101011101111;
	2017 :	00000000000000000010110011000111;
	2016 :	00000000000000000100101000000001;
	2015 :	11111111111111111101001000100100;
	2014 :	11111111111111111000011111000010;
	2013 :	00000000000000000111011110011011;
	2012 :	11111111111111111000110011111001;
	2011 :	11111111111111111101100111001100;
	2010 :	00000000000000000011010001111111;
	2009 :	00000000000000001000010001010011;
	2008 :	00000000000000000010010101010101;
	2007 :	11111111111111111010100100000110;
	2006 :	11111111111111111111110001001111;
	2005 :	00000000000000000010101011000100;
	2004 :	00000000000000000101000000101011;
	2003 :	00000000000000001000000111000100;
	2002 :	00000000000000000110001110100110;
	2001 :	11111111111111111011101111011111;
	2000 :	11111111111111111110101001101000;
	1999 :	11111111111111111001110001010100;
	1998 :	00000000000000000000110010110101;
	1997 :	00000000000000000000010001011000;
	1996 :	00000000000000000101100001010111;
	1995 :	11111111111111111110101110011001;
	1994 :	11111111111111111011000110110011;
	1993 :	11111111111111111100001011100111;
	1992 :	11111111111111111111000001110010;
	1991 :	11111111111111111001101000011011;
	1990 :	00000000000000000100000100000110;
	1989 :	11111111111111111111010111010101;
	1988 :	11111111111111111001000111010110;
	1987 :	00000000000000000111010001010101;
	1986 :	11111111111111111001010001000110;
	1985 :	11111111111111111100000101111111;
	1984 :	00000000000000000111011011111111;
	1983 :	00000000000000000001110100000001;
	1982 :	00000000000000000111001000101100;
	1981 :	00000000000000000110110100010011;
	1980 :	00000000000000000100001101100001;
	1979 :	11111111111111110110000000111010;
	1978 :	11111111111111110001101011111000;
	1977 :	00000000000000000101000110010010;
	1976 :	11111111111111111011101100110111;
	1975 :	00000000000000000101010100100101;
	1974 :	11111111111111111100000000111011;
	1973 :	11111111111111111001111111100111;
	1972 :	00000000000000001111000001011011;
	1971 :	11111111111111111101110011111010;
	1970 :	11111111111111111101111001100010;
	1969 :	00000000000000000000001001101010;
	1968 :	11111111111111111000100011110101;
	1967 :	11111111111111111010100001010010;
	1966 :	11111111111111110111111101010100;
	1965 :	00000000000000000010111111111010;
	1964 :	11111111111111111001001001100101;
	1963 :	11111111111111111110001010000010;
	1962 :	11111111111111111101111101101110;
	1961 :	00000000000000001010111001100010;
	1960 :	00000000000000000001101110010110;
	1959 :	11111111111111111001101101001100;
	1958 :	11111111111111110110011110001100;
	1957 :	00000000000000000001011011010111;
	1956 :	11111111111111111101111111011100;
	1955 :	11111111111111111100100000000011;
	1954 :	00000000000000000101111001011001;
	1953 :	11111111111111111111101111100011;
	1952 :	00000000000000000101111010100000;
	1951 :	11111111111111110110110101111111;
	1950 :	00000000000000001010011001010001;
	1949 :	00000000000000001100001100011100;
	1948 :	11111111111111111110111111100100;
	1947 :	00000000000000001100110010101010;
	1946 :	00000000000000001010110010111001;
	1945 :	00000000000000001000011100010010;
	1944 :	00000000000000001001111000000110;
	1943 :	00000000000000000110100101100110;
	1942 :	00000000000000000101011000010110;
	1941 :	11111111111111110100010101011001;
	1940 :	11111111111111111110000001101110;
	1939 :	00000000000000000100001010110101;
	1938 :	11111111111111111011100101100010;
	1937 :	11111111111111111101111010100001;
	1936 :	00000000000000000000100011110110;
	1935 :	00000000000000000111110110111010;
	1934 :	11111111111111111110000011100110;
	1933 :	11111111111111111100001000100110;
	1932 :	11111111111111110101011111000001;
	1931 :	00000000000000000000110100010011;
	1930 :	00000000000000000010011000000100;
	1929 :	11111111111111111111101011010101;
	1928 :	11111111111111111011000111010100;
	1927 :	00000000000000000101110110001111;
	1926 :	11111111111111110111010101010001;
	1925 :	00000000000000000000000011000001;
	1924 :	00000000000000000000001010111100;
	1923 :	11111111111111111101101010000000;
	1922 :	00000000000000000010001011011000;
	1921 :	00000000000000001010101111000111;
	1920 :	00000000000000000010001110111101;
	1919 :	11111111111111111010100111101000;
	1918 :	00000000000000001000111000010011;
	1917 :	00000000000000000000101000011100;
	1916 :	11111111111111110111010001100101;
	1915 :	11111111111111111111010110000000;
	1914 :	11111111111111110100001101111101;
	1913 :	00000000000000001010011110000100;
	1912 :	00000000000000000010100100101101;
	1911 :	00000000000000000101011111001101;
	1910 :	00000000000000001000101110001111;
	1909 :	11111111111111111001001000110000;
	1908 :	11111111111111111100010001100001;
	1907 :	00000000000000001000001001001001;
	1906 :	00000000000000000110101010111000;
	1905 :	11111111111111111001001110111101;
	1904 :	11111111111111111110000100010010;
	1903 :	00000000000000000001000111000011;
	1902 :	00000000000000000100111001010110;
	1901 :	11111111111111111100110010001111;
	1900 :	11111111111111111101110111111111;
	1899 :	00000000000000001010111111101011;
	1898 :	11111111111111111101101110010000;
	1897 :	11111111111111111101110011101010;
	1896 :	11111111111111111101101100001111;
	1895 :	00000000000000001010100100010110;
	1894 :	11111111111111111101000111110000;
	1893 :	11111111111111111011111011101000;
	1892 :	11111111111111110110000101101011;
	1891 :	00000000000000000110110010001010;
	1890 :	11111111111111110011110000000001;
	1889 :	00000000000000000101001111011110;
	1888 :	00000000000000000111100010100101;
	1887 :	11111111111111111101100011011000;
	1886 :	11111111111111111100011100100110;
	1885 :	11111111111111111010100011010110;
	1884 :	11111111111111111110001111001111;
	1883 :	11111111111111111010101001011100;
	1882 :	00000000000000000100101111111001;
	1881 :	00000000000000000100001111100110;
	1880 :	11111111111111111010001001100000;
	1879 :	11111111111111111001101011010001;
	1878 :	00000000000000000000011110011010;
	1877 :	11111111111111111110101010101111;
	1876 :	11111111111111111101011100111101;
	1875 :	00000000000000001001001101100100;
	1874 :	11111111111111111000110110010010;
	1873 :	00000000000000000010000110101011;
	1872 :	11111111111111111000100011010010;
	1871 :	11111111111111111101110100111110;
	1870 :	00000000000000000110101101011010;
	1869 :	00000000000000000100110001001010;
	1868 :	11111111111111111010010101110001;
	1867 :	11111111111111111100110000000100;
	1866 :	00000000000000000111011000001111;
	1865 :	11111111111111110111111010100111;
	1864 :	11111111111111111100101001100011;
	1863 :	11111111111111111011011001111111;
	1862 :	00000000000000001011100001100011;
	1861 :	11111111111111111111100011111011;
	1860 :	00000000000000000001010011111000;
	1859 :	11111111111111111101001000110010;
	1858 :	11111111111111111100101011000001;
	1857 :	11111111111111111111010101011000;
	1856 :	00000000000000000101010101001100;
	1855 :	11111111111111110101101011110001;
	1854 :	00000000000000000101110101101001;
	1853 :	11111111111111111101010111010101;
	1852 :	00000000000000000000100101101110;
	1851 :	00000000000000000001000110001001;
	1850 :	00000000000000000011011100001110;
	1849 :	11111111111111111100101111010100;
	1848 :	11111111111111111100110000000100;
	1847 :	00000000000000000110010100001011;
	1846 :	11111111111111111001101000000010;
	1845 :	00000000000000000111111000101110;
	1844 :	11111111111111110100010110000011;
	1843 :	00000000000000000001010000100001;
	1842 :	00000000000000000101100000000101;
	1841 :	11111111111111111100011111011001;
	1840 :	00000000000000000000101001111001;
	1839 :	00000000000000001000001101101000;
	1838 :	11111111111111111011011000011101;
	1837 :	00000000000000000110110100100100;
	1836 :	11111111111111111001100100111100;
	1835 :	11111111111111111010101001100011;
	1834 :	00000000000000001010001010111101;
	1833 :	00000000000000001000011101000110;
	1832 :	11111111111111110100100011010111;
	1831 :	00000000000000000001101001111100;
	1830 :	11111111111111111011101011001011;
	1829 :	11111111111111111011101101101101;
	1828 :	00000000000000000111001011100101;
	1827 :	00000000000000000000110000111110;
	1826 :	00000000000000000011111110101010;
	1825 :	00000000000000000010011111100000;
	1824 :	00000000000000000010111000100101;
	1823 :	11111111111111111001111110001000;
	1822 :	00000000000000000100101111010100;
	1821 :	00000000000000000000111111111101;
	1820 :	00000000000000000010100010011010;
	1819 :	00000000000000000101011110110110;
	1818 :	11111111111111110111111011010001;
	1817 :	00000000000000000100011000001000;
	1816 :	11111111111111110111111110101011;
	1815 :	00000000000000001000101011001000;
	1814 :	00000000000000000010000111100001;
	1813 :	00000000000000001011111011011010;
	1812 :	11111111111111111011000010001000;
	1811 :	11111111111111111100000011010011;
	1810 :	00000000000000001100111100000001;
	1809 :	00000000000000000010000000111000;
	1808 :	00000000000000000111101010001001;
	1807 :	11111111111111111010001110001011;
	1806 :	00000000000000000101111000001110;
	1805 :	00000000000000001100011110100000;
	1804 :	00000000000000000110001010100011;
	1803 :	11111111111111110001101010101001;
	1802 :	11111111111111111101011100011001;
	1801 :	00000000000000000010101000101001;
	1800 :	11111111111111111001011110110011;
	1799 :	00000000000000000100111100000000;
	1798 :	00000000000000001101011101111110;
	1797 :	00000000000000000101110111111101;
	1796 :	00000000000000000101100111111000;
	1795 :	11111111111111111010110000111010;
	1794 :	00000000000000001111100100011001;
	1793 :	00000000000000000010010110110110;
	1792 :	11111111111111111111100001010000;
	1791 :	11111111111111111111000010010100;
	1790 :	00000000000000001001010001101010;
	1789 :	00000000000000001000000100001000;
	1788 :	11111111111111111101101101000110;
	1787 :	11111111111111110000101001100111;
	1786 :	00000000000000000110000100100100;
	1785 :	00000000000000010000110011000000;
	1784 :	00000000000000000101011111001011;
	1783 :	00000000000000001111001110000000;
	1782 :	11111111111111111101011111101000;
	1781 :	00000000000000000111101001111110;
	1780 :	11111111111111110111011100000110;
	1779 :	11111111111111110110011110101110;
	1778 :	00000000000000000011010110110101;
	1777 :	00000000000000000101110111011001;
	1776 :	11111111111111111001011111111001;
	1775 :	00000000000000000001001011110010;
	1774 :	11111111111111111101011011010000;
	1773 :	00000000000000001010010000111010;
	1772 :	00000000000000001010110111110110;
	1771 :	00000000000000001111111101001110;
	1770 :	00000000000000001010001001010010;
	1769 :	00000000000000000011100100110110;
	1768 :	11111111111111110111000100010101;
	1767 :	00000000000000000101010101011011;
	1766 :	11111111111111111111100011101100;
	1765 :	00000000000000001111011101000010;
	1764 :	11111111111111110111110111110010;
	1763 :	11111111111111111100100010011111;
	1762 :	00000000000000000010100000101000;
	1761 :	11111111111111111111101001000001;
	1760 :	11111111111111111010100100101100;
	1759 :	00000000000000000000011111101101;
	1758 :	11111111111111111110011011101010;
	1757 :	11111111111111110001110110000010;
	1756 :	11111111111111111001100000110111;
	1755 :	00000000000000001000010101010001;
	1754 :	11111111111111111111101011010100;
	1753 :	11111111111111101110010001111011;
	1752 :	11111111111111111000111010001111;
	1751 :	00000000000000001100001001001000;
	1750 :	00000000000000000111100001101011;
	1749 :	00000000000000000100111100111011;
	1748 :	11111111111111111101111001000111;
	1747 :	11111111111111111110111000100010;
	1746 :	00000000000000001000010110111111;
	1745 :	11111111111111110101111001000101;
	1744 :	11111111111111110110011111000000;
	1743 :	11111111111111110010110100011111;
	1742 :	00000000000000001011101010010110;
	1741 :	00000000000000001011101100011100;
	1740 :	00000000000000001101101000011110;
	1739 :	11111111111111111011100100110010;
	1738 :	00000000000000000011100101111010;
	1737 :	00000000000000000100101001100111;
	1736 :	00000000000000000111101000101011;
	1735 :	00000000000000000001111001100010;
	1734 :	00000000000000001010100010010110;
	1733 :	11111111111111111010000001111000;
	1732 :	00000000000000001111000110001100;
	1731 :	11111111111111111001001010000111;
	1730 :	00000000000000000100000000110110;
	1729 :	11111111111111111000111101000001;
	1728 :	11111111111111111000100000001110;
	1727 :	11111111111111111011100011011011;
	1726 :	11111111111111111001000000111110;
	1725 :	11111111111111111001010101100100;
	1724 :	11111111111111111110010001011000;
	1723 :	00000000000000000010111011001001;
	1722 :	11111111111111111010101111101010;
	1721 :	00000000000000000000100110011110;
	1720 :	11111111111111111101011000001000;
	1719 :	00000000000000000101001110000110;
	1718 :	00000000000000000111000000000010;
	1717 :	11111111111111111010100000111011;
	1716 :	11111111111111111001100010110011;
	1715 :	00000000000000000010100101101110;
	1714 :	00000000000000000101111000101101;
	1713 :	00000000000000000000000011101000;
	1712 :	00000000000000000110110010010001;
	1711 :	00000000000000000011101000001000;
	1710 :	11111111111111111010010111111010;
	1709 :	11111111111111111000010111101101;
	1708 :	11111111111111111010000111001101;
	1707 :	11111111111111111111111000001011;
	1706 :	11111111111111111111111000111001;
	1705 :	11111111111111111111001011110011;
	1704 :	00000000000000000000111011001110;
	1703 :	00000000000000000111101111100010;
	1702 :	11111111111111111001101110111011;
	1701 :	11111111111111111011101000010100;
	1700 :	11111111111111111010011100001111;
	1699 :	00000000000000000110000011110101;
	1698 :	00000000000000000011101100101101;
	1697 :	11111111111111111100011001001100;
	1696 :	11111111111111111001101100000010;
	1695 :	00000000000000000001100101100010;
	1694 :	11111111111111111010110010100100;
	1693 :	11111111111111111000111110011000;
	1692 :	00000000000000000100001000011101;
	1691 :	00000000000000000001101010010110;
	1690 :	11111111111111111100011110001110;
	1689 :	00000000000000001000011011101101;
	1688 :	11111111111111111001110011110101;
	1687 :	11111111111111111101011101000100;
	1686 :	11111111111111111100010110101000;
	1685 :	11111111111111111000011011011010;
	1684 :	11111111111111111100001100000011;
	1683 :	00000000000000000110000001010011;
	1682 :	00000000000000000010101110101010;
	1681 :	11111111111111111000001101100100;
	1680 :	00000000000000000110111111010100;
	1679 :	00000000000000000110100110111101;
	1678 :	11111111111111111100001110000110;
	1677 :	00000000000000000110001001101110;
	1676 :	11111111111111111100011011010000;
	1675 :	00000000000000000110011111000001;
	1674 :	11111111111111111001101111001010;
	1673 :	00000000000000000111000001111100;
	1672 :	00000000000000000010011011001010;
	1671 :	00000000000000000101101000110100;
	1670 :	00000000000000000101001100110100;
	1669 :	11111111111111111000001100100011;
	1668 :	11111111111111111110111010101110;
	1667 :	00000000000000000100110110000001;
	1666 :	11111111111111111001110000101010;
	1665 :	11111111111111110111111000101011;
	1664 :	00000000000000001000000100011110;
	1663 :	00000000000000000111010111100000;
	1662 :	11111111111111111001001010111011;
	1661 :	11111111111111110101100100111001;
	1660 :	00000000000000001111111001100000;
	1659 :	00000000000000000000010010101100;
	1658 :	11111111111111111111110100011010;
	1657 :	00000000000000000011110010000101;
	1656 :	11111111111111111101010011110001;
	1655 :	00000000000000001010010010001011;
	1654 :	00000000000000000100101000010100;
	1653 :	00000000000000001101111000010100;
	1652 :	00000000000000001001111111110111;
	1651 :	00000000000000000101100001101010;
	1650 :	00000000000000001010001001110001;
	1649 :	00000000000000001000111010000010;
	1648 :	11111111111111111010101101100100;
	1647 :	11111111111111110001010111111100;
	1646 :	00000000000000001010101000010100;
	1645 :	00000000000000001111110011101000;
	1644 :	11111111111111111101110111101100;
	1643 :	11111111111111111101001101100100;
	1642 :	11111111111111110101101000010011;
	1641 :	00000000000000000010100000111011;
	1640 :	00000000000000000001100100001110;
	1639 :	11111111111111111001010110010110;
	1638 :	11111111111111110110011111010111;
	1637 :	11111111111111111101110100100001;
	1636 :	00000000000000000101001101111001;
	1635 :	11111111111111111001111000101000;
	1634 :	00000000000000001101010101001101;
	1633 :	11111111111111110000100110111100;
	1632 :	11111111111111111101010010000011;
	1631 :	00000000000000000110000110100101;
	1630 :	00000000000000000100101001000000;
	1629 :	11111111111111111101001111011000;
	1628 :	11111111111111111001110101001010;
	1627 :	00000000000000000000100100111001;
	1626 :	00000000000000000000111101011111;
	1625 :	11111111111111111101110010101111;
	1624 :	00000000000000001001010100000001;
	1623 :	11111111111111111110001111100000;
	1622 :	11111111111111110011110001001110;
	1621 :	00000000000000001001001101101110;
	1620 :	11111111111111110110101110111010;
	1619 :	00000000000000000011111001000011;
	1618 :	00000000000000000101010111110110;
	1617 :	00000000000000001001010110111101;
	1616 :	00000000000000000101011000011001;
	1615 :	00000000000000000010100011101110;
	1614 :	00000000000000000100100000100101;
	1613 :	11111111111111111010010011000110;
	1612 :	11111111111111111001010101001000;
	1611 :	11111111111111111011001011001101;
	1610 :	11111111111111111011101010000000;
	1609 :	00000000000000001001101000011000;
	1608 :	11111111111111111000001100100001;
	1607 :	00000000000000000011110110110000;
	1606 :	11111111111111110010111001100010;
	1605 :	11111111111111110111011010101011;
	1604 :	00000000000000000011100110100110;
	1603 :	00000000000000001001001101010100;
	1602 :	00000000000000000100111010000100;
	1601 :	00000000000000001010101001011110;
	1600 :	00000000000000000010001101001010;
	1599 :	11111111111111111101111100100001;
	1598 :	00000000000000000101011111111010;
	1597 :	00000000000000001000001010111000;
	1596 :	00000000000000000010011001110100;
	1595 :	00000000000000001001010011100010;
	1594 :	11111111111111110110111011011010;
	1593 :	11111111111111111101111101001111;
	1592 :	00000000000000000110101100101001;
	1591 :	11111111111111111100010100000101;
	1590 :	11111111111111111000011100100100;
	1589 :	00000000000000000001010110000101;
	1588 :	00000000000000001010110011101101;
	1587 :	11111111111111111111001101101111;
	1586 :	00000000000000001001011100110111;
	1585 :	00000000000000000010101001101110;
	1584 :	00000000000000000110001011011100;
	1583 :	00000000000000001000100111111001;
	1582 :	11111111111111111101010001111000;
	1581 :	11111111111111111001100001101110;
	1580 :	00000000000000000010101101111100;
	1579 :	00000000000000000010010100110101;
	1578 :	00000000000000000001001000010111;
	1577 :	00000000000000000001000110000110;
	1576 :	11111111111111111110110010000111;
	1575 :	00000000000000000011100000001111;
	1574 :	00000000000000000000001001101010;
	1573 :	00000000000000000000001000110101;
	1572 :	11111111111111110101001011011110;
	1571 :	00000000000000000010101111101011;
	1570 :	11111111111111110010001110110000;
	1569 :	00000000000000001111111111111111;
	1568 :	00000000000000000001001111001000;
	1567 :	00000000000000000010000101001101;
	1566 :	00000000000000000101011100001100;
	1565 :	11111111111111111101011011111111;
	1564 :	11111111111111111101000010101000;
	1563 :	00000000000000000010101010110101;
	1562 :	00000000000000000010111000000011;
	1561 :	11111111111111111101100000101110;
	1560 :	00000000000000000110100000011010;
	1559 :	00000000000000000001010111000101;
	1558 :	00000000000000001010111101110110;
	1557 :	11111111111111110111101011000101;
	1556 :	00000000000000001000111000111011;
	1555 :	00000000000000001100001011110011;
	1554 :	11111111111111111100111001011001;
	1553 :	00000000000000000101111100000001;
	1552 :	11111111111111111101110111011100;
	1551 :	00000000000000000000100111010000;
	1550 :	00000000000000000001101100011001;
	1549 :	11111111111111111011001000000000;
	1548 :	11111111111111111000011000101101;
	1547 :	11111111111111110101100000111101;
	1546 :	00000000000000000110010001000110;
	1545 :	00000000000000000111110001000011;
	1544 :	11111111111111111011000100010101;
	1543 :	11111111111111111011001101110000;
	1542 :	00000000000000000111111010001100;
	1541 :	11111111111111111100011011001010;
	1540 :	11111111111111111001100001010100;
	1539 :	11111111111111111101101111010101;
	1538 :	11111111111111110010101100001100;
	1537 :	11111111111111111001010001000001;
	1536 :	00000000000000001100110100110001;
	1535 :	11111111111111110011001110111011;
	1534 :	00000000000000001100110001101010;
	1533 :	11111111111111110100011010111110;
	1532 :	11111111111111110011011010110001;
	1531 :	11111111111111111000110111011000;
	1530 :	00000000000000000010010011111001;
	1529 :	11111111111111110111001100000110;
	1528 :	11111111111111111101110001001110;
	1527 :	00000000000000000111110000010001;
	1526 :	11111111111111111111000111010000;
	1525 :	11111111111111110110001101101111;
	1524 :	11111111111111110110111000100001;
	1523 :	11111111111111111011100101001111;
	1522 :	11111111111111101011011100100011;
	1521 :	11111111111111111001000110010000;
	1520 :	00000000000000000100100011101110;
	1519 :	00000000000000000010101111010110;
	1518 :	11111111111111111000111110111001;
	1517 :	11111111111111111111000010001001;
	1516 :	00000000000000000001101011111101;
	1515 :	00000000000000000010001111110000;
	1514 :	00000000000000001000100100101011;
	1513 :	00000000000000000111000000001101;
	1512 :	00000000000000000001011010111100;
	1511 :	00000000000000000001011001011011;
	1510 :	00000000000000000010111111010101;
	1509 :	11111111111111111011101001111100;
	1508 :	00000000000000001110111111010001;
	1507 :	00000000000000000111000001100011;
	1506 :	11111111111111111010010110000100;
	1505 :	00000000000000000000001110111100;
	1504 :	11111111111111110110000110011101;
	1503 :	00000000000000001000010101010010;
	1502 :	00000000000000000001111111011110;
	1501 :	11111111111111111011010011111001;
	1500 :	00000000000000000101000011000111;
	1499 :	11111111111111111011010010110110;
	1498 :	11111111111111111000101011100111;
	1497 :	00000000000000000001111000011011;
	1496 :	11111111111111111101010011101001;
	1495 :	11111111111111111101100110110011;
	1494 :	11111111111111111000000000000001;
	1493 :	11111111111111111101100000100100;
	1492 :	00000000000000000010100101001000;
	1491 :	00000000000000001001001001111001;
	1490 :	00000000000000000011001100101101;
	1489 :	11111111111111111010111110000010;
	1488 :	00000000000000000101011011110101;
	1487 :	00000000000000000111101100110100;
	1486 :	00000000000000000001101100000110;
	1485 :	11111111111111111100101110101001;
	1484 :	00000000000000001101000000101010;
	1483 :	00000000000000000111010101010101;
	1482 :	00000000000000000101101110110111;
	1481 :	11111111111111111010001000001110;
	1480 :	00000000000000000000110010000100;
	1479 :	11111111111111110111000010000100;
	1478 :	00000000000000000011011001111110;
	1477 :	00000000000000000101100100010101;
	1476 :	00000000000000000011010000111000;
	1475 :	00000000000000001011101001111101;
	1474 :	00000000000000000101011100001111;
	1473 :	00000000000000000101100101011101;
	1472 :	11111111111111111100011010001010;
	1471 :	11111111111111111111011000110000;
	1470 :	11111111111111111011110101111010;
	1469 :	00000000000000000010110111001100;
	1468 :	11111111111111111001101110111000;
	1467 :	00000000000000001010010111100001;
	1466 :	00000000000000000011010101111111;
	1465 :	00000000000000000111010011000100;
	1464 :	00000000000000000111000101110111;
	1463 :	00000000000000000011001110010110;
	1462 :	00000000000000000011001100110110;
	1461 :	11111111111111111000011111011011;
	1460 :	00000000000000000011101101111110;
	1459 :	11111111111111111111000001111000;
	1458 :	00000000000000000110000010110110;
	1457 :	11111111111111111101111100111110;
	1456 :	00000000000000001001100011100111;
	1455 :	00000000000000000010010011111000;
	1454 :	00000000000000001101010011110000;
	1453 :	11111111111111111000000000000111;
	1452 :	11111111111111111011001000100110;
	1451 :	00000000000000000001000101101101;
	1450 :	11111111111111111011001011011011;
	1449 :	00000000000000000111001000001001;
	1448 :	00000000000000000010001101101010;
	1447 :	00000000000000000000111010010011;
	1446 :	00000000000000001101011000100001;
	1445 :	00000000000000000010101000010100;
	1444 :	00000000000000001010011001010000;
	1443 :	00000000000000000100011000101010;
	1442 :	11111111111111111000010000111001;
	1441 :	00000000000000000100100010101000;
	1440 :	11111111111111111100110001110001;
	1439 :	11111111111111111001100100100101;
	1438 :	00000000000000001010011011101101;
	1437 :	11111111111111111001100111001100;
	1436 :	11111111111111111100111010110010;
	1435 :	00000000000000000011101010001010;
	1434 :	00000000000000000001110100111000;
	1433 :	00000000000000000101110110101001;
	1432 :	00000000000000000101011110110101;
	1431 :	11111111111111111100101100100001;
	1430 :	00000000000000001001011110001111;
	1429 :	11111111111111111000000111100101;
	1428 :	00000000000000000001111011111101;
	1427 :	00000000000000000010110000000010;
	1426 :	11111111111111111000001011011010;
	1425 :	00000000000000001001110110111110;
	1424 :	11111111111111111000101100100010;
	1423 :	11111111111111111101100101011011;
	1422 :	11111111111111111110010110001100;
	1421 :	11111111111111111000010100010111;
	1420 :	11111111111111111100110101100010;
	1419 :	00000000000000000010100100011001;
	1418 :	00000000000000000011010001101010;
	1417 :	11111111111111110111001011010010;
	1416 :	00000000000000000010110001010000;
	1415 :	11111111111111111000011110111100;
	1414 :	11111111111111111001000010101110;
	1413 :	00000000000000000011101001001011;
	1412 :	00000000000000000001011101011101;
	1411 :	00000000000000000000111110100001;
	1410 :	00000000000000000101011111000001;
	1409 :	11111111111111111000101110011111;
	1408 :	00000000000000000001000111001110;
	1407 :	00000000000000000001010000010101;
	1406 :	00000000000000000101101010010101;
	1405 :	11111111111111110010100110010000;
	1404 :	00000000000000001100011000001110;
	1403 :	11111111111111111101101010111111;
	1402 :	11111111111111111111011101110010;
	1401 :	00000000000000000101110011001101;
	1400 :	00000000000000001001011000001111;
	1399 :	11111111111111110110010001011110;
	1398 :	00000000000000000001111111110101;
	1397 :	00000000000000001010111011110011;
	1396 :	11111111111111111100011001010101;
	1395 :	11111111111111111101001000001000;
	1394 :	00000000000000000000000101011100;
	1393 :	00000000000000000101101100100010;
	1392 :	11111111111111111110011100101000;
	1391 :	11111111111111110011001010000001;
	1390 :	11111111111111111100101000110000;
	1389 :	00000000000000000000111010101111;
	1388 :	11111111111111111100010101100100;
	1387 :	11111111111111110100111000000011;
	1386 :	11111111111111111001110111100011;
	1385 :	11111111111111110001101010010110;
	1384 :	11111111111111111100011111110001;
	1383 :	00000000000000001000011100000011;
	1382 :	11111111111111111001100111010010;
	1381 :	11111111111111110110101110111010;
	1380 :	00000000000000000111101010101110;
	1379 :	11111111111111111100011101000111;
	1378 :	00000000000000000000000001101100;
	1377 :	11111111111111110011010011110001;
	1376 :	00000000000000011000001101101011;
	1375 :	00000000000000000101010000111101;
	1374 :	11111111111111110010000101001001;
	1373 :	00000000000000000011011101011001;
	1372 :	11111111111111111011111010100000;
	1371 :	11111111111111110001000000010000;
	1370 :	00000000000000000100010010011010;
	1369 :	00000000000000000000000001011001;
	1368 :	11111111111111110111010100110010;
	1367 :	11111111111111101101011101110110;
	1366 :	00000000000000000001100010111010;
	1365 :	00000000000000001000001111010000;
	1364 :	11111111111111111101100111110101;
	1363 :	00000000000000000000001011001101;
	1362 :	00000000000000000110100001110100;
	1361 :	00000000000000000110110010000010;
	1360 :	00000000000000001100011000100111;
	1359 :	00000000000000000100000111101011;
	1358 :	00000000000000001101110000001101;
	1357 :	00000000000000000011000001001011;
	1356 :	00000000000000000001010101111011;
	1355 :	11111111111111111001011000110000;
	1354 :	11111111111111110110111010110010;
	1353 :	11111111111111111110100001100001;
	1352 :	00000000000000000011101100100100;
	1351 :	00000000000000001100101011000111;
	1350 :	00000000000000000001011110010111;
	1349 :	11111111111111111111001100110101;
	1348 :	00000000000000000000111001111101;
	1347 :	00000000000000000111001111100000;
	1346 :	00000000000000001000101110110011;
	1345 :	00000000000000000000101001100010;
	1344 :	00000000000000000100011110111100;
	1343 :	00000000000000001000010000100101;
	1342 :	00000000000000000111010100001101;
	1341 :	00000000000000000011110000000101;
	1340 :	00000000000000000000111010110000;
	1339 :	11111111111111111110100100110111;
	1338 :	11111111111111111110001101110000;
	1337 :	11111111111111111000100011100111;
	1336 :	11111111111111111101001101000110;
	1335 :	00000000000000000100110001111010;
	1334 :	00000000000000001000101011101111;
	1333 :	00000000000000000010001100101100;
	1332 :	00000000000000000010101011001111;
	1331 :	11111111111111111000011001110110;
	1330 :	11111111111111111110010100110011;
	1329 :	00000000000000000011010100101011;
	1328 :	00000000000000001001011001100100;
	1327 :	11111111111111111110000100111110;
	1326 :	11111111111111111101011110001001;
	1325 :	11111111111111111011010011011010;
	1324 :	00000000000000000001101110001101;
	1323 :	00000000000000000100001000100000;
	1322 :	00000000000000000110010001010000;
	1321 :	00000000000000000110000000100101;
	1320 :	00000000000000000011011110010101;
	1319 :	11111111111111111110111100101001;
	1318 :	00000000000000000111100001100100;
	1317 :	00000000000000000111000100000011;
	1316 :	00000000000000000001000000101100;
	1315 :	11111111111111111110100000010000;
	1314 :	11111111111111111101011010001001;
	1313 :	11111111111111110111101110001011;
	1312 :	00000000000000000100010111110010;
	1311 :	11111111111111111011001111101001;
	1310 :	11111111111111111011101000010100;
	1309 :	00000000000000000111001100101101;
	1308 :	00000000000000000010111010110100;
	1307 :	00000000000000000110010101101010;
	1306 :	00000000000000000101110110010101;
	1305 :	00000000000000000000001011011000;
	1304 :	11111111111111111011010011000100;
	1303 :	11111111111111111110101110100000;
	1302 :	00000000000000000101100011001001;
	1301 :	11111111111111110011001100011101;
	1300 :	11111111111111111110101100110101;
	1299 :	00000000000000000011011101000001;
	1298 :	11111111111111111000011000000010;
	1297 :	11111111111111111110101111000000;
	1296 :	00000000000000000101010010011011;
	1295 :	00000000000000000110011110110000;
	1294 :	11111111111111111000100100101011;
	1293 :	11111111111111111000010100011111;
	1292 :	11111111111111111010111010100010;
	1291 :	00000000000000000110000001110100;
	1290 :	00000000000000000000010000111100;
	1289 :	00000000000000000000000100101101;
	1288 :	00000000000000000001010101010100;
	1287 :	00000000000000000001111100100000;
	1286 :	11111111111111111101110110000110;
	1285 :	00000000000000000010111010010000;
	1284 :	11111111111111111111010111110101;
	1283 :	11111111111111111100011001111101;
	1282 :	00000000000000000011011111100100;
	1281 :	11111111111111111000101000011001;
	1280 :	11111111111111110111101011011110;
	1279 :	11111111111111111100011101011011;
	1278 :	00000000000000000101010001000110;
	1277 :	00000000000000000101001001011011;
	1276 :	11111111111111111010101011111110;
	1275 :	11111111111111111101110000110100;
	1274 :	00000000000000010011011110011000;
	1273 :	00000000000000000001101010000111;
	1272 :	00000000000000010010010011100111;
	1271 :	11111111111111111111100100100110;
	1270 :	11111111111111110101011111111101;
	1269 :	11111111111111111101001101101110;
	1268 :	11111111111111111100010110100101;
	1267 :	11111111111111110110100000011010;
	1266 :	11111111111111111101001110010111;
	1265 :	00000000000000001010010100011000;
	1264 :	11111111111111111011110010010101;
	1263 :	00000000000000000111100011011100;
	1262 :	00000000000000000110000100110001;
	1261 :	00000000000000000011010101101011;
	1260 :	11111111111111111010111010101011;
	1259 :	00000000000000000100001101001010;
	1258 :	00000000000000001001110011101111;
	1257 :	00000000000000001011011011101011;
	1256 :	11111111111111111101000110100010;
	1255 :	11111111111111110100110110000001;
	1254 :	11111111111111111000001101100100;
	1253 :	00000000000000001001001111111111;
	1252 :	00000000000000000110000101000011;
	1251 :	00000000000000000100110010010010;
	1250 :	00000000000000000001100011001110;
	1249 :	00000000000000000111010001011011;
	1248 :	11111111111111111001010110100010;
	1247 :	00000000000000001100110010000010;
	1246 :	00000000000000000101111110010000;
	1245 :	11111111111111111110000000000110;
	1244 :	11111111111111111110010011011110;
	1243 :	11111111111111111101001101101100;
	1242 :	11111111111111111010100000010100;
	1241 :	11111111111111110110010010011101;
	1240 :	11111111111111111100000100101011;
	1239 :	11111111111111111100110011110101;
	1238 :	11111111111111111100111001011101;
	1237 :	00000000000000001101011100010000;
	1236 :	11111111111111111010010110101010;
	1235 :	00000000000000000010101101011110;
	1234 :	00000000000000010101101101011010;
	1233 :	00000000000000001101011110111000;
	1232 :	00000000000000000101001101101010;
	1231 :	11111111111111111010101110000001;
	1230 :	11111111111111111000101001010011;
	1229 :	00000000000000001111100010001001;
	1228 :	00000000000000000111111110111010;
	1227 :	00000000000000001001100100111110;
	1226 :	11111111111111111011000010000111;
	1225 :	11111111111111111101101100100010;
	1224 :	00000000000000000010001001101000;
	1223 :	11111111111111111101101010010000;
	1222 :	00000000000000001001111101110111;
	1221 :	00000000000000000100001000101001;
	1220 :	00000000000000000001110100010000;
	1219 :	11111111111111111101110100000001;
	1218 :	00000000000000001001110010001110;
	1217 :	11111111111111111101111111011001;
	1216 :	11111111111111111100110100111001;
	1215 :	00000000000000010011100010100100;
	1214 :	11111111111111111001100101000011;
	1213 :	00000000000000001010101011001101;
	1212 :	00000000000000010011011101001001;
	1211 :	00000000000000000001010011001100;
	1210 :	00000000000000000111101011000010;
	1209 :	11111111111111111100011001111101;
	1208 :	00000000000000000111100111001110;
	1207 :	11111111111111111001001001011111;
	1206 :	11111111111111110111101010010110;
	1205 :	00000000000000000001100110011011;
	1204 :	00000000000000001001001101011101;
	1203 :	11111111111111110110011100010011;
	1202 :	00000000000000000000011101010011;
	1201 :	00000000000000001100110001010100;
	1200 :	00000000000000000011100010011000;
	1199 :	00000000000000001100100111101111;
	1198 :	11111111111111111010101101010101;
	1197 :	11111111111111111110000100010101;
	1196 :	11111111111111110100011000111101;
	1195 :	11111111111111111110011000101000;
	1194 :	11111111111111110100100100101000;
	1193 :	11111111111111111110011101011011;
	1192 :	00000000000000001010000111001001;
	1191 :	00000000000000000001010011011101;
	1190 :	00000000000000000110100001100000;
	1189 :	00000000000000000011001010001111;
	1188 :	00000000000000001010111001101101;
	1187 :	00000000000000000110000010011110;
	1186 :	00000000000000000110110010011000;
	1185 :	11111111111111111100110001100110;
	1184 :	00000000000000001011110101010000;
	1183 :	00000000000000000011001110100101;
	1182 :	00000000000000001011000100000110;
	1181 :	00000000000000001000101000111000;
	1180 :	00000000000000000100011011100010;
	1179 :	00000000000000000011011010101101;
	1178 :	00000000000000001001001000100111;
	1177 :	00000000000000001111111000110000;
	1176 :	11111111111111111101000011001011;
	1175 :	00000000000000000100011100111100;
	1174 :	00000000000000001010101000100111;
	1173 :	00000000000000000101010000110001;
	1172 :	11111111111111110111111010011010;
	1171 :	11111111111111110011101011100000;
	1170 :	11111111111111111111000111100101;
	1169 :	00000000000000001010101011010011;
	1168 :	11111111111111111111001000000111;
	1167 :	11111111111111111110110110101100;
	1166 :	00000000000000001100101000001100;
	1165 :	00000000000000000001100100111001;
	1164 :	11111111111111111100000101101110;
	1163 :	11111111111111111101110011001111;
	1162 :	11111111111111111010110110011000;
	1161 :	00000000000000000000010101010011;
	1160 :	00000000000000000010111000100100;
	1159 :	11111111111111111111111111110110;
	1158 :	11111111111111111101111011010000;
	1157 :	11111111111111110110100000010001;
	1156 :	11111111111111111000000011010111;
	1155 :	00000000000000000011011000000111;
	1154 :	00000000000000001110101111101101;
	1153 :	11111111111111111100011010111111;
	1152 :	11111111111111111001010100001110;
	1151 :	00000000000000000111110011000101;
	1150 :	00000000000000000011010000100111;
	1149 :	11111111111111110100111010100110;
	1148 :	00000000000000001001110111010110;
	1147 :	00000000000000000101011011001001;
	1146 :	11111111111111111110000000111111;
	1145 :	00000000000000010000110100000000;
	1144 :	11111111111111111110001001010001;
	1143 :	11111111111111111010001000100011;
	1142 :	00000000000000001000111101000000;
	1141 :	00000000000000000010001101000010;
	1140 :	00000000000000000011010001011000;
	1139 :	00000000000000001010111011111001;
	1138 :	00000000000000001010101100010000;
	1137 :	11111111111111110111000101110011;
	1136 :	00000000000000001000000011010011;
	1135 :	11111111111111111101110111101000;
	1134 :	00000000000000000001100011101111;
	1133 :	00000000000000001101110110010000;
	1132 :	00000000000000000101000101110010;
	1131 :	00000000000000000101110101101010;
	1130 :	11111111111111111000110110110101;
	1129 :	00000000000000000010010011000111;
	1128 :	11111111111111111001111000011000;
	1127 :	00000000000000000110101001000100;
	1126 :	11111111111111111011010101010010;
	1125 :	00000000000000000010010101111010;
	1124 :	11111111111111111100100000001111;
	1123 :	11111111111111111100011000011110;
	1122 :	00000000000000000100010010101011;
	1121 :	00000000000000001000000000010110;
	1120 :	00000000000000000010011110111001;
	1119 :	00000000000000000111110110001000;
	1118 :	11111111111111111100011100011010;
	1117 :	11111111111111110101100011101101;
	1116 :	00000000000000000000101100000010;
	1115 :	11111111111111111111000010111011;
	1114 :	00000000000000001010111100110011;
	1113 :	11111111111111111010101111110100;
	1112 :	11111111111111111100111001100110;
	1111 :	00000000000000000001011101010011;
	1110 :	11111111111111111101011100001011;
	1109 :	11111111111111111001101110110101;
	1108 :	11111111111111111101100011110000;
	1107 :	00000000000000000111111101000110;
	1106 :	00000000000000000111110001101111;
	1105 :	11111111111111111100110001000110;
	1104 :	00000000000000000001111110101110;
	1103 :	11111111111111111001101011000100;
	1102 :	11111111111111111100100011101110;
	1101 :	00000000000000000011111110011101;
	1100 :	00000000000000000101101001100000;
	1099 :	11111111111111110111000100100111;
	1098 :	11111111111111111100101010001010;
	1097 :	00000000000000000001100111000111;
	1096 :	11111111111111111111000101101010;
	1095 :	00000000000000001100100000001011;
	1094 :	00000000000000000010100100111101;
	1093 :	11111111111111111011111001001111;
	1092 :	00000000000000001000110010111101;
	1091 :	00000000000000000110011111000111;
	1090 :	11111111111111110001111011001011;
	1089 :	00000000000000000100110111010101;
	1088 :	00000000000000000011010000110000;
	1087 :	00000000000000000110000010101110;
	1086 :	00000000000000001110001011000010;
	1085 :	11111111111111101111011101100011;
	1084 :	00000000000000000100011101000100;
	1083 :	11111111111111110111101000001101;
	1082 :	11111111111111111000011010001100;
	1081 :	11111111111111110100000011101001;
	1080 :	11111111111111111101010100101111;
	1079 :	00000000000000000101110111111000;
	1078 :	11111111111111111101000100101000;
	1077 :	11111111111111110111111111001001;
	1076 :	00000000000000000010000110101110;
	1075 :	00000000000000010000111110100010;
	1074 :	11111111111111110101001111110001;
	1073 :	00000000000000000001010001000000;
	1072 :	00000000000000001000000101011100;
	1071 :	11111111111111111100110111010111;
	1070 :	11111111111111111000001010001101;
	1069 :	00000000000000001100000110011110;
	1068 :	11111111111111111100010011001110;
	1067 :	11111111111111111010001100110101;
	1066 :	00000000000000000000100001111011;
	1065 :	00000000000000000001101000111000;
	1064 :	00000000000000000011100000101011;
	1063 :	11111111111111111100111111101100;
	1062 :	00000000000000000001110111011111;
	1061 :	00000000000000000001110110100000;
	1060 :	00000000000000000001111100001100;
	1059 :	11111111111111111001100001010001;
	1058 :	00000000000000001011011010111010;
	1057 :	00000000000000000100011000111011;
	1056 :	11111111111111111000100110111111;
	1055 :	00000000000000010000100101011101;
	1054 :	11111111111111111000110111110010;
	1053 :	00000000000000000010100111011110;
	1052 :	11111111111111111101000001010111;
	1051 :	11111111111111110101001100101011;
	1050 :	00000000000000000111101001011111;
	1049 :	00000000000000000001100101111101;
	1048 :	00000000000000000010110001111001;
	1047 :	11111111111111111011100010000110;
	1046 :	11111111111111110110100000100100;
	1045 :	11111111111111110100010011010011;
	1044 :	11111111111111101110011001000110;
	1043 :	00000000000000000001100101101111;
	1042 :	11111111111111111000110110001100;
	1041 :	11111111111111111101100011001000;
	1040 :	11111111111111111001101111110010;
	1039 :	00000000000000001001110101110101;
	1038 :	00000000000000001000110011001101;
	1037 :	11111111111111111011011001010000;
	1036 :	00000000000000000110101010000011;
	1035 :	00000000000000000000001000111000;
	1034 :	11111111111111111111111010001011;
	1033 :	00000000000000000010010101110101;
	1032 :	00000000000000000101110010001101;
	1031 :	11111111111111111110100001110011;
	1030 :	11111111111111111111100011000100;
	1029 :	11111111111111111011111111111001;
	1028 :	11111111111111110011100111001001;
	1027 :	11111111111111111110001011010101;
	1026 :	11111111111111111011001011010110;
	1025 :	00000000000000000111101010000100;
	1024 :	00000000000000001000000101100011;
	1023 :	11111111111111111111110001101101;
	1022 :	11111111111111111011101111110101;
	1021 :	00000000000000000011101001110111;
	1020 :	00000000000000000001110111010100;
	1019 :	00000000000000000010011110110000;
	1018 :	11111111111111110110000010111010;
	1017 :	00000000000000010001010100010010;
	1016 :	11111111111111111010111110000011;
	1015 :	00000000000000000111100100101100;
	1014 :	00000000000000001000011101000100;
	1013 :	11111111111111111011010111010111;
	1012 :	00000000000000001011001000100000;
	1011 :	00000000000000000111011001000000;
	1010 :	11111111111111111111011111100101;
	1009 :	11111111111111111010101010110000;
	1008 :	11111111111111111111000000110101;
	1007 :	11111111111111110100011001010111;
	1006 :	00000000000000001101110011110011;
	1005 :	11111111111111111101110110110000;
	1004 :	11111111111111111010110110011100;
	1003 :	00000000000000001001011001011011;
	1002 :	00000000000000000100011110000111;
	1001 :	00000000000000000110100001111100;
	1000 :	00000000000000000101000110011111;
	999 :	00000000000000001110001110010001;
	998 :	11111111111111111101110100001100;
	997 :	11111111111111111100110000101011;
	996 :	11111111111111111001010000111000;
	995 :	11111111111111111010110001000000;
	994 :	00000000000000000001110010111001;
	993 :	11111111111111111101111010100010;
	992 :	11111111111111111010100100011011;
	991 :	11111111111111111011001101010011;
	990 :	00000000000000000010010110011011;
	989 :	00000000000000000001110100000101;
	988 :	11111111111111111111001001010101;
	987 :	11111111111111111001111000100001;
	986 :	11111111111111111111101001000011;
	985 :	00000000000000000000001001101110;
	984 :	00000000000000001101111000100111;
	983 :	11111111111111111100110000000100;
	982 :	11111111111111111100011101100111;
	981 :	11111111111111111010001110101111;
	980 :	00000000000000000000101100111001;
	979 :	00000000000000000001101010101011;
	978 :	11111111111111111110001100000010;
	977 :	11111111111111111101101101100110;
	976 :	11111111111111111010100100000010;
	975 :	11111111111111111111010100100101;
	974 :	00000000000000000011000001001011;
	973 :	00000000000000000000011101110010;
	972 :	11111111111111111011101011001010;
	971 :	00000000000000000000010010110001;
	970 :	00000000000000000000011011100000;
	969 :	11111111111111111000010010001000;
	968 :	00000000000000000110110100001010;
	967 :	11111111111111111101010110010000;
	966 :	11111111111111110110100111001100;
	965 :	00000000000000000000001110000111;
	964 :	00000000000000010001000001011100;
	963 :	00000000000000001101010010001010;
	962 :	11111111111111111100110011001100;
	961 :	00000000000000000000100001001011;
	960 :	00000000000000000010000001100010;
	959 :	11111111111111110111101011110100;
	958 :	11111111111111111010101101100100;
	957 :	11111111111111111001101001010101;
	956 :	11111111111111110011011101010111;
	955 :	11111111111111111011011010111000;
	954 :	00000000000000000100101101111100;
	953 :	11111111111111111001101101101101;
	952 :	00000000000000000100100100110011;
	951 :	00000000000000000111001010110100;
	950 :	00000000000000001010000011100100;
	949 :	11111111111111111100011001100000;
	948 :	11111111111111111001010100101000;
	947 :	00000000000000000000011000011110;
	946 :	11111111111111110010000101100100;
	945 :	00000000000000000100011011111011;
	944 :	00000000000000000111011101010101;
	943 :	00000000000000000110110000110111;
	942 :	00000000000000010001010010000100;
	941 :	11111111111111110111101110000111;
	940 :	11111111111111111000010111000011;
	939 :	00000000000000000111011010001010;
	938 :	00000000000000001011111110100101;
	937 :	00000000000000000011000000110110;
	936 :	00000000000000000000111010001100;
	935 :	00000000000000000010011111011110;
	934 :	11111111111111111101011110110100;
	933 :	11111111111111110110110011001010;
	932 :	00000000000000001001000010101010;
	931 :	11111111111111111001011010110101;
	930 :	11111111111111111011111010011101;
	929 :	11111111111111111101000000111110;
	928 :	00000000000000001001000100100000;
	927 :	11111111111111110011111111000010;
	926 :	11111111111111111001010111100011;
	925 :	00000000000000001001001100111101;
	924 :	00000000000000000001001001101101;
	923 :	11111111111111111100100101101011;
	922 :	11111111111111111011000101011101;
	921 :	11111111111111111011100011110001;
	920 :	11111111111111111101010011110000;
	919 :	00000000000000000011011001100000;
	918 :	00000000000000001000100100110111;
	917 :	00000000000000000011100100100111;
	916 :	00000000000000001001001101110111;
	915 :	00000000000000001001011001100010;
	914 :	11111111111111110111100111111111;
	913 :	00000000000000000000001111110011;
	912 :	11111111111111111001011001100001;
	911 :	00000000000000001000001110000110;
	910 :	00000000000000000000000111100111;
	909 :	11111111111111110101110110110010;
	908 :	11111111111111111000110000100101;
	907 :	00000000000000001011011010010011;
	906 :	00000000000000000010111110111001;
	905 :	11111111111111110111110111011010;
	904 :	00000000000000000100001011011011;
	903 :	00000000000000000101000011011101;
	902 :	11111111111111111100110011011100;
	901 :	00000000000000000000100110011011;
	900 :	11111111111111111001101011011000;
	899 :	11111111111111110111010001001110;
	898 :	11111111111111111011000011010011;
	897 :	00000000000000000100111100110100;
	896 :	11111111111111111101011110010011;
	895 :	00000000000000001000111000111110;
	894 :	11111111111111110111000110111011;
	893 :	11111111111111111100000010100100;
	892 :	00000000000000000100011000100000;
	891 :	00000000000000001000110010000101;
	890 :	00000000000000000000111001001111;
	889 :	00000000000000000110000010011100;
	888 :	00000000000000000100001000000000;
	887 :	11111111111111111010000111011100;
	886 :	00000000000000000100011010111100;
	885 :	00000000000000000010100000100001;
	884 :	00000000000000000001010100100011;
	883 :	00000000000000000111101101000001;
	882 :	00000000000000001001101100111100;
	881 :	00000000000000000010011100001010;
	880 :	00000000000000001100101001111100;
	879 :	00000000000000000000001101101011;
	878 :	11111111111111111101101010101100;
	877 :	11111111111111111110010110111111;
	876 :	00000000000000000110110101001110;
	875 :	00000000000000000001101101101101;
	874 :	11111111111111111110010010100101;
	873 :	11111111111111111000100110111100;
	872 :	00000000000000000100110010001101;
	871 :	11111111111111111101100101101001;
	870 :	00000000000000000010001010000000;
	869 :	00000000000000000000010011111001;
	868 :	11111111111111111101001010010110;
	867 :	00000000000000000001100101101111;
	866 :	11111111111111110100100001000100;
	865 :	00000000000000001101001000011011;
	864 :	00000000000000000001001000010001;
	863 :	11111111111111110100110111100011;
	862 :	00000000000000001010011010000001;
	861 :	11111111111111111001001110101001;
	860 :	00000000000000000110111011011110;
	859 :	11111111111111111001111001110101;
	858 :	11111111111111111001100100011010;
	857 :	00000000000000000011110100110100;
	856 :	11111111111111111000000101000100;
	855 :	11111111111111111001011100010100;
	854 :	11111111111111111011101011101010;
	853 :	00000000000000000011100110010100;
	852 :	00000000000000000100101111001100;
	851 :	11111111111111110111100101010011;
	850 :	11111111111111111110011010111110;
	849 :	11111111111111111000100100011100;
	848 :	00000000000000000110001101100001;
	847 :	00000000000000000000011101110110;
	846 :	11111111111111111010010111101110;
	845 :	00000000000000000101100101110111;
	844 :	11111111111111111001101011111001;
	843 :	00000000000000001010111000011011;
	842 :	00000000000000000001001000110011;
	841 :	00000000000000000100010100001100;
	840 :	11111111111111111001111011111001;
	839 :	00000000000000000100100001101011;
	838 :	00000000000000000101010001110010;
	837 :	00000000000000000101001111110110;
	836 :	11111111111111111110001011010001;
	835 :	11111111111111110010000110101100;
	834 :	11111111111111111001011101100101;
	833 :	11111111111111110110111111100011;
	832 :	00000000000000000010010011101110;
	831 :	11111111111111111010010101011100;
	830 :	11111111111111111111100000011111;
	829 :	11111111111111111111010001011100;
	828 :	11111111111111110101000010001100;
	827 :	00000000000000000010010110010010;
	826 :	11111111111111110110111100001010;
	825 :	00000000000000000000100001110001;
	824 :	00000000000000001000000011110011;
	823 :	00000000000000001000101101001010;
	822 :	11111111111111111010110010010100;
	821 :	11111111111111111001011101101111;
	820 :	00000000000000000111110011000010;
	819 :	11111111111111111100001011011111;
	818 :	11111111111111111100111001011000;
	817 :	11111111111111111011100000111101;
	816 :	11111111111111111101111100000101;
	815 :	11111111111111111000100001000100;
	814 :	11111111111111111101110010101010;
	813 :	00000000000000000110101001001100;
	812 :	00000000000000000111111111111110;
	811 :	00000000000000001000001110110010;
	810 :	00000000000000000111101101100000;
	809 :	11111111111111111111000110001001;
	808 :	11111111111111111011001100010111;
	807 :	00000000000000000001111101010101;
	806 :	00000000000000000000111110011010;
	805 :	11111111111111111000100101010010;
	804 :	00000000000000000010010100001111;
	803 :	11111111111111111100110000101101;
	802 :	11111111111111111000001000100101;
	801 :	11111111111111111011111101110111;
	800 :	11111111111111111001100110101111;
	799 :	00000000000000000110110110111001;
	798 :	00000000000000000110010011011111;
	797 :	11111111111111111100110101100101;
	796 :	00000000000000000111101110110010;
	795 :	00000000000000000001100110011110;
	794 :	11111111111111111111001111001110;
	793 :	00000000000000000001100000010111;
	792 :	00000000000000000000101010010100;
	791 :	00000000000000000101010100000001;
	790 :	11111111111111111011011111100110;
	789 :	11111111111111111100011101011101;
	788 :	00000000000000001000100011000111;
	787 :	00000000000000001011100111111110;
	786 :	11111111111111111110010011111001;
	785 :	11111111111111111000110000110101;
	784 :	00000000000000000011100110010010;
	783 :	00000000000000000101010011000000;
	782 :	00000000000000000110100100110101;
	781 :	11111111111111111000001000110100;
	780 :	11111111111111111011000000101011;
	779 :	11111111111111111000110101101111;
	778 :	11111111111111111111010001000010;
	777 :	11111111111111111110100101101110;
	776 :	00000000000000000111001101100101;
	775 :	11111111111111110111101001100100;
	774 :	00000000000000000010011000010100;
	773 :	11111111111111111010000111000010;
	772 :	11111111111111111011011001010100;
	771 :	00000000000000001000011011000101;
	770 :	11111111111111111010101100001011;
	769 :	11111111111111111001011101101011;
	768 :	11111111111111111011111011101000;
	767 :	11111111111111110110001010000110;
	766 :	11111111111111111101001011100011;
	765 :	11111111111111111101101111110111;
	764 :	11111111111111111001011001111100;
	763 :	00000000000000001000100001000000;
	762 :	00000000000000000101001011000110;
	761 :	11111111111111111111110000001111;
	760 :	00000000000000000111000101100001;
	759 :	00000000000000000001000110001111;
	758 :	11111111111111110110010100100100;
	757 :	11111111111111110110000010011001;
	756 :	00000000000000000001111000111101;
	755 :	00000000000000000101101111001100;
	754 :	11111111111111111110110000000011;
	753 :	00000000000000000111001100010001;
	752 :	00000000000000001110101100101101;
	751 :	00000000000000000011111110000001;
	750 :	00000000000000000000101100001000;
	749 :	11111111111111111111101101011111;
	748 :	00000000000000000001111100111010;
	747 :	11111111111111111111001001101100;
	746 :	11111111111111111010001100000101;
	745 :	11111111111111111111111001011110;
	744 :	00000000000000001000010111111000;
	743 :	11111111111111110110100011011011;
	742 :	00000000000000000101011100000001;
	741 :	11111111111111111100000000100000;
	740 :	00000000000000001011000110001001;
	739 :	11111111111111111111100000011000;
	738 :	11111111111111110011001101000110;
	737 :	00000000000000001101011011011100;
	736 :	11111111111111111101011100011001;
	735 :	00000000000000001101010111000110;
	734 :	00000000000000000100101001111101;
	733 :	11111111111111111010000001111011;
	732 :	11111111111111110111111101010101;
	731 :	11111111111111111010101011001000;
	730 :	11111111111111111011111001011000;
	729 :	11111111111111111100000001111011;
	728 :	00000000000000000011011110111000;
	727 :	11111111111111111001111101111001;
	726 :	11111111111111111011000100111110;
	725 :	00000000000000000001100000111100;
	724 :	00000000000000000000001101011100;
	723 :	00000000000000000110011011000000;
	722 :	11111111111111111001101110100010;
	721 :	00000000000000001011011101101110;
	720 :	00000000000000000001010101111001;
	719 :	00000000000000001010011000111111;
	718 :	11111111111111110111000110001001;
	717 :	00000000000000000101000110110101;
	716 :	11111111111111111100000010011110;
	715 :	00000000000000000010111001011001;
	714 :	11111111111111111111110100110001;
	713 :	11111111111111111100010010001110;
	712 :	11111111111111111100000100100110;
	711 :	00000000000000000110011010111100;
	710 :	00000000000000001000111101110100;
	709 :	00000000000000001010110101111010;
	708 :	11111111111111110111101000101001;
	707 :	11111111111111111110000010011110;
	706 :	11111111111111111000010001000100;
	705 :	00000000000000000010111001001000;
	704 :	00000000000000000100000010101011;
	703 :	11111111111111111110001110000111;
	702 :	00000000000000001100001001101001;
	701 :	11111111111111111111100111111010;
	700 :	00000000000000000001001111010110;
	699 :	00000000000000000011100011101101;
	698 :	11111111111111110111011000111110;
	697 :	11111111111111111100010100110010;
	696 :	00000000000000000111101100011101;
	695 :	00000000000000001000011001001011;
	694 :	00000000000000001010110010110000;
	693 :	00000000000000000101101000101010;
	692 :	11111111111111111111010011100111;
	691 :	11111111111111111000100010110100;
	690 :	11111111111111111101010101111100;
	689 :	00000000000000000100010110000100;
	688 :	11111111111111111101011100010111;
	687 :	11111111111111111010001011111001;
	686 :	00000000000000000101110011011010;
	685 :	00000000000000000011000001100010;
	684 :	11111111111111111010011100010110;
	683 :	00000000000000001000000111011001;
	682 :	11111111111111111111001011110100;
	681 :	11111111111111111101011001010101;
	680 :	11111111111111111111110010001011;
	679 :	11111111111111111010011101101000;
	678 :	00000000000000001001110100100110;
	677 :	00000000000000000000100000111110;
	676 :	00000000000000000010110000011000;
	675 :	00000000000000001001100010101000;
	674 :	11111111111111111110011101011001;
	673 :	00000000000000001010000110101111;
	672 :	11111111111111111001000100111011;
	671 :	11111111111111111101101001100011;
	670 :	11111111111111111011000001010000;
	669 :	11111111111111111001111000001011;
	668 :	11111111111111111001011000001101;
	667 :	00000000000000000010101001100110;
	666 :	11111111111111110110001010111001;
	665 :	00000000000000000100010001010010;
	664 :	11111111111111111010010111100100;
	663 :	00000000000000001000110101110001;
	662 :	00000000000000000111011101000110;
	661 :	00000000000000000000101000111101;
	660 :	00000000000000001000111111001010;
	659 :	11111111111111111011100000101011;
	658 :	00000000000000001100101000001001;
	657 :	11111111111111111000011111111000;
	656 :	00000000000000000100011011110110;
	655 :	11111111111111110110010011010001;
	654 :	11111111111111111110100011011111;
	653 :	00000000000000000001101001000001;
	652 :	00000000000000000001110101101000;
	651 :	11111111111111110110001111100100;
	650 :	00000000000000000101010100100000;
	649 :	00000000000000000101110011111111;
	648 :	00000000000000000110110010011011;
	647 :	00000000000000000010101011000011;
	646 :	00000000000000000000001000010111;
	645 :	00000000000000000010100001001101;
	644 :	00000000000000001110011100110010;
	643 :	11111111111111110111110001111100;
	642 :	00000000000000001001001101000101;
	641 :	11111111111111111110000010000111;
	640 :	11111111111111111110111000100001;
	639 :	11111111111111111011110111111010;
	638 :	00000000000000000011111000110100;
	637 :	11111111111111111101101101101011;
	636 :	11111111111111111100000101100011;
	635 :	00000000000000000000100110000011;
	634 :	11111111111111111110101001010001;
	633 :	11111111111111111111101001010000;
	632 :	00000000000000001000010110100011;
	631 :	11111111111111111000010011000100;
	630 :	00000000000000000011010010111010;
	629 :	11111111111111111101010101111110;
	628 :	00000000000000000000000011110111;
	627 :	11111111111111111100100000011111;
	626 :	11111111111111111111101100000110;
	625 :	00000000000000000111110010011100;
	624 :	11111111111111111011110000110010;
	623 :	11111111111111111110110101011011;
	622 :	11111111111111111110111011110101;
	621 :	00000000000000000000011110100010;
	620 :	00000000000000000010101000101100;
	619 :	11111111111111111000100110000101;
	618 :	00000000000000000101111110000100;
	617 :	11111111111111111011011010100110;
	616 :	11111111111111110100110011000111;
	615 :	00000000000000000001101100101100;
	614 :	11111111111111111110001000010010;
	613 :	11111111111111110110010110001011;
	612 :	11111111111111110111000100111100;
	611 :	11111111111111111001010100000011;
	610 :	11111111111111111010011110100111;
	609 :	00000000000000000001100000101101;
	608 :	00000000000000001100111100010011;
	607 :	00000000000000000100110001011000;
	606 :	11111111111111111011010111110001;
	605 :	00000000000000000101000010101010;
	604 :	00000000000000000000110110010011;
	603 :	11111111111111111101110111011111;
	602 :	11111111111111111011010001111000;
	601 :	00000000000000001010001111011100;
	600 :	00000000000000000101101000001101;
	599 :	11111111111111111111010100111010;
	598 :	11111111111111110110110111101110;
	597 :	00000000000000000001010011111010;
	596 :	00000000000000000100101110111111;
	595 :	00000000000000000011101010101001;
	594 :	00000000000000000001110010001111;
	593 :	11111111111111111010111101011100;
	592 :	11111111111111111100110100011011;
	591 :	00000000000000000011101101110100;
	590 :	00000000000000000110110011001111;
	589 :	11111111111111111100100011000010;
	588 :	11111111111111111110101111010011;
	587 :	11111111111111111111101100000100;
	586 :	11111111111111110111101110001111;
	585 :	11111111111111111011000011001110;
	584 :	00000000000000000001000101010111;
	583 :	00000000000000000010000111111011;
	582 :	11111111111111111111100111011111;
	581 :	00000000000000001000010000100100;
	580 :	11111111111111111000011110011100;
	579 :	00000000000000000101011101101001;
	578 :	00000000000000001000000100110010;
	577 :	11111111111111111001010111001010;
	576 :	00000000000000000110010001001010;
	575 :	00000000000000000101100011000000;
	574 :	11111111111111111111110000001000;
	573 :	00000000000000001000110111111110;
	572 :	00000000000000000101100111111010;
	571 :	11111111111111111011011100011111;
	570 :	11111111111111111010011011111010;
	569 :	00000000000000000101111000001111;
	568 :	11111111111111111101000101011010;
	567 :	00000000000000000111010110111100;
	566 :	00000000000000000001101111101010;
	565 :	00000000000000000001000010100111;
	564 :	00000000000000001101000100111001;
	563 :	11111111111111111001100100000001;
	562 :	11111111111111111010011011100010;
	561 :	11111111111111111010000101110000;
	560 :	11111111111111111010001100010110;
	559 :	11111111111111111000111001001111;
	558 :	11111111111111111010000101100001;
	557 :	00000000000000000011101011111011;
	556 :	11111111111111111101001100100010;
	555 :	00000000000000000000001110110100;
	554 :	00000000000000000001110100001000;
	553 :	00000000000000000011001110111111;
	552 :	11111111111111111011011010010110;
	551 :	00000000000000000000011110011001;
	550 :	00000000000000000001001110010110;
	549 :	11111111111111111110010011011011;
	548 :	11111111111111111001000101010010;
	547 :	11111111111111111100001110011010;
	546 :	11111111111111111101000010010110;
	545 :	00000000000000000101100011100000;
	544 :	11111111111111111111110011101011;
	543 :	00000000000000000001011010101101;
	542 :	11111111111111111011100110110100;
	541 :	00000000000000000110111100111000;
	540 :	00000000000000000000100001011011;
	539 :	00000000000000000011010011011100;
	538 :	11111111111111111111110000011111;
	537 :	11111111111111111001011101101011;
	536 :	00000000000000001100010010100001;
	535 :	00000000000000001000000001000111;
	534 :	11111111111111111101001110010110;
	533 :	00000000000000000111011001100001;
	532 :	11111111111111111011000011100000;
	531 :	11111111111111111011100000011001;
	530 :	00000000000000000000001111011110;
	529 :	11111111111111111101110101111111;
	528 :	11111111111111111011101110111101;
	527 :	11111111111111111010001100001000;
	526 :	11111111111111111001111111001100;
	525 :	00000000000000000111000111110001;
	524 :	11111111111111111111110111111000;
	523 :	00000000000000000011111001111110;
	522 :	11111111111111111100100111010011;
	521 :	11111111111111111101101000001100;
	520 :	00000000000000000000101000001001;
	519 :	00000000000000000011101011101001;
	518 :	11111111111111111011110011110001;
	517 :	11111111111111111100100111111100;
	516 :	00000000000000000101101010011010;
	515 :	00000000000000000001011001110011;
	514 :	00000000000000000011010111011111;
	513 :	00000000000000000100000100100101;
	512 :	00000000000000000011011000110001;
	511 :	11111111111111111101010110000110;
	510 :	00000000000000000011111100000011;
	509 :	11111111111111111011101111001101;
	508 :	11111111111111111011011001011000;
	507 :	00000000000000000010101010011000;
	506 :	11111111111111111011010100000100;
	505 :	11111111111111110010011111001010;
	504 :	11111111111111111100010100100110;
	503 :	00000000000000001100100100011110;
	502 :	00000000000000000100010110010011;
	501 :	00000000000000001010001000010000;
	500 :	00000000000000000100000101100111;
	499 :	11111111111111111101001100010011;
	498 :	11111111111111111010001100110010;
	497 :	00000000000000000100010011101011;
	496 :	00000000000000000111011011011011;
	495 :	11111111111111110111111101000001;
	494 :	00000000000000000010010100110001;
	493 :	11111111111111110111111000111001;
	492 :	00000000000000001000100011001001;
	491 :	11111111111111111011011101011111;
	490 :	00000000000000000101000010101001;
	489 :	11111111111111111000110101111111;
	488 :	00000000000000000111100101110010;
	487 :	00000000000000000100101010101000;
	486 :	00000000000000001000111100000001;
	485 :	11111111111111110111100001011011;
	484 :	00000000000000001010111011110010;
	483 :	11111111111111111001011011111010;
	482 :	00000000000000000110100001100000;
	481 :	00000000000000000000011011101110;
	480 :	00000000000000000011100111011110;
	479 :	11111111111111111001111001000010;
	478 :	11111111111111110101011101100000;
	477 :	00000000000000001000001000011101;
	476 :	00000000000000000010100011010011;
	475 :	00000000000000001001010111101011;
	474 :	11111111111111111001100111001110;
	473 :	00000000000000000100000101000011;
	472 :	00000000000000000001011010001001;
	471 :	11111111111111111001110101011111;
	470 :	11111111111111111110010010000011;
	469 :	11111111111111111011110001010111;
	468 :	00000000000000000101000000100110;
	467 :	00000000000000000100010111001011;
	466 :	11111111111111111011000100001100;
	465 :	11111111111111110100101111010011;
	464 :	11111111111111110110101010110110;
	463 :	11111111111111111000010100010100;
	462 :	11111111111111111011110001111000;
	461 :	11111111111111110000100110000010;
	460 :	00000000000000001000000110110100;
	459 :	00000000000000001000010110101100;
	458 :	11111111111111111110101101111010;
	457 :	00000000000000000000100111111001;
	456 :	00000000000000000000100100010100;
	455 :	11111111111111111010101101000101;
	454 :	11111111111111111110010000110110;
	453 :	11111111111111111011001011010001;
	452 :	11111111111111111010100110010110;
	451 :	00000000000000000100100100111110;
	450 :	11111111111111111100111111100100;
	449 :	11111111111111110101100000110000;
	448 :	00000000000000000011111001110111;
	447 :	00000000000000000100100101101001;
	446 :	00000000000000000101111110110000;
	445 :	11111111111111111010000101001010;
	444 :	11111111111111111011001100011000;
	443 :	00000000000000000000011101111011;
	442 :	00000000000000000001000011011110;
	441 :	11111111111111111010010101000011;
	440 :	00000000000000000001011100011011;
	439 :	00000000000000001100110101100000;
	438 :	11111111111111111101110100001010;
	437 :	00000000000000000010101010000101;
	436 :	00000000000000000010000111000110;
	435 :	00000000000000000111000110011110;
	434 :	11111111111111111100001100010111;
	433 :	00000000000000000000001110110110;
	432 :	00000000000000001010010111111110;
	431 :	11111111111111110110101111101101;
	430 :	11111111111111111110001001000110;
	429 :	00000000000000000100111011101001;
	428 :	00000000000000000010100110011110;
	427 :	00000000000000001010011100110001;
	426 :	11111111111111111111000100110001;
	425 :	11111111111111111100000001011110;
	424 :	00000000000000000010011000000110;
	423 :	00000000000000001110100010110100;
	422 :	00000000000000001001001000001010;
	421 :	00000000000000000000000110110100;
	420 :	11111111111111111011101101101110;
	419 :	11111111111111111011000000100011;
	418 :	11111111111111111010000010100100;
	417 :	11111111111111111001100011100111;
	416 :	00000000000000000011010100011010;
	415 :	11111111111111111101001111010001;
	414 :	11111111111111110101100001111100;
	413 :	00000000000000000001101101001100;
	412 :	00000000000000000111000101101111;
	411 :	00000000000000000111111110000001;
	410 :	11111111111111111101111001001101;
	409 :	11111111111111111110001001010101;
	408 :	11111111111111111100110001000001;
	407 :	11111111111111110110011101010101;
	406 :	00000000000000000101101011111011;
	405 :	11111111111111110010110110001010;
	404 :	11111111111111111110001110000111;
	403 :	00000000000000000111101111110100;
	402 :	11111111111111110111011110101001;
	401 :	11111111111111111010110000001001;
	400 :	11111111111111111100100001001010;
	399 :	00000000000000000011010111000011;
	398 :	00000000000000000110100101110010;
	397 :	11111111111111111100110010101001;
	396 :	11111111111111111010100100011111;
	395 :	11111111111111111000110000011100;
	394 :	11111111111111111011110010100100;
	393 :	11111111111111111010111100110010;
	392 :	00000000000000000011111000111011;
	391 :	00000000000000000001000010010010;
	390 :	00000000000000000000111111000100;
	389 :	11111111111111111101000100010101;
	388 :	11111111111111111111011010010110;
	387 :	00000000000000000010001011101100;
	386 :	11111111111111111110000111011110;
	385 :	11111111111111111001011001011010;
	384 :	11111111111111111011110000111001;
	383 :	11111111111111110111110110000100;
	382 :	00000000000000000110010101011001;
	381 :	00000000000000000010001101000010;
	380 :	00000000000000000010011000001110;
	379 :	11111111111111111110111111101110;
	378 :	00000000000000000010111010010101;
	377 :	00000000000000000011110100001110;
	376 :	11111111111111110100000010111111;
	375 :	11111111111111111111100000011000;
	374 :	00000000000000000000010011011011;
	373 :	11111111111111111010100100111110;
	372 :	11111111111111111101110100110011;
	371 :	00000000000000001000111100001100;
	370 :	00000000000000000110011111110000;
	369 :	00000000000000000011101000110000;
	368 :	11111111111111111101001111101000;
	367 :	00000000000000000101000000111100;
	366 :	11111111111111111111001100100100;
	365 :	00000000000000000011111010100001;
	364 :	00000000000000000001100100111011;
	363 :	00000000000000001011000010000010;
	362 :	00000000000000000000100010101000;
	361 :	11111111111111111011011010110110;
	360 :	11111111111111111111000010001110;
	359 :	11111111111111111001100101000110;
	358 :	00000000000000000110011111101111;
	357 :	11111111111111111111100001100110;
	356 :	00000000000000000010111010011110;
	355 :	00000000000000000001011000100100;
	354 :	11111111111111111000000010011101;
	353 :	00000000000000001010101110111000;
	352 :	11111111111111111100101111010001;
	351 :	00000000000000000111111111011111;
	350 :	11111111111111111011001101101100;
	349 :	11111111111111111101101110111110;
	348 :	11111111111111111100010011101011;
	347 :	00000000000000000101010100110110;
	346 :	11111111111111111011110111100010;
	345 :	11111111111111111110100100110001;
	344 :	11111111111111110111100011000111;
	343 :	00000000000000000111111111001101;
	342 :	11111111111111111111000110100001;
	341 :	00000000000000000100000100100111;
	340 :	00000000000000000010001001000000;
	339 :	00000000000000000111010001000111;
	338 :	00000000000000000001000111000000;
	337 :	00000000000000000100001111101001;
	336 :	00000000000000000011000101100011;
	335 :	00000000000000000101010011010010;
	334 :	11111111111111110011110111000001;
	333 :	11111111111111111011111111111101;
	332 :	11111111111111110110100001111011;
	331 :	11111111111111111110101001011000;
	330 :	11111111111111111101000001101101;
	329 :	11111111111111111111111101001111;
	328 :	00000000000000000110110001110100;
	327 :	00000000000000001000101101001000;
	326 :	00000000000000000011001100001001;
	325 :	00000000000000001001101101010111;
	324 :	00000000000000000101111011010101;
	323 :	11111111111111111000010111110111;
	322 :	11111111111111111000001110101000;
	321 :	11111111111111111101101010011001;
	320 :	00000000000000001000110010111001;
	319 :	00000000000000000111001001100010;
	318 :	00000000000000000110001100001101;
	317 :	00000000000000000001101001111010;
	316 :	00000000000000000101001101001001;
	315 :	00000000000000000101110010001100;
	314 :	00000000000000001011000001100000;
	313 :	11111111111111111010010000110100;
	312 :	11111111111111111111110010001011;
	311 :	00000000000000000011111011101001;
	310 :	11111111111111111100111110101011;
	309 :	00000000000000001001001110010110;
	308 :	11111111111111111111111110011100;
	307 :	00000000000000000000010111010111;
	306 :	00000000000000001000101101010100;
	305 :	00000000000000001000010101000101;
	304 :	00000000000000001000001001010001;
	303 :	00000000000000000001110101000100;
	302 :	00000000000000000001101100001110;
	301 :	11111111111111110010100111001010;
	300 :	11111111111111111110000010101110;
	299 :	11111111111111111001100000100100;
	298 :	00000000000000001000001111110010;
	297 :	11111111111111111010111101110100;
	296 :	00000000000000001101111100111010;
	295 :	00000000000000000011001101111010;
	294 :	00000000000000001011010001010100;
	293 :	11111111111111111101101000010101;
	292 :	11111111111111111010100001010000;
	291 :	11111111111111111101011010010110;
	290 :	00000000000000001001111010011011;
	289 :	00000000000000001011110011010011;
	288 :	00000000000000000011110011110001;
	287 :	00000000000000000101000011101110;
	286 :	00000000000000001101110100100010;
	285 :	11111111111111111001010000010011;
	284 :	00000000000000000111010001011011;
	283 :	00000000000000000100011000100011;
	282 :	00000000000000000011001000110000;
	281 :	11111111111111111111110100000111;
	280 :	00000000000000000110110101001111;
	279 :	11111111111111111011010011100010;
	278 :	00000000000000000001111010110101;
	277 :	11111111111111111000010010110100;
	276 :	00000000000000001100010110001111;
	275 :	11111111111111110110011011001001;
	274 :	11111111111111111010100000110100;
	273 :	11111111111111111110000010010001;
	272 :	00000000000000000000000101000010;
	271 :	11111111111111111011111000010110;
	270 :	11111111111111111100000100110010;
	269 :	00000000000000000111011110110001;
	268 :	11111111111111111001101101101110;
	267 :	00000000000000001011101001001011;
	266 :	11111111111111111001101110100010;
	265 :	11111111111111110110011000001111;
	264 :	00000000000000000111000011001110;
	263 :	11111111111111111110001110001111;
	262 :	00000000000000000111011011111010;
	261 :	11111111111111111010001111110101;
	260 :	11111111111111110110101101000001;
	259 :	11111111111111111100110111001011;
	258 :	11111111111111111001001111100100;
	257 :	11111111111111110000101010100110;
	256 :	00000000000000000010110011010100;
	255 :	00000000000000000011000001101000;
	254 :	00000000000000001010011010010011;
	253 :	00000000000000000100011110011001;
	252 :	11111111111111110001110110111011;
	251 :	11111111111111110110001111111001;
	250 :	11111111111111111000011110111111;
	249 :	00000000000000000010100001101100;
	248 :	11111111111111110110110010110101;
	247 :	00000000000000001000111101111111;
	246 :	00000000000000000100010111111011;
	245 :	11111111111111110011011010000001;
	244 :	11111111111111110110111001111101;
	243 :	00000000000000001000010001011000;
	242 :	11111111111111110110100100101010;
	241 :	11111111111111111000001110010011;
	240 :	00000000000000000011010011101010;
	239 :	00000000000000000010110100110001;
	238 :	11111111111111110111001011110101;
	237 :	00000000000000000000110001011011;
	236 :	00000000000000001011100111000011;
	235 :	00000000000000001000100101000001;
	234 :	11111111111111111001100101001011;
	233 :	00000000000000001000011111000000;
	232 :	11111111111111111010100011000111;
	231 :	00000000000000000110110011011000;
	230 :	11111111111111111101010100010100;
	229 :	11111111111111111001111111101101;
	228 :	00000000000000000111001011100100;
	227 :	00000000000000000011011000001011;
	226 :	00000000000000000011100000000111;
	225 :	11111111111111111101110110110110;
	224 :	00000000000000000000011111110001;
	223 :	11111111111111111001111100111010;
	222 :	11111111111111111010110110110100;
	221 :	00000000000000000101111010110111;
	220 :	11111111111111111010110110011011;
	219 :	00000000000000000010110010100111;
	218 :	00000000000000001000110111001000;
	217 :	00000000000000001100000111111001;
	216 :	11111111111111111010001110101100;
	215 :	00000000000000000101000010000111;
	214 :	11111111111111111110010001001100;
	213 :	11111111111111111001010101111100;
	212 :	11111111111111110110010010001011;
	211 :	11111111111111111001010001101011;
	210 :	11111111111111110100011000101101;
	209 :	11111111111111110110101111110010;
	208 :	00000000000000000000100010110110;
	207 :	00000000000000000111001101111011;
	206 :	00000000000000001001100101010010;
	205 :	11111111111111111000111111111000;
	204 :	11111111111111111110000010111010;
	203 :	11111111111111111010010101000011;
	202 :	11111111111111111111111111010111;
	201 :	00000000000000000011111111100101;
	200 :	00000000000000000101111110100000;
	199 :	11111111111111111000110111010101;
	198 :	00000000000000000100101000100100;
	197 :	11111111111111111110110010010100;
	196 :	11111111111111111010100011110101;
	195 :	00000000000000000101110011111101;
	194 :	00000000000000000011000011100000;
	193 :	11111111111111111111010100001110;
	192 :	00000000000000000110110100101000;
	191 :	00000000000000001000010100110101;
	190 :	00000000000000000001101011001010;
	189 :	00000000000000000011110101011010;
	188 :	11111111111111111111001011111110;
	187 :	11111111111111111100011100101110;
	186 :	11111111111111111010101011101011;
	185 :	11111111111111111111101110010010;
	184 :	11111111111111111000011110110001;
	183 :	11111111111111111100111110100011;
	182 :	11111111111111111001011101110010;
	181 :	11111111111111111000110010000111;
	180 :	00000000000000000000101101001101;
	179 :	11111111111111111101101000010111;
	178 :	00000000000000001010010100101100;
	177 :	00000000000000000101000001110010;
	176 :	11111111111111111110110010111010;
	175 :	11111111111111111100111010011111;
	174 :	00000000000000000000000111010010;
	173 :	11111111111111111101110110100000;
	172 :	00000000000000000010111001111100;
	171 :	00000000000000000011010010011110;
	170 :	11111111111111111100101110001111;
	169 :	00000000000000000101000001011000;
	168 :	11111111111111111000100010110001;
	167 :	11111111111111111110001101101110;
	166 :	11111111111111111010111001001111;
	165 :	11111111111111111010110100101101;
	164 :	00000000000000000101100010101100;
	163 :	00000000000000000011000111101100;
	162 :	00000000000000000100001001000100;
	161 :	00000000000000000001010001001010;
	160 :	00000000000000001001010111010101;
	159 :	11111111111111111111001010001000;
	158 :	00000000000000000000100000010011;
	157 :	00000000000000000010100110101001;
	156 :	00000000000000000001000111111011;
	155 :	00000000000000000110000110101000;
	154 :	11111111111111111000001010100000;
	153 :	00000000000000000100100011010001;
	152 :	00000000000000000100110000001000;
	151 :	11111111111111111111011100010110;
	150 :	11111111111111111011100100010011;
	149 :	11111111111111111100001010100111;
	148 :	11111111111111110111100110000000;
	147 :	11111111111111111101001000101100;
	146 :	11111111111111111011010000010111;
	145 :	00000000000000000111000111100101;
	144 :	11111111111111111100110011011000;
	143 :	11111111111111111010000001111101;
	142 :	11111111111111110110110001101011;
	141 :	11111111111111111110110011010001;
	140 :	11111111111111111011111001110000;
	139 :	11111111111111111100110001110000;
	138 :	11111111111111111011101111001100;
	137 :	11111111111111111100101110110100;
	136 :	11111111111111111011100100110111;
	135 :	11111111111111111010101000101111;
	134 :	00000000000000000111101110001011;
	133 :	11111111111111111110111010001000;
	132 :	00000000000000001000001111000110;
	131 :	00000000000000000110110001011010;
	130 :	11111111111111111100001100001001;
	129 :	11111111111111110111111111000111;
	128 :	11111111111111111100101101101011;
	127 :	11111111111111111101101000000011;
	126 :	11111111111111111101011101101100;
	125 :	11111111111111110111111101111001;
	124 :	11111111111111110111001001100010;
	123 :	11111111111111111101001011001100;
	122 :	00000000000000000111000101110101;
	121 :	00000000000000000011010111010101;
	120 :	11111111111111111011100001110010;
	119 :	00000000000000000100111111101100;
	118 :	11111111111111111010011110010110;
	117 :	11111111111111111000100101111111;
	116 :	11111111111111110110110101011001;
	115 :	00000000000000000000000011001001;
	114 :	11111111111111111001100110001011;
	113 :	11111111111111111100011111101101;
	112 :	00000000000000000101011001001000;
	111 :	00000000000000000001101111100010;
	110 :	11111111111111111001011110010011;
	109 :	11111111111111111000000111110000;
	108 :	11111111111111110111111011101010;
	107 :	00000000000000000100010000010010;
	106 :	00000000000000000000111100000100;
	105 :	00000000000000000101001011001110;
	104 :	11111111111111111100110100110010;
	103 :	00000000000000000001111000011011;
	102 :	11111111111111111111110100010010;
	101 :	00000000000000000101101100101000;
	100 :	00000000000000000000000110001111;
	99 :	00000000000000000000111000100001;
	98 :	00000000000000000010111001101111;
	97 :	00000000000000000010010100011101;
	96 :	00000000000000000000111101000001;
	95 :	00000000000000001001011010110111;
	94 :	11111111111111111100011001100011;
	93 :	11111111111111111100010100110110;
	92 :	11111111111111110111100000010010;
	91 :	11111111111111111101110010000011;
	90 :	00000000000000000000100000101011;
	89 :	00000000000000000010100001101010;
	88 :	00000000000000000111010110010001;
	87 :	00000000000000001000000100111011;
	86 :	11111111111111111110000100111110;
	85 :	11111111111111111100111100100011;
	84 :	11111111111111111011111001110000;
	83 :	00000000000000001010001000100011;
	82 :	00000000000000000100100110000011;
	81 :	11111111111111111001101101000110;
	80 :	00000000000000000000011010000110;
	79 :	11111111111111111101101011101101;
	78 :	11111111111111110111001110111000;
	77 :	00000000000000000100000000010010;
	76 :	00000000000000001010011100001110;
	75 :	00000000000000000011011010101101;
	74 :	00000000000000000100000000111001;
	73 :	11111111111111110110100110011000;
	72 :	11111111111111111100110111011110;
	71 :	11111111111111111000001010001100;
	70 :	11111111111111111011110000001110;
	69 :	00000000000000000110100011011000;
	68 :	00000000000000000101101101001001;
	67 :	00000000000000000010010111111110;
	66 :	11111111111111111000101000001111;
	65 :	00000000000000001100010000101001;
	64 :	00000000000000000010001110010010;
	63 :	00000000000000001011000111001000;
	62 :	11111111111111110101000011100111;
	61 :	11111111111111111110010100000101;
	60 :	00000000000000000100000101100110;
	59 :	00000000000000001001111001010111;
	58 :	11111111111111111111100110010001;
	57 :	11111111111111111000100001011101;
	56 :	00000000000000000101011001010001;
	55 :	11111111111111111111101000011001;
	54 :	00000000000000000010001001001001;
	53 :	00000000000000010010010001100110;
	52 :	00000000000000001001001000110101;
	51 :	11111111111111111100101110011111;
	50 :	11111111111111111100000111010110;
	49 :	00000000000000001001011110011101;
	48 :	00000000000000000110010100110011;
	47 :	11111111111111111011010000000110;
	46 :	00000000000000010000110000000101;
	45 :	11111111111111110100111100100110;
	44 :	00000000000000000100011110000011;
	43 :	11111111111111110010111011001111;
	42 :	00000000000000000101111010011000;
	41 :	11111111111111111101111010001111;
	40 :	00000000000000001000011110111100;
	39 :	11111111111111111000111101101111;
	38 :	00000000000000000001001111010001;
	37 :	00000000000000000011100111100001;
	36 :	11111111111111111110010001010100;
	35 :	00000000000000000110011000010000;
	34 :	00000000000000001010011011001001;
	33 :	00000000000000000001001101111010;
	32 :	00000000000000001010001001100011;
	31 :	11111111111111111110011111010111;
	30 :	00000000000000000101101001100100;
	29 :	11111111111111111110111101111111;
	28 :	00000000000000000011100001001000;
	27 :	00000000000000001000010111001110;
	26 :	11111111111111111001110110111110;
	25 :	00000000000000000011110100101001;
	24 :	00000000000000001100111101000000;
	23 :	11111111111111111111011010101001;
	22 :	00000000000000000001001011100110;
	21 :	00000000000000000111011011110110;
	20 :	00000000000000001101011001000010;
	19 :	00000000000000001000000101100111;
	18 :	11111111111111111110010110110111;
	17 :	11111111111111111001011110110011;
	16 :	11111111111111111101100011001100;
	15 :	00000000000000000111101010011111;
	14 :	00000000000000001001100001110000;
	13 :	11111111111111111100000010011001;
	12 :	11111111111111111111010110010101;
	11 :	00000000000000001100111111011100;
	10 :	00000000000000000111011110011100;
	9 :	00000000000000001000000111101010;
	8 :	00000000000000000011011111110110;
	7 :	00000000000000000101111000000100;
	6 :	11111111111111111111000111101111;
	5 :	11111111111111111101110111100100;
	4 :	11111111111111111010011011111100;
	3 :	11111111111111111110100000000111;
	2 :	00000000000000000001010000000100;
	1 :	11111111111111111110110110010011;
	0 :	00000000000000000011001010100010;
END;
