-- begin_signature
-- weightRAM_outputLayer
-- end_signature
WIDTH=32;
DEPTH=320;

ADDRESS_RADIX=UNS;
DATA_RADIX=BIN;

CONTENT BEGIN
	319 :	00000000000000000010010100010011;
	318 :	11111111111111111010001100000101;
	317 :	11111111111111110100111110111101;
	316 :	00000000000000001000001001100111;
	315 :	11111111111111101101101101000000;
	314 :	11111111111111111111001001001010;
	313 :	11111111111111110001000110111000;
	312 :	00000000000000000010000010111100;
	311 :	00000000000000011000010011000110;
	310 :	00000000000000001111010101100010;
	309 :	11111111111111110010100111010100;
	308 :	00000000000000000011011010111001;
	307 :	00000000000000011100000100111111;
	306 :	11111111111111110011111111100110;
	305 :	11111111111111101101111110001011;
	304 :	11111111111111111100011111100000;
	303 :	11111111111111111101000110100001;
	302 :	00000000000000011000011100010100;
	301 :	11111111111111101100111011001000;
	300 :	00000000000000001010100000000001;
	299 :	00000000000000011000000101100011;
	298 :	00000000000000000101001011100100;
	297 :	00000000000000001100000010001100;
	296 :	11111111111111111101010001110000;
	295 :	11111111111111101111111110011001;
	294 :	11111111111111110010010011110100;
	293 :	00000000000000000110000001110010;
	292 :	11111111111111111010001110100010;
	291 :	11111111111111111101111000000001;
	290 :	00000000000000000010110110111011;
	289 :	00000000000000001100000111100111;
	288 :	11111111111111111100000100011110;
	287 :	00000000000000001000001110000101;
	286 :	11111111111111111010110110101111;
	285 :	11111111111111110100001111001010;
	284 :	00000000000000001000101100111100;
	283 :	00000000000000001101100001100000;
	282 :	11111111111111111111101101101101;
	281 :	00000000000000000100100100011110;
	280 :	11111111111111101101000001111011;
	279 :	00000000000000010100011001110010;
	278 :	11111111111111110111010100110010;
	277 :	11111111111111111001001000101011;
	276 :	11111111111111110111000010001111;
	275 :	00000000000000000001011111101101;
	274 :	11111111111111111001011011100000;
	273 :	00000000000000000001100110001000;
	272 :	00000000000000011111100000010110;
	271 :	11111111111111111100000011011000;
	270 :	11111111111111110010001011010111;
	269 :	00000000000000000001101110010000;
	268 :	00000000000000000100010010110010;
	267 :	11111111111111111001001111011000;
	266 :	11111111111111101001011011100111;
	265 :	00000000000000000100000111111010;
	264 :	11111111111111110010000111011010;
	263 :	00000000000000000111010010010010;
	262 :	00000000000000001000101101000101;
	261 :	11111111111111110101100110000010;
	260 :	11111111111111111011111101010000;
	259 :	00000000000000011000001010101111;
	258 :	11111111111111110111011111110111;
	257 :	00000000000000010011011000011010;
	256 :	11111111111111101111100100000110;
	255 :	00000000000000000011111110101001;
	254 :	11111111111111110111001010001110;
	253 :	11111111111111110110100000110001;
	252 :	11111111111111100111111010100011;
	251 :	11111111111111110001010011100100;
	250 :	00000000000000000010001010011001;
	249 :	00000000000000000011011101100100;
	248 :	11111111111111111110000000010011;
	247 :	11111111111111110011001001001001;
	246 :	00000000000000010000100101111010;
	245 :	11111111111111111100001011110000;
	244 :	00000000000000000011101100101011;
	243 :	00000000000000001010001001001110;
	242 :	00000000000000100001000100110100;
	241 :	11111111111111110010010000110010;
	240 :	00000000000000001011011011011000;
	239 :	11111111111111111101000010111101;
	238 :	11111111111111110111100011001111;
	237 :	00000000000000011000100001011111;
	236 :	11111111111111111001111111111001;
	235 :	00000000000000001001101010101101;
	234 :	11111111111111110110111010010011;
	233 :	11111111111111110010000010011110;
	232 :	11111111111111111001000111110011;
	231 :	11111111111111110011110011111011;
	230 :	11111111111111111001011000100001;
	229 :	11111111111111111000011000001100;
	228 :	00000000000000011110101110101111;
	227 :	11111111111111110110011001001001;
	226 :	00000000000000000100011001010001;
	225 :	11111111111111110110000110011111;
	224 :	00000000000000000011011001010000;
	223 :	11111111111111110110100001101100;
	222 :	11111111111111111111101011100110;
	221 :	00000000000000010011111101010110;
	220 :	11111111111111110000111000011000;
	219 :	00000000000000001101010011001001;
	218 :	00000000000000000110111010100101;
	217 :	11111111111111101110101100100001;
	216 :	11111111111111111111101001111000;
	215 :	11111111111111111110011100000101;
	214 :	00000000000000010000110111101111;
	213 :	11111111111111111000111110010011;
	212 :	00000000000000001011101110001110;
	211 :	11111111111111100111000010101010;
	210 :	11111111111111111001101001000110;
	209 :	00000000000000001010110111000010;
	208 :	11111111111111110110000101001000;
	207 :	00000000000000011011001010111101;
	206 :	00000000000000001001000100010001;
	205 :	11111111111111111011011110010101;
	204 :	00000000000000001101100110000011;
	203 :	11111111111111110010101100101001;
	202 :	00000000000000001101110001010100;
	201 :	11111111111111110101101111001110;
	200 :	11111111111111111010100000010011;
	199 :	11111111111111111101100100101011;
	198 :	00000000000000010000011111000010;
	197 :	00000000000000000110111000101110;
	196 :	11111111111111110001011110010110;
	195 :	00000000000000001110001000001111;
	194 :	11111111111111111010010010001011;
	193 :	00000000000000000100001110111010;
	192 :	11111111111111101001011101111010;
	191 :	00000000000000001001110110011001;
	190 :	11111111111111111101010011110110;
	189 :	11111111111111111010010010010110;
	188 :	00000000000000010100000011111100;
	187 :	00000000000000101011110111100111;
	186 :	00000000000000000001111000010111;
	185 :	11111111111111111101000001010101;
	184 :	11111111111111111000100010110101;
	183 :	00000000000000000001011000110110;
	182 :	11111111111111110110111011100100;
	181 :	11111111111111101011010101010000;
	180 :	11111111111111111011110010001101;
	179 :	00000000000000011001011110101111;
	178 :	11111111111111110010100101100010;
	177 :	00000000000000000000111100010011;
	176 :	11111111111111100011111011110100;
	175 :	00000000000000001001111010000100;
	174 :	11111111111111111110011110110111;
	173 :	11111111111111110110110010100111;
	172 :	11111111111111111111011110110101;
	171 :	11111111111111101100000110101011;
	170 :	00000000000000001010011000110110;
	169 :	11111111111111110001011110111101;
	168 :	00000000000000000110101011011101;
	167 :	11111111111111110101010101100011;
	166 :	11111111111111110111101011101000;
	165 :	11111111111111111100111110110100;
	164 :	00000000000000000110100110001101;
	163 :	11111111111111110011010000000000;
	162 :	00000000000000001001001111100010;
	161 :	11111111111111110100001000100000;
	160 :	00000000000000000000000101001100;
	159 :	00000000000000001000001000000001;
	158 :	00000000000000000010100110111000;
	157 :	11111111111111110111100101100000;
	156 :	11111111111111110100111001101010;
	155 :	11111111111111110100010010100100;
	154 :	00000000000000000110000000010010;
	153 :	11111111111111101100100011111111;
	152 :	11111111111111111110101010101011;
	151 :	00000000000000001110000101011110;
	150 :	00000000000000001011010101001000;
	149 :	11111111111111111111101111000010;
	148 :	00000000000000010001111111010010;
	147 :	11111111111111110100100001001111;
	146 :	11111111111111110111110001111110;
	145 :	11111111111111101001010110110001;
	144 :	11111111111111111101110000011011;
	143 :	11111111111111110100011000111100;
	142 :	00000000000000011101110011011001;
	141 :	11111111111111111000101010010101;
	140 :	11111111111111111101101110001111;
	139 :	11111111111111111011110100010010;
	138 :	11111111111111110100000001111111;
	137 :	00000000000000001011001010011101;
	136 :	11111111111111111001010010101000;
	135 :	00000000000000011101001100101010;
	134 :	00000000000000001001011111111011;
	133 :	11111111111111110100010011101100;
	132 :	00000000000000001011101010010110;
	131 :	00000000000000001001111010110001;
	130 :	11111111111111110111101010110001;
	129 :	11111111111111110101010001010111;
	128 :	00000000000000011000110101111110;
	127 :	00000000000000000101001100111111;
	126 :	11111111111111100101110110001000;
	125 :	00000000000000000101010000110000;
	124 :	00000000000000010001001000011111;
	123 :	00000000000000000011010001010001;
	122 :	00000000000000001001110111001101;
	121 :	00000000000000000101001011000100;
	120 :	11111111111111110000001001001000;
	119 :	00000000000000000011001110011001;
	118 :	11111111111111110001010001101110;
	117 :	00000000000000100100001011010001;
	116 :	11111111111111110101101110010110;
	115 :	00000000000000011000011101101110;
	114 :	00000000000000010001100011011101;
	113 :	11111111111111111101110111011001;
	112 :	00000000000000001000001000001000;
	111 :	11111111111111110101001010001101;
	110 :	11111111111111111100100100100001;
	109 :	00000000000000000010010010001011;
	108 :	11111111111111110011000110111011;
	107 :	11111111111111110011000000111110;
	106 :	11111111111111111100101101000111;
	105 :	00000000000000000111110111110111;
	104 :	11111111111111110101110010010011;
	103 :	11111111111111110111101011010100;
	102 :	11111111111111110101111011011011;
	101 :	11111111111111101110001111010011;
	100 :	11111111111111101110101001011100;
	99 :	11111111111111110110011100001101;
	98 :	00000000000000000011110111110011;
	97 :	00000000000000000011110010100111;
	96 :	11111111111111110110100001011110;
	95 :	11111111111111101101010001010010;
	94 :	00000000000000001011010000010011;
	93 :	11111111111111110011101001000110;
	92 :	11111111111111101101001110101100;
	91 :	11111111111111110110011111100011;
	90 :	11111111111111110110001000010111;
	89 :	00000000000000100011100011001101;
	88 :	11111111111111101101111111000011;
	87 :	11111111111111100111111111100010;
	86 :	00000000000000001011111011001010;
	85 :	00000000000000001110111100001011;
	84 :	00000000000000000111001001000000;
	83 :	11111111111111111101100101100010;
	82 :	11111111111111110101111001110111;
	81 :	00000000000000010110010000110001;
	80 :	00000000000000001100111100111101;
	79 :	00000000000000010001000000111100;
	78 :	00000000000000000001000010010001;
	77 :	11111111111111110110011110010010;
	76 :	11111111111111111111100110111100;
	75 :	11111111111111110011011000110100;
	74 :	11111111111111110011110100101000;
	73 :	11111111111111111110110011000000;
	72 :	00000000000000000100101010101111;
	71 :	11111111111111111000110000001001;
	70 :	11111111111111111000101110101111;
	69 :	00000000000000000111000001001101;
	68 :	00000000000000000110101101100011;
	67 :	11111111111111101111111010001111;
	66 :	00000000000000000000000100100111;
	65 :	11111111111111111011000010011000;
	64 :	00000000000000010011000110001000;
	63 :	00000000000000001001111011111011;
	62 :	00000000000000011011011100101111;
	61 :	11111111111111111000011000010000;
	60 :	00000000000000001000010011000111;
	59 :	11111111111111110010001010100100;
	58 :	00000000000000000110010001100101;
	57 :	00000000000000001101000010110000;
	56 :	00000000000000001000101001001101;
	55 :	11111111111111101101001000000101;
	54 :	00000000000000001001001100110101;
	53 :	11111111111111110001100010000100;
	52 :	00000000000000001011100010000011;
	51 :	11111111111111101010100010100100;
	50 :	00000000000000011111001110011101;
	49 :	11111111111111101100011001011001;
	48 :	11111111111111111111101010101011;
	47 :	11111111111111111011111110100101;
	46 :	11111111111111110010011111001100;
	45 :	11111111111111110011001001100100;
	44 :	11111111111111111101010010011110;
	43 :	11111111111111111000000101010001;
	42 :	00000000000000000010101001100011;
	41 :	11111111111111110111010010000100;
	40 :	00000000000000001010100011100001;
	39 :	00000000000000001010001010111110;
	38 :	11111111111111111010011011010010;
	37 :	00000000000000000011111101011101;
	36 :	11111111111111101110101001011011;
	35 :	00000000000000001101100111001100;
	34 :	00000000000000001100010110111001;
	33 :	11111111111111111101010110000000;
	32 :	11111111111111111110111000011110;
	31 :	00000000000000001000000100111010;
	30 :	11111111111111110110100101110100;
	29 :	00000000000000001110011111010111;
	28 :	00000000000000000100011111011110;
	27 :	11111111111111110110101100001101;
	26 :	00000000000000000111110011010111;
	25 :	11111111111111110001100101111110;
	24 :	00000000000000011001110110100100;
	23 :	11111111111111110111111101001011;
	22 :	11111111111111110111011101010100;
	21 :	11111111111111111000111001111000;
	20 :	11111111111111111111001111100011;
	19 :	11111111111111110010100000110110;
	18 :	11111111111111110100110110010011;
	17 :	00000000000000010111010001100000;
	16 :	00000000000000001011000111011110;
	15 :	11111111111111110011011110011001;
	14 :	11111111111111111110100011101010;
	13 :	00000000000000001001010100110001;
	12 :	00000000000000001000011111111100;
	11 :	00000000000000000110110000111011;
	10 :	11111111111111111110100100100000;
	9 :	11111111111111111110101100011111;
	8 :	00000000000000000001001011000011;
	7 :	11111111111111110101101110111011;
	6 :	00000000000000000110110110110000;
	5 :	00000000000000010011000110010100;
	4 :	00000000000000000011011110011101;
	3 :	11111111111111110011101011000110;
	2 :	00000000000000000000010010011011;
	1 :	11111111111111111011100001011110;
	0 :	11111111111111101100100111010101;
END;
