000008d4
ffffe8ec
00001694
00002198
0000138d
ffffe58f
ffffd7dc
fffff189
000004f0
00001d1a
fffffa52
ffffe91b
ffffe68c
ffffe5c5
0000192e
00000d7f
00001dc6
00001935
00000e42
00001556
00000bb1
fffff332
ffffe67d
ffffe0ef
fffff161
fffff850
fffff735
fffffd83
0000248d
ffffe335
ffffd87f
00001a6c
fffff3ed
00000dad
fffffc3d
0000191f
0000053b
0000293c
000027d1
0000183b
fffffcb4
00000b66
00001842
fffffe5a
00000e82
fffff5a4
ffffe2d1
fffff151
ffffd8f7
fffffdb3
ffffeca5
00001f08
ffffe5ca
00000aeb
ffffe540
ffffe857
00001097
fffff55e
fffffc0a
ffffda9c
000003ac
000014b6
0000144f
ffffec66
00002be0
fffffb80
00003171
fffff160
00002ec5
fffffe8e
000008bd
0000297c
00001327
00002ba3
0000015f
0000000e
ffffe1e8
ffffec6a
00002c32
00002989
0000215e
00000859
0000241c
00001c18
fffff22d
fffffe79
00001286
ffffeb04
000011df
ffffe411
00002956
000006d2
00001f5a
000035ff
000014e2
00000942
00002f9d
00001ff9
00000b25
0000081f
000011d3
00001544
00000f23
00002540
000020d8
ffffe4d3
00000f92
00002dd1
ffffdfb9
ffffe61c
00000611
ffffde16
fffffdd9
00000168
ffffe8a2
0000065f
0000287e
00002985
0000189f
ffffe731
0000117b
0000156b
000057fd
00004b1e
000036da
ffffef6b
fffff4ad
fffff85b
ffffef4b
ffffcdfa
ffffffcc
00000e35
fffff1ca
ffffe499
ffffd190
ffffe246
ffffeab2
00000799
00001419
00000876
00002b0b
0000242c
ffffdfc2
ffffefe8
000028e1
0000259f
fffffd15
00001f96
fffff3a9
fffff1e5
00002c54
0000114f
fffff435
fffffee6
000015f3
ffffe79f
00000400
ffffc920
000002b9
ffffe302
00001806
ffffe3fe
ffffdba5
ffffeead
ffffcd68
ffffffe2
fffffdc0
000007e5
00000cae
0000286c
0000009d
000013ba
00001650
00002913
ffffd572
000001c9
ffffeacb
ffffbd11
ffffcd07
fffff4f7
ffffecbc
ffffb69f
ffffec91
ffffe303
ffffd4f5
ffffc69d
ffff97b2
ffffd0cf
ffffa0be
ffffccb4
ffffb52c
ffffdddf
ffffcbc5
fffffbcc
fffff9c0
ffffd68d
00001be4
00000d7d
ffffd862
00001a16
fffffb05
ffffd284
00000044
fffffa9f
fffffdb0
ffffc761
fffff3c0
0000079a
000005e0
ffffee37
fffff1ba
ffffdc03
ffffb54c
ffffe467
ffffde7a
ffff8e58
ffffd241
ffffa09e
ffffc1d6
ffffcc60
ffffdb3a
00002446
ffffdb99
000025ad
00000d1d
ffffe880
00002342
ffffdb6d
fffff124
ffffeac6
ffffc63a
fffffb20
ffffd5ed
fffffbf6
fffff00b
ffffec61
ffffde32
ffffd8ea
000017b1
ffffe345
ffffe3a4
ffffef6b
ffffe99a
ffffe725
ffffdca0
ffffcb1b
ffffb8f7
ffffa8ca
ffffed76
ffffe56f
00000751
000015ac
000004a2
00000531
00002157
fffff7ea
fffff018
0000071f
ffffd244
fffff010
ffffe759
00000ab0
ffffd805
000009a0
ffffdda9
ffffd5dc
00001e7b
00000682
00000b28
ffffe1d8
ffffdacf
ffffe009
0000008a
ffffef1e
0000040c
ffffe2df
ffffda80
ffffbf84
00001b85
00000cc2
00001921
ffffe44e
0000004a
fffff1e9
000019e2
ffffd628
ffffddf5
fffffdcf
ffffdf9d
ffffc55b
ffffeee5
00001eed
ffffbf7a
000024ea
ffffe333
00001acf
000022b8
00002347
fffff94c
ffffe845
ffffd10a
ffffe288
ffffc38a
ffffe328
fffffdbe
ffffd6f0
ffffd301
fffff2b0
00000414
00001116
fffff0c3
ffffd477
fffffae1
ffffddf5
ffffea7b
ffffe956
fffff136
ffffdf4d
ffffb87a
ffffdbac
ffffd548
ffffea7c
0000023a
ffffdebb
fffff286
ffffd5eb
ffffe409
ffffc74a
00002180
00000e2e
00000acb
00002b29
00001025
ffffd74a
fffff968
000015ec
0000281f
ffffd795
00002739
ffffd2ad
0000155e
0000136a
ffffe8d9
fffff390
00000bc7
ffffe71d
ffffcc1f
ffffdecf
ffffebf9
000005b3
fffff3e6
00000b2d
fffff817
fffff37e
ffffe2a7
fffffb1a
fffffea7
00002584
00002929
00000714
00000f3c
00000e9b
fffffdd2
00002106
ffffe3f4
fffffeb0
000016c4
ffffcf38
00000999
ffffcec4
ffffde59
000009d7
000006ca
ffffe5c5
ffffd646
000007f7
00001fd0
00000dd6
00000786
fffff92c
00002ab3
ffffd795
fffff62b
00002856
fffffadb
00000c15
00002f42
00003876
000007c5
00002b70
0000110e
00001e2b
0000119f
00001365
ffffdfb1
00000ec0
ffffe52c
00000c9b
0000276a
00002483
0000118f
ffffea37
ffffffa3
00000a86
000002f0
000040dc
0000482e
00001db4
00002886
ffffd545
0000054b
ffffd961
000001a2
000036af
0000177f
000052e8
000050ab
00002b94
fffff3f8
ffffdaef
00000c7f
ffffe976
000011c4
ffffe4c8
ffffeb4a
000017ff
00003a00
fffff5b1
0000236b
0000130c
00001aba
0000050b
00000827
00004ca6
000071fe
000012a8
fffff6c4
ffffd55c
ffffd6c6
fffff570
00002a15
fffff4ff
00002d32
00003c5b
000042f7
0000207d
ffffdc09
fffffb28
000015b5
ffffef92
ffffe720
00000d74
ffffdbc3
fffff830
00002a20
000001f8
00002280
fffff2cc
fffffc88
00000a0f
000016c6
000006a6
00007802
0000600d
00001704
fffff77e
ffffecce
0000099f
fffff230
000047d2
000012a4
00003ef5
00000f35
00003ce1
00001f2a
00001159
00001e38
00000fa0
ffffdc1a
000001a2
ffffe985
fffff0fb
0000123b
000004e4
00001476
ffffde0b
000024b5
00002721
00001203
0000025e
0000251b
00003dd8
00002a37
00002e69
ffffea3e
00000173
ffffe372
00003c2e
fffffad2
fffffb54
00003217
00003ad0
ffffed77
ffffeb63
ffffea81
ffffd92c
fffff63f
0000027d
fffff1d3
0000272a
fffff461
00002c69
ffffe425
0000125b
fffff14f
ffffe6f3
000026a9
00002f08
000043a9
00001e81
00004883
00002eb2
00004f37
00000a73
0000089b
00002528
fffff5b1
000038f4
0000448d
00001d75
ffffddf0
ffffe8f4
00001307
fffffc1a
00000dc5
00002695
fffffa91
00001d55
ffffeaa9
000032de
fffff3cd
ffffe96d
00002f32
00000f95
00002b86
00001f99
00002a17
000071b6
000033d5
000048ab
00004068
ffffedf0
00002d3f
000019b5
0000473b
00004f8f
00001225
00002b8f
00001d68
000026c4
ffffd646
ffffefc5
0000153e
ffffe4a5
00000227
ffffe246
fffff879
00000c4a
fffff7cb
00001abb
00004a68
000030ec
00003070
00004de8
00002b62
00006efc
00002bff
00004b5b
000038b2
000037ad
00003162
ffffe7d5
ffffe920
fffff06d
ffffebd0
ffffee20
0000100e
ffffe4d4
00001bcd
fffff998
ffffee9e
00000d35
000002b2
fffff6e8
00000535
ffffe5bb
00001fc5
000028a8
fffff433
ffffe0ca
ffffeb48
0000339e
00003ce9
000021b1
ffffde4d
ffffe47b
00000394
fffff3ed
ffffff69
ffffd8d2
fffff670
0000113e
ffffcfcb
00001820
000009e8
ffffddcb
fffff531
ffffd904
00001c49
00001afa
fffff62a
00000ed2
ffffe60e
ffffede3
ffffc394
000006f0
ffffffa6
ffffb509
ffffdbc7
ffffb7b6
ffffa0cd
ffffd21d
ffffcfbf
ffffb8b8
0000028b
ffffcd53
00001461
fffff3d1
ffffc0c5
00000cf1
ffffcf20
0000068a
00001ba1
00000bbc
00000152
fffff243
ffffe511
fffff0ea
0000090b
ffffdc91
ffffea2c
ffffd548
ffffca41
fffff173
ffffb0b8
ffffb568
ffffad1a
ffff970a
ffff7ed8
ffff7ed3
ffffbfb4
ffffbcfa
ffffe0fd
ffffd689
ffffceef
00001469
ffffe9b3
ffffe25d
ffffc78c
ffffe667
fffff3c2
00000e4c
fffff99f
fffff9d5
000021c7
ffffdf42
00002049
ffffd0f2
fffff00e
ffffef04
ffffe069
ffffeb64
ffffc147
ffffeb92
ffffe73f
ffffd90b
ffffa94f
ffffab6e
ffffa1ed
fffffd28
fffff3a0
ffffda1e
ffffe152
fffff0d7
fffff4af
ffffdae4
00001b36
00000d0d
fffff352
0000182c
fffffbd8
ffffdcea
fffffe76
00001623
000021a2
ffffd4e3
00002757
fffff289
ffffe72b
ffffc7ae
00001175
00000909
ffffd6f2
fffffa3f
00000461
fffff7d8
ffffda88
ffffcd3b
ffffc216
ffffccd3
fffff035
ffffe570
00001924
ffffe3db
000002dc
ffffe127
00001cd3
00002509
ffffe11c
000024e0
fffffa0d
ffffd761
00001a3b
fffff96c
00000d32
fffff586
00000a78
ffffe6c8
ffffe1f6
ffffd98f
00000fe4
ffffec3f
0000053e
00001292
fffff488
ffffed4f
fffffbc4
fffffb40
ffffd942
ffffd576
0000063e
000016bd
00001d88
0000233a
ffffdc16
ffffe5c7
00001f9e
000021cd
000008a6
ffffeb3b
fffffe7a
000024a8
0000134d
00002a35
ffffdc39
00000cb1
ffffe7bb
ffffe5db
00000c97
fffff092
ffffd9c5
00000d42
ffffd64d
00001e72
000001b2
ffffeb62
0000073d
fffffd8a
00000b29
000010db
ffffe27d
fffff12c
ffffed4f
ffffea15
fffff07f
ffffd8be
00001c29
ffffe93d
ffffd910
000009a3
00000d86
0000024a
00002052
fffffc8e
fffff1a9
000008f1
000007e0
000011fe
ffffee5d
ffffe317
00000d1e
fffff5b4
00002632
000002e8
00000f3f
00000f51
ffffd580
000002bb
ffffe50a
00002918
00000428
fffff5fc
fffff3b4
0000257c
00000960
0000030f
000013d9
00001010
00001852
fffff568
fffff5d9
fffff7aa
00002047
000014b1
000016b7
fffff3c2
ffffe670
fffffed9
00001c49
ffffeb45
00000195
ffffffaa
00002a24
00000f8d
fffff898
00001281
00002917
fffffc14
00000d7a
fffffc3f
ffffe8f1
0000076e
00001149
ffffe9c3
fffff302
00001e30
ffffe764
000006ce
00000ca2
00001a95
00001fc3
ffffd8aa
00001e7a
00002493
ffffe957
ffffe217
000016bc
00002ed5
fffff7c0
fffff409
00001bf2
00000c4a
ffffe720
00000e4b
ffffec00
ffffe7a0
00001a29
ffffe908
0000110c
fffff627
fffff2a8
0000209b
000004e4
0000245e
00001d97
00001c5b
00001690
ffffd76d
ffffcf18
ffffc12d
ffffbeca
00000013
fffff314
ffffd3ad
00001350
00002f59
000015f7
00002628
fffff6ae
000016ed
ffffea17
000031c4
ffffe769
fffffee2
ffffe1e1
ffffe05d
ffffd5d6
fffffc91
0000276e
00001d28
00001646
ffffeb90
fffff7c8
ffffec6f
ffffd3af
ffffe16f
ffffb9fe
ffffc888
ffffe7e8
ffffb116
fffffe3e
ffffecf6
000009c8
00002c8d
000021f1
fffffebd
fffffe8f
00001b3d
fffffc7c
00003736
00002073
0000099a
fffffb8c
00000ff0
00000f1a
00000ebc
ffffd605
000022bb
00001cff
00000dc8
00001f78
fffff3f7
ffffcefa
ffffb29b
ffff9f3c
ffffad83
ffffdda3
fffff2ab
00000a98
ffffeb82
ffffd795
000015a1
00000b09
fffffb2c
00000771
00003563
000008b9
ffffe2d9
fffff4b9
ffffe977
ffffe96b
0000243d
00000da5
00000018
00000161
000026fd
ffffdd70
ffffd41a
0000179a
ffffdfe6
ffffcf9d
ffffa5c7
ffff9d36
ffffb4e3
ffffd87a
ffffdb83
00000690
00004335
0000007b
00001781
fffffe6d
ffffec76
000002dd
ffffe93b
ffffd120
00000dc5
000030b4
00002c62
0000049f
000013e2
fffff9b7
ffffda2e
fffffa5a
0000070e
fffff883
ffffe63d
ffffea53
ffffedaa
ffff96f1
ffffc26b
ffffa21e
00000642
00002e06
00001209
00001d8f
00003135
00003d09
000015b9
fffffbe7
00000997
ffffe518
fffff560
0000152f
00001ff1
fffff050
000018a7
fffff13c
0000252b
000002cf
ffffe74f
00001e71
0000005f
ffffd776
fffff24a
ffffc38a
ffffdba8
ffffa980
ffffb088
ffffc049
0000292e
00001eff
00005e5c
0000403b
fffff06e
00000651
ffffdd26
000006b0
ffffd5cb
ffffc9ef
ffffd6d4
fffff15b
fffffbf7
0000366d
fffff433
fffffb2e
00001af6
000028aa
ffffec19
00000289
fffffd21
00001101
fffffdbd
ffffd088
ffff9443
ffff9826
ffffaaa6
0000019b
000044ce
00004054
00002282
000037dd
ffffeeef
ffffb0c3
ffff8c27
ffff9253
ffffde87
ffffa89a
ffffe913
ffffebc4
fffff2b0
ffffefc3
00001f43
00002905
00001ae9
fffffc6f
00001883
0000024a
00000bd2
ffffdc4b
00000c3c
ffffbc4e
ffffc7d9
ffffb4e8
ffffe9b3
000032aa
000017e4
00006576
00003077
00000c87
fffff602
ffffa3f9
ffffa149
ffffc6d3
ffffd1c6
ffffc968
ffffee27
ffffe42f
0000032a
00000c0e
ffffde7f
fffff69c
ffffeeb9
ffffe121
00002601
000026a9
000008eb
00001181
ffffe6c6
ffffb997
ffffcf6b
00001706
ffffe357
0000349e
0000354e
0000435c
00003c40
0000536c
0000266b
ffffddaa
ffffe5f8
00001aa1
ffffaf0a
ffffe5ef
00000a4b
ffffeb37
00001613
000022ec
0000232f
fffff5ad
ffffeeb8
ffffead3
00002a87
0000065c
00001ec9
ffffd94c
fffffb5b
ffffcded
00000bd8
000022ef
00003044
00002267
00000e81
00000b7d
000024e8
000079f7
ffffffe6
00001b3d
fffffc29
ffffd59a
ffffede0
00000364
00002259
ffffe47c
ffffe1af
ffffdf56
0000056b
0000232b
fffff7f3
fffff103
ffffd8d9
ffffd6b2
00000a87
ffffe760
ffffba83
ffffe2ad
000010d2
00002679
00001991
ffffd2c8
fffff1fc
fffffafa
000042d9
00007002
000069e0
00000c4c
00001bce
ffffc29c
ffffe0ce
00001c1f
ffffd1b9
ffffead4
fffff931
ffffd73f
000009fc
ffffd184
00001d2d
fffffc73
00000024
000012ea
00001f04
00000192
ffffc7ca
ffffdced
fffff91f
00003b1d
0000330b
00000d17
ffffdb92
fffff38e
00001502
000042f0
00005406
000026ad
fffff1a9
ffffb535
ffffc77a
ffffb24a
ffffc147
ffffbed3
ffffbcf6
ffffcda1
fffffced
ffffd074
000009bd
00000592
00000638
00001074
ffffe223
ffffe5e2
ffffe83a
ffffc3b1
000008ce
000028e1
00002c74
000027a0
00000216
00003a3b
00000ae3
00004701
00000709
00001666
ffffdc13
ffffa47c
ffffc363
ffffbf11
ffffec3e
ffffd1fc
ffffecdb
ffffc3ca
fffff06a
00000ebb
fffff049
ffffe47c
ffffe8b9
00000e07
ffffd347
00000c26
ffffbdbe
ffffc5b0
fffff3b1
fffff243
00003a7e
00004c56
000057c9
00003797
ffffda73
00001413
ffffe7e5
00000243
ffffd13c
ffffdcad
ffff9c17
ffffb9be
ffffbdac
fffffd8f
ffffbd03
00000d99
ffffd697
ffffe7c2
000022ac
ffffe9f4
ffffe85b
fffff3b9
ffffd784
000001ad
ffffcfa3
fffff0a9
00001db5
0000034c
00001841
000031fe
0000123c
00003af0
fffff677
ffffe1ce
00001451
00000461
ffffaa3b
ffffb235
fffff69a
ffffc836
ffffd59d
000004f8
ffffc045
000002be
00000d3f
ffffedc7
000005b7
ffffe8fa
000002c2
00002859
fffff937
ffffee2a
fffff92c
fffff927
00000b40
00002deb
0000465d
00000838
000016ce
0000178c
000001ff
00000d75
00000a0d
00000443
ffffd908
ffffd22a
ffffb9bb
ffffba61
ffffe10a
ffffa78c
ffffd85d
fffffef9
ffffd1e7
ffffd765
fffff67c
ffffe3f0
000003e0
0000256a
ffffc976
ffffe547
ffffc811
ffffcdb8
ffffeded
0000111a
fffff5e2
ffffe860
ffffd44d
ffffeb54
ffffc840
000023f5
000016a1
00000dd0
00000f66
ffffb485
00000920
ffffc225
ffffb199
ffffce31
ffffc4bd
00000bd1
ffffeaca
0000200c
ffffef13
fffff85c
ffffe47c
fffff254
ffffdb1e
ffffe7da
ffffe83c
000010f1
00000b7c
0000160b
fffffc4d
000004a5
ffffc161
ffffe181
ffffc409
fffff8d4
0000375f
fffff4a1
00001122
ffffdaf1
ffffc71e
ffffccad
ffffb6f5
ffffe24b
fffffab9
0000110d
00000a59
fffffd13
fffff9c3
00001aa1
00000713
0000006d
00000858
fffff55c
ffffefb8
000004c6
fffff684
ffffe02c
ffffea53
fffff40f
fffff74e
ffffd384
000013aa
ffffe035
fffff0f4
00001780
ffffe0fc
ffffcfcc
ffffe5e1
ffffd93f
fffffd20
ffffcef7
0000060e
ffffe43f
00001736
0000062c
000014e4
ffffe3bd
ffffd733
00000230
00000394
fffff860
ffffc8fe
ffffd2a1
0000122e
fffff8e1
000001d0
00002574
fffff58f
00001460
00000ca6
000016b6
0000084f
000001bd
ffffdb97
0000062d
ffffe6b4
ffffdcf6
ffffc60a
ffffd0ef
00000799
ffffe95b
000006d6
ffffe7a9
ffffd5c0
ffffebc9
0000224e
00000c63
0000154c
fffffba3
fffff8e1
ffffd5e8
ffffe0fe
ffffffdf
00000cef
fffff1c7
ffffe5a0
00004bac
00000ed2
000011b7
00002b0b
00002532
00000b37
ffffeac0
fffffe1a
fffffa46
ffffc64f
ffffcb24
ffffed9b
ffffee16
00002b51
ffffe586
ffffe341
fffff5bf
ffffef4d
000007bb
00000031
ffffd132
000014a7
ffffc4da
ffffed04
ffffd449
00000328
ffffbe41
00000c16
000009ce
fffffa5a
ffffe616
ffffed80
000001f4
000016cf
fffff760
ffffec55
00000525
ffffe7e1
fffff699
fffff939
000021ec
ffffe187
fffff52a
000015b1
ffffeec5
00001fa6
0000078f
ffffe710
ffffd8c3
ffffecac
fffffeb8
0000124e
ffffe03c
ffffedd1
ffffc188
fffff72d
000010ad
ffffe730
00002c8d
fffffcec
00003422
000004f1
0000060d
000025e9
ffffece9
00001f0a
00001560
fffff351
fffff283
fffff07d
ffffd5cf
ffffe042
00001df6
000000d0
ffffe3a2
000002dd
000000ee
00001207
ffffed7e
00002a75
ffffecc3
0000281d
00001d69
00002b00
0000343e
fffff108
00003560
0000359f
0000378a
000037f3
00001e93
0000002f
00002916
ffffeaae
ffffe629
fffff40e
000017f6
ffffed24
ffffde31
00001579
00000bde
0000139f
fffffcba
ffffeb2e
ffffdf7f
00001d22
00001dc8
00002873
ffffe906
ffffe202
ffffd9ba
000007b3
000002d3
00001932
00001469
ffffff02
000011a6
ffffd7b4
00000fe3
fffff1de
ffffd933
000026c2
00001cc4
ffffed76
fffff81a
0000062b
fffffed0
fffff88d
00001118
000018b4
000001a1
00002722
ffffe5fc
fffffeb6
00000ecb
0000252b
ffffff6a
000011e5
ffffef4f
00000e51
000009dd
0000251e
00000922
00002842
00002026
000002d4
fffff7e7
00000192
000004da
00001b3a
fffff1b0
000015bb
ffffe22a
fffff912
ffffd8e9
000019c7
fffff64b
ffffd734
ffffdb77
ffffefcf
ffffe268
000016ea
00002786
00000010
0000195d
00002882
00001156
00000f21
00002089
0000183f
fffff10f
00002597
000016fb
fffffd10
0000075b
ffffea1a
00000e65
ffffd74c
00000470
fffff7f8
000029d4
0000233f
fffffddc
ffffe28b
00001d7e
fffff726
000014d5
fffffc89
00001112
ffffe766
0000086e
ffffd8cc
00000757
00002503
00000ac9
00002761
000003a4
000026df
00002bf4
ffffda1c
0000260e
fffff47c
0000140f
00001695
ffffe808
00001b14
ffffd6ca
ffffeeec
ffffee25
00001213
fffff682
000009da
0000195f
ffffef3a
ffffe50f
000019bf
0000135f
fffffd75
ffffe259
ffffe475
000000c6
00002bf4
000037bd
fffff8bf
000021fe
fffffdc5
00000237
00000cda
0000285b
0000058e
ffffd72f
00000a98
0000015c
ffffe556
00001087
fffffdb3
ffffdc70
ffffdd40
fffffafb
ffffecfc
0000065e
00002a0f
fffff637
ffffd85e
ffffe2a8
00000ef3
ffffffc8
00000cef
fffff44e
00001cdb
00001209
0000086b
00001b7e
00000db9
000004f1
ffffe0e3
00000e31
00001a01
fffff3d2
fffffad7
00000857
ffffe94e
ffffd676
000002e7
ffffef46
00002667
000005e6
ffffedca
00000e9e
00000a47
00000348
00001d83
ffffd580
ffffece5
ffffeb82
ffffe9c1
ffffebf4
ffffea82
0000058e
000023ea
00000197
00000c3e
fffff589
ffffdb36
ffffdcd9
00002a24
00003b4c
00002701
00003255
fffff901
ffffecff
ffffeea4
fffff9ef
00000465
00001db5
00002818
ffffec98
000008e0
fffff75d
00000fe7
ffffe73c
000003b5
ffffe339
fffffffa
ffffd7a5
ffffdf62
00000253
00000bfa
000000b8
00000cb7
fffff990
00001708
ffffe4ad
ffffedb8
ffffc87c
00001180
000007e1
fffffe0f
ffffdafa
ffffefbd
ffffd8ef
00001e39
ffffd27a
00000bfa
fffff1f3
ffffdc31
fffff90b
00001fd3
ffffe787
fffffc00
ffffe212
fffff62a
fffff812
00000b75
ffffc4c3
ffffffa6
fffff80a
fffff8fb
000003a6
fffff589
ffffc6df
ffffd840
000009aa
ffffcb1e
ffffbfc4
0000192b
00000fde
ffffea6e
ffffcbac
ffffe5eb
ffffd577
ffffd7f9
00001d8c
00001f0d
fffff1b5
ffffea13
ffffd899
ffffc042
fffff575
ffffdf7e
ffffd381
00000d2d
0000037f
ffffda7f
00002be2
00002898
000009c9
000005ae
0000337a
fffffbef
fffff9a3
fffff5fa
fffff4a4
ffffd05e
0000050a
00000a67
00000e5f
ffffd8d3
ffffd98f
0000156e
0000243f
ffffeb60
00000553
00002a47
ffffed50
ffffe899
00000dbe
00001693
000004d5
0000275e
00003d39
000025a6
00000083
ffffeae9
fffff19f
ffffe0cb
000002b9
00000f13
00000f79
ffffe4d6
fffffebc
fffff6f9
ffffea7d
fffff0d1
000015d5
00000105
00001228
fffff94f
ffffe24e
00001b7a
000007e8
ffffdad0
000001cb
00000314
000023dc
00000b91
000006a2
000022dc
0000375d
000008e8
00001269
00002c73
ffffd85a
ffffc815
fffff992
000030a5
00003cf9
fffff77b
000013ca
000009f5
00001069
fffffd2e
fffff07a
00001168
ffffd6fe
00002340
fffff2d9
00000824
00001a35
ffffe1cf
ffffd7c7
fffff3ec
0000473d
0000516c
00001b1e
000006be
00000480
fffff34c
00000441
00000838
00001189
ffffacba
ffffb406
ffffc84e
fffffa96
00001389
000004cd
00001875
00002ca7
00001084
00001981
fffffc85
00001aa3
000017d2
fffffe5a
ffffd949
fffffd50
00001910
ffffc74d
ffffd196
0000268f
00004c4b
0000210e
000012b7
ffffd21f
fffff5ae
ffffd53e
ffffd1c3
fffff586
ffffa876
ffffbee1
fffff41b
ffffc3f7
fffff5e3
fffff2a7
00000361
0000330a
0000301c
00002997
fffffbfa
00002715
fffff6f2
ffffd8bf
00001648
00000100
ffffdcee
ffffbeb8
000012d8
ffffda42
ffffd8b4
fffffc4c
00001226
fffff7a4
ffffe93f
ffffe554
000002a9
ffffef7d
ffffc8e7
ffffbae9
ffffb46f
ffffae53
fffff2e2
ffffd24b
00000267
000037a4
0000007c
00002638
ffffefb3
00002e11
00000ead
00000f07
fffffa3a
00001f92
0000169e
00000055
ffffc5dc
ffffdac7
ffffb7e0
ffffc40c
ffffd057
ffffdc86
fffff03f
ffffef9b
0000347e
ffffea3d
ffffd9d3
ffffc15b
ffffeb5a
ffffd677
ffffbfea
ffffaf44
00000a23
00001849
fffffc17
00005473
ffffefcd
0000146d
ffffe701
fffff168
ffffe8de
00001aab
ffffe683
ffffc617
000018ca
ffffe636
ffffe0d4
ffffad98
ffffca29
00001ece
00004058
00003f23
00007711
0000192c
ffffcfde
fffff134
ffffe0a6
ffffc65b
ffff8395
ffffce73
ffffc05e
ffffd7d1
00001ae5
0000314c
00004eb9
ffffed23
000018a6
00001957
00002130
ffffff9b
ffffe84c
ffffcbcd
00000554
ffffdc2e
ffffdda7
ffffd256
000027eb
00001dcd
00004621
00007198
00003f8a
ffffe743
ffffddda
fffffaf1
ffffe5c7
ffffb520
ffffad74
ffffb444
ffffe012
fffffe73
00002cf2
000037c1
00001377
00000765
ffffe370
ffffdd53
00001966
00000ae9
ffffe61b
0000149d
ffffdedb
ffffe988
ffffedb9
00002822
00004085
00006376
00007b81
000077c6
00001aee
ffffde86
ffffe3e9
0000127a
ffffc216
ffffd11e
ffffccac
ffffe638
ffffe72e
ffffc7bc
ffffed17
00003c4b
00000925
000005d5
00001bab
00000bfb
000010d8
fffff189
ffffd2c3
00001094
ffffc8b2
ffffec41
00001500
00001ff2
000062ec
00009b97
0000550a
0000498f
fffffe86
ffffa837
ffffda0a
ffffde03
fffffea9
ffffb5a3
ffff8c63
ffffc4c3
00000466
00001db3
00003a78
00001a87
00003647
00001745
00000a90
00001008
ffffde71
ffffd712
0000050d
ffffcd25
ffffebab
ffffca6f
00001a78
000022b8
00003e74
00009acb
0000a108
0000829b
0000175c
ffffc9d2
ffffe19d
ffffefcd
00002723
ffffcab5
ffffef93
00000dce
00001287
000030f8
000015b2
00002f52
000004b9
0000289a
fffff5be
ffffdf70
ffffd633
ffffe51a
ffffdc60
00000494
fffffac7
0000167e
00000e98
00002b94
000029ee
000053d4
000075d2
00008bc8
00000aaf
ffffff4a
ffffdae1
000003e6
fffff5fe
ffffdfc0
fffff3ae
ffffe718
fffff499
00000bcd
00002936
000027fa
0000235c
000012d8
00001226
000012e0
00000951
ffffeaca
000008dd
ffffeba0
ffffc7bf
0000098f
00000407
00001d40
0000520b
00002d61
0000884c
00003069
00004ddf
ffffe789
000018c9
ffffeeeb
000008a8
00001413
00001ba9
fffff4b0
00002ed7
00001ed3
0000440e
00002309
000017a7
00002044
0000031a
0000033e
00000140
00001614
0000250d
fffffcaa
00001421
ffffd11d
ffffe10f
00003b5e
00004b18
000022a8
000059f8
00007873
0000406c
00001301
ffffffbe
000021cf
ffffed7e
00001167
ffffefa1
00000a2b
000039fd
ffffee69
000012ee
ffffe8c4
fffffcec
000015de
00001a52
0000230e
fffff27a
0000261d
fffffb97
ffffe908
fffff845
ffffa66a
ffffdda2
fffff1ef
fffff93f
0000330c
000023e5
000062e2
0000707a
00004ea2
00002a46
0000173d
0000016c
00003c17
0000162e
00004329
0000137d
00001bce
00002583
ffffe905
000022bb
fffff916
00001969
fffffa1e
ffffeecf
000010bf
fffffeb4
ffffdaa2
ffffa2da
ffffd02c
ffffa772
ffffc572
ffffe6cf
ffffddcc
ffffe7b4
0000282e
000035ff
00002d6f
00001715
fffff598
ffffff7c
00001b9f
0000272c
00001f1e
ffffe437
0000013b
ffffddba
0000278f
fffff65a
000022e0
00000ad1
fffff813
fffff7f8
0000089d
000025dc
ffffd1b5
000001ba
ffffcd33
ffffeac9
ffffaf78
ffffad14
fffff82d
ffffb5f6
ffffdd40
ffffc495
ffffed6b
fffff567
00001c29
0000101d
fffff25b
00001398
ffffe6fd
fffffeef
ffffedde
000001d7
ffffeb5c
00001830
0000257f
fffff9b8
0000060e
000021c9
00000c15
ffffd7ce
00001912
ffffe9b4
ffffd180
fffffb60
fffffacb
000002d5
ffffe617
ffffe12b
ffffd4e7
fffffda6
00000f25
ffffd385
fffff02a
ffffd2e3
ffffd513
00001ce7
fffff7a8
fffff6df
ffffd930
ffffddfe
fffff7fd
ffffff64
00000fb5
ffffea41
000002ff
000023b0
00001cb4
00000aab
0000088f
ffffd58d
000003fe
fffffb42
00000942
ffffe114
00000720
ffffdd60
0000027d
0000253e
ffffe95d
00001e0a
fffff0bc
fffff7bb
fffff2d1
000012ae
000023ae
fffffa0e
ffffd516
fffff45d
0000159e
00001710
00002050
00000612
000002aa
00001780
000000e1
00001663
fffffaef
ffffd703
ffffd762
ffffe62e
ffffe146
000007a1
0000140d
ffffda43
0000230f
000024fe
ffffd772
0000018c
fffff450
ffffef54
ffffda7c
ffffd933
ffffd861
fffff825
fffff80c
fffff520
ffffe8de
fffff1fc
00001d96
fffff493
0000033d
ffffdbd9
0000210f
00001738
0000162e
000026de
fffff2b5
000013f5
fffff958
ffffe40f
00001020
00001a98
ffffecf3
00002078
000013d3
ffffe889
ffffdb95
00001db9
ffffea76
fffffb33
ffffd5c5
000003c7
000011e2
ffffd7a6
00000db4
ffffee3b
000021e0
00000af3
ffffd6dc
fffff0b0
fffffa87
00001888
ffffe3cd
0000140d
0000136e
fffff089
ffffdde6
00000125
00000e5d
ffffd523
ffffe2d7
00001f8a
ffffd97e
000000d2
00000e91
00000a09
00002a1f
00000cd2
fffffe57
00001242
00001f66
0000192e
ffffe9e7
0000105e
000026e3
fffff17c
00001f0f
ffffefa5
00002a5d
ffffe824
000025af
0000118e
ffffed31
00000014
ffffd649
fffffe21
fffffa85
00002913
0000143f
00000e53
fffff658
ffffeb21
00000be6
ffffe5f2
00000743
00001ed0
000008ba
00001537
fffff8e3
ffffd6a4
ffffda03
00000d3c
000012c9
fffff71c
00000523
00001fc7
00000066
fffff6b2
0000204e
ffffe172
ffffffcf
000017af
00001c38
ffffedd9
fffff0a6
0000012a
ffffe47f
fffff241
fffffb30
ffffe550
00001ec4
ffffe44c
ffffdc02
000013c0
ffffee1c
000026ca
00000ddf
ffffe0c7
fffff7da
fffffefc
00001da7
00002551
ffffd814
00000861
0000112b
000012ea
ffffd5a3
ffffe0f3
ffffdb47
00000908
ffffef5c
00000fb7
fffff127
ffffd592
000005b0
00001511
00000426
0000248a
ffffe481
00000bd7
ffffe53c
ffffd537
ffffe32e
ffffde44
ffffd59c
fffffcfa
00000ce2
00001dd3
ffffe6c2
fffffcb2
fffffae9
fffff5fa
ffffecb6
00000c56
ffffe83d
fffffc1c
ffffef57
ffffe52c
ffffedfd
000025a4
0000008f
ffffea3c
00001aef
fffff4a8
00001099
fffff569
ffffe223
000010b7
ffffd8cb
00000dee
fffff654
ffffed58
ffffde55
ffffdd6b
0000219d
00000a52
ffffd58a
ffffeee3
fffff2e5
00000bb6
ffffe9ea
000013ba
ffffe61c
fffff57b
ffffeb6f
fffff2b8
fffff3aa
00002214
fffffeaf
0000122a
0000071a
ffffde15
ffffdd4c
fffff076
fffffbbf
000016c6
ffffe0fb
00001152
ffffd5d6
ffffd9d0
ffffe12b
ffffdb65
ffffdc78
ffffda37
ffffe734
fffffa97
00000313
fffffe2b
000001bc
00000f26
000018a9
0000175c
ffffe1fc
ffffdbf8
fffff84c
ffffe372
000013f5
00000d64
ffffd928
000004d6
ffffd331
00001adc
ffffe3e7
ffffea7a
00001558
000021c2
000024ab
ffffe089
ffffff2d
fffffaf0
000019aa
ffffd4d8
00000c0c
00000f73
fffff111
00001acd
000026a2
00000390
ffffe565
000003cf
ffffffd6
fffffb37
00001549
0000050f
ffffd52c
ffffe560
00002646
ffffe53a
000003b1
fffff072
ffffd527
00001988
0000147c
000024d4
ffffd867
00001dc3
000000af
000026ab
ffffd529
00001e4b
fffffd5d
fffffe26
fffff635
ffffdece
000022f9
ffffdd05
00001a17
000007d6
0000203b
000000c7
ffffe305
0000095d
00000aa4
ffffe5d5
ffffe20c
00000397
00002742
ffffd557
ffffeac4
ffffff88
ffffe9d6
ffffd5a2
ffffd7f1
fffff001
ffffe718
00000d98
fffffa0f
00002368
ffffeb0b
ffffe283
00002a05
00002239
000013e1
00000fb8
00000129
000000a9
00000a7e
ffffcf23
000000e4
00001bdb
0000073d
ffffd4d1
fffff2ab
00000349
ffffe369
00001327
ffffdd5b
ffffe0c3
ffffd74e
ffffd930
ffffdc90
fffff427
00000b45
00001cbc
ffffe1c4
00001fb1
ffffe688
00000621
ffffe26b
ffffd75b
0000152d
fffff7e4
fffff5d1
ffffe4cb
00000731
000022b5
ffffe4ca
00000faf
ffffe796
fffff143
00000eb2
ffffdc4a
fffff73d
000005d9
ffffe381
ffffd398
0000156b
ffffef85
00000210
000003c0
fffff83c
fffff762
000005e1
00002a47
0000250c
ffffe48e
00001aca
000009c2
0000101c
ffffe25c
000011c7
000014ae
00000e11
0000236a
fffff8bb
00001eaf
00001be5
000016c5
fffff4a5
00000683
fffff083
00001f25
000018a9
ffffef18
000020aa
000000f4
00001958
ffffe7ea
00001512
0000282c
ffffe14e
fffff3ae
ffffed3e
000018f8
000017ac
000028bd
fffff534
ffffe466
fffffd9d
ffffefd8
fffff359
fffff9a3
000018af
fffffaf6
ffffe5e3
0000136c
00000c1a
0000123d
ffffd450
00000333
000009e8
ffffd1c7
ffffe4ab
00000679
fffff005
00001f09
ffffdc2d
fffff05c
ffffebdc
fffffe28
fffff984
fffffecd
0000089c
000006c8
00002adf
000020c8
ffffe967
fffffdd0
ffffd7f0
ffffd6fa
0000161e
ffffd7a2
ffffeb2c
ffffdcd9
fffffa17
00001bce
ffffd92e
ffffd38d
fffff2cb
000009a6
ffffd8bc
ffffe75e
fffffc5c
ffffee80
fffff1a4
fffffc88
00001d43
00000325
0000243a
0000068b
fffff3c7
ffffe379
ffffec97
00001128
0000093c
00002138
00000952
000011b0
00000669
00000943
000011c2
00001b74
ffffd9a7
000007a1
fffff1b3
fffffef0
ffffe30d
fffff37d
00001631
fffff38a
fffff922
fffff45d
0000067f
000000bd
ffffe6cb
ffffe25a
00001d5a
00001641
000020af
ffffd9ef
0000186c
00000531
000015ee
ffffe0fb
ffffdc2c
ffffea74
00000290
00001aa9
000024bc
0000020d
00000b53
ffffe0a2
000016ec
ffffee43
00001b0e
ffffcefd
ffffddac
0000211c
00000ff6
fffffe31
00002700
ffffef69
ffffffd5
ffffe4d5
000003db
0000287d
fffffb7b
fffff0a7
ffffd5c1
fffff1d1
000008b8
00001f10
00000ce3
ffffeca7
00000011
000023a4
ffffd760
0000012f
00001090
fffff090
000020bf
0000109f
fffffa18
ffffead9
ffffd1da
fffffdc7
0000080f
0000234e
ffffe610
000010df
ffffefcb
ffffd789
ffffd933
ffffe427
fffff084
00001ccb
ffffec18
fffff023
ffffec7e
00000ec3
00001341
00001bc4
fffff757
fffff7db
000001c4
ffffe323
000017ab
ffffd9da
0000174a
0000008f
0000051d
ffffe6c8
00001923
00001aea
fffff86f
00001f72
0000013b
00001da9
ffffdf8e
ffffd91e
00000bc7
fffff82d
00000f50
ffffec11
fffffe5a
000005eb
00000019
ffffe3bc
ffffe585
ffffe743
ffffdfd2
00002d5e
00000382
00000444
0000042e
ffffd6d7
fffffc62
0000181a
ffffefa7
00001df1
fffff10b
ffffe367
ffffed19
fffffbb0
00001258
00002857
00000872
fffffaa4
0000040a
fffff123
ffffe029
fffffdb9
00000450
00001d7f
ffffdff5
ffffe1e8
00001a22
ffffec1f
fffff4d4
00000b24
000019a4
ffffecb6
000013dd
00000252
00001784
fffff440
000020e4
ffffebb4
fffff035
fffffb22
00001ce4
0000204c
000028da
ffffdf33
00001fc7
00000c67
ffffd66a
00002006
ffffdada
ffffdef3
ffffe092
000000b6
ffffdbbd
fffff346
000009fc
ffffdcc9
ffffe8c6
fffffb24
ffffdcfe
ffffee41
000026e9
000007cf
fffff6b1
ffffefda
ffffe234
ffffd1ff
00000db7
ffffeb18
00000591
ffffde19
ffffe4cc
ffffecf0
fffff9a7
000023e3
00000453
00000c84
ffffd5ed
0000257e
fffff09d
00001a90
0000105c
000016eb
0000180f
00001d95
ffffffb6
00002031
00000416
0000196a
00001f03
ffffe9ca
0000246f
ffffe6f2
ffffe260
00001cff
00000f5f
00001b56
000027c7
ffffee76
000003f4
000023f8
0000251c
ffffdf64
00000c5d
fffffca9
ffffee68
00000a18
fffff058
ffffe630
000017bd
ffffe124
00000593
00000818
000004ff
000006f9
fffff53a
fffffbc2
0000133f
ffffd9d3
ffffde8f
ffffec09
00001867
00000a05
00001f9d
fffffb0f
ffffd6e1
fffffa19
000020b1
fffff02a
00000d40
0000113d
ffffe9a6
ffffd9f5
fffffa59
00001354
fffffabe
00002904
ffffd649
ffffed7f
fffffc32
000025d5
000005d1
fffff3d9
00001170
0000148c
ffffe775
00001f3c
ffffff85
fffff565
ffffd4cd
00001c4e
00001b43
000012c2
00001521
ffffeaf8
00001fc8
000021c1
00000634
000016f1
00000015
00000fc5
00001dfd
00001b5f
0000065c
fffff00b
ffffe343
00000fa9
ffffe99f
fffff2f3
ffffe8f6
fffffef7
fffff339
000017c6
ffffefec
000017a3
000024fa
ffffd6f3
00000123
fffff90c
ffffe121
0000223b
000007b2
00000505
000017d5
fffff9cc
fffff6c6
ffffe010
ffffd6d4
ffffef11
ffffec5a
00000609
ffffdaa6
ffffe242
ffffe272
fffff02d
000005b0
ffffd684
000023ae
fffff0dd
00000634
0000030e
ffffe483
000016d7
000009bb
000010e0
ffffe148
ffffed95
ffffe5a2
ffffde76
fffffe4b
fffff4ef
00000ccb
fffff8f2
00001cae
0000099a
ffffdcad
00000184
ffffda24
ffffde55
0000026f
ffffe3fc
00000fb0
0000141d
00000c81
00000794
000029ce
0000137a
000007e6
0000227d
000001ee
ffffead0
00001268
ffffd554
ffffec62
000014f9
ffffe80c
ffffe5ef
ffffe98f
00000d90
ffffe15e
000022d4
ffffe840
00002121
00001730
ffffd517
000004d2
000029d1
ffffeb63
fffffdf8
00000bbe
00000321
000012ca
00000ae7
ffffed59
fffffdec
00001a11
fffff3a1
000002c5
ffffe9dc
ffffd37b
ffffeb7c
000000b4
ffffeaf9
ffffeaeb
00001f48
00002869
00001d69
000013a2
fffff9dd
ffffea32
ffffdaf7
000018b9
00001b0f
00001ef7
000026eb
00001ae2
00002903
ffffd782
000025ed
00000fe8
fffff248
00001ea2
00002081
ffffddab
ffffcbbb
ffffe71a
ffffc4d1
000004b2
ffffd755
ffffe269
fffff7f6
ffffe4a9
fffffa61
fffff1cc
fffff096
00001339
ffffff72
00001071
000003bb
0000026c
fffff91c
ffffe8ee
0000233b
ffffda96
00000bc1
ffffd8d4
ffffd9ab
00001d29
ffffcbcc
ffffd2be
ffffdc04
fffff060
00000084
ffffd223
ffffcea1
ffffbc8c
ffffe9a5
ffffe92e
00000085
fffff337
00001705
ffffdb86
fffff27d
ffffe07a
0000287e
00002938
ffffdcdd
ffffffb6
00000c34
0000187c
ffffd9ae
fffff413
ffffe4c4
00002a88
ffffde25
0000094e
ffffe3d6
00000f00
ffffc015
000002b4
00000270
fffff66c
ffffafdb
ffffda21
ffff90ff
ffffd06d
ffffef76
ffffe818
ffffcfbc
0000085b
ffffe9dd
00003428
ffffe780
ffffed3d
ffffe18b
ffffed38
fffffba9
fffffb90
ffffdc47
ffffd9ca
000014b2
fffffbc0
00001a34
00001005
00000423
00002825
000032a3
ffffefa8
fffff4f0
fffff034
ffffb6f6
ffffeb36
00000159
ffffc6a9
ffffc220
ffffd9ba
ffffd635
ffffdf5b
00000a00
fffff71b
00004b2d
00002f23
fffffc86
00001198
ffffd88d
00000f62
ffffdcc1
ffffd743
ffffef57
00000b9e
000035de
00002d8c
0000326d
00003457
000015e0
00002edc
ffffe552
fffffc5d
ffffc38f
0000074f
ffffcc8f
00000f9c
ffffe288
ffffd688
fffff6ea
0000048b
0000188e
0000003a
00003d21
00001a53
000014dc
000025d6
ffffeda4
0000189d
00001a65
0000111d
fffff165
fffff2ba
ffffe32b
000006aa
0000217d
fffff89c
fffffb0d
00003f1c
000003b4
000008c7
0000092a
ffffc5ce
ffffd530
fffff438
000010c8
fffffe8e
00000f97
00001126
00003486
0000252b
0000326b
fffff18d
00002156
00000a5c
ffffe274
000002d4
0000255b
fffffd29
ffffebb1
ffffd53f
00001592
ffffe1a4
fffff36c
ffffe5e0
00001958
0000365f
fffff528
ffffe340
00002085
ffffe00c
fffff0ec
ffffe85d
ffffd383
00002d6a
00003714
ffffed5b
00001d7d
fffff27d
00000eea
ffffeeed
0000023a
ffffe659
fffffc66
ffffdfa7
fffffe07
00002969
0000258a
0000230b
fffff708
fffff64d
0000193d
ffffe689
0000348a
fffff43c
0000097c
00001bbc
0000094b
ffffd360
000003a2
ffffe68e
00002a5c
00004d60
000014a1
000011a4
00001ee1
00000667
ffffe9a6
ffffea86
ffffffbb
00001bfc
fffffc4c
ffffe85f
ffffe1de
fffffe8d
00002521
ffffebd0
ffffe513
ffffe4cb
ffffbd4a
00000847
00001b60
fffff1e5
000009bd
00000c8c
00000e5a
ffffbb96
fffff026
00001c73
00004109
0000428d
000018d9
fffff27b
00001b7c
000001a4
fffff479
ffffd254
ffffda80
fffffae8
000006cb
00000ff5
0000038b
000016e5
ffffe4ae
0000183d
ffffc9ec
fffffcc4
ffffc798
ffffff6a
000034e1
0000330c
000037ce
000034b8
ffffb215
fffff102
0000193b
00003928
0000521e
00002285
00002817
00000b2c
ffffd8bf
ffffc190
ffffb637
ffffbdf5
ffffc0b7
ffffea27
ffffd7d2
0000084f
ffffd7d7
fffff1ef
fffff411
0000139a
ffffca37
ffffd5d1
000018e2
00002e59
000020e3
0000407b
0000080b
00000da6
ffffce71
ffffe39e
000045d1
00005823
00005b7d
00004434
fffff743
00001eb3
fffff2be
ffffdb4f
fffffee6
ffffd4d2
ffffdea1
0000126a
000009d1
ffffe362
0000072a
0000071d
00002838
000022af
ffffe4de
fffff6a5
00002a5b
ffffffc3
ffffea10
fffffb6e
ffffe775
fffffb0b
ffffa3b7
fffffe99
00002575
00003619
00005e32
000032bd
00002e39
fffff484
ffffd190
ffffdb9e
ffffc434
ffffd09f
000026ca
ffffea63
0000293c
ffffdb65
00000657
000028c2
0000205b
ffffe366
0000040e
ffffecd7
000011a3
00001a22
0000040c
ffffe706
ffffec5b
ffffda14
ffffcac5
fffff99b
000043f7
00007601
000050c4
00002f61
00004fb1
fffff0c8
00000d91
ffffddeb
ffffef99
ffffeb13
ffffcf69
ffffd525
000014fc
00000f3e
0000167a
0000084d
000002de
ffffef2d
fffff894
fffffb09
0000124a
fffff843
0000192f
00001b12
fffffd66
ffffc27b
ffffce93
fffff17d
000053bd
000089f2
0000a9ca
0000576e
00002b4f
0000052d
00000ccb
fffff9f0
fffffde0
ffffc514
fffff2f7
fffffcdc
00001e5b
00001f6f
ffffdfa6
00000a14
ffffe1a7
ffffd368
fffffb89
ffffda18
000018ce
0000119d
00001a39
ffffebaf
fffff772
00001c8f
00001400
00004178
0000841d
000053b5
00002f20
00003eda
00000742
00000f88
fffff1fb
00000143
ffffcb28
00000b1a
ffffe2fa
00001cad
000021cd
ffffe712
0000006e
00000552
fffff6be
ffffd23b
ffffc737
00000d3e
0000187f
0000264b
00000458
00001031
00002011
ffffda6a
00001bf5
00004dea
00006479
00003aca
000002fc
fffff659
ffffbbda
ffffde78
fffff8e4
00001227
ffffd3c2
ffffce74
0000228a
ffffea47
ffffeda9
ffffeca2
0000171e
ffffe0f5
00000e0d
fffff195
fffffda6
ffffe863
ffffdb96
fffff93e
ffffbcb4
ffffcbae
ffffe1c1
ffffb429
ffffea13
0000082a
0000090f
ffffefaa
ffffc498
ffffe2c8
fffff0f1
ffffe770
000003a7
ffffdf23
ffffb95f
ffffea0d
000022bf
ffffdbc3
fffffa5f
000014cd
000021c9
ffffeaa7
000008f8
000002a1
ffffd82a
ffffd82b
ffffeda2
ffffcc73
ffffc64d
ffffba11
ffffac08
ffffbfa7
ffffb88c
0000242c
00000a79
fffffd2e
ffffe184
ffff9f43
ffffa5f3
ffffeb3a
ffffdc80
ffffd9c6
ffffd550
ffffc0c0
00001f5e
ffffe6eb
00001780
ffffef91
fffffb3e
ffffefb4
00002198
ffffff98
ffffd081
ffffe18d
ffffb135
ffffc559
ffffd3f7
ffffd1cf
ffffb48f
ffffae39
ffffbdc2
fffff06d
ffffd086
ffffd236
ffffccae
ffff8fb2
ffffd356
ffffb95d
ffffe4d2
ffffe78b
ffffc901
000017c6
ffffe6c3
fffffd5f
00001ecd
00001e3d
fffffed0
00000d66
ffffdc29
00001259
ffffedb2
ffffae8e
ffffd4e8
fffff0cd
ffffffdf
ffffe1de
ffffef02
00000e2f
ffffe525
ffffccd6
ffffdae3
ffffe58d
ffffc8ae
ffff9b41
ffffaa0d
ffffd122
00000303
fffffafd
ffffd75b
ffffef38
00001560
00000090
ffffe46e
ffffd503
00001a1d
000006b8
0000113f
00000eda
ffffe9f2
ffffe3ba
00000ef8
00003668
fffff1b0
000024a6
00003065
fffff088
ffffdf48
ffffd457
fffff250
ffffbef1
ffffdd27
ffffb082
ffffb12c
ffffbee8
fffff984
fffff6a9
fffff9b8
0000218c
ffffef32
ffffd853
ffffe7b6
000018d3
ffffdb10
00001d4b
ffffff86
ffffd217
ffffff92
00003d69
00004e80
00001291
ffffe861
00000e6c
0000297f
fffff8a3
ffffd827
00002a1c
ffffe4df
ffffe2a5
ffffde39
ffffbe7f
ffffba91
fffff3c7
ffffd3db
ffffd21b
ffffd9ed
00000e89
00001220
00000333
0000080a
ffffeb76
ffffdb58
0000006f
000027f0
fffffe62
00001518
fffffe10
00002c00
000038d4
00003039
00002da7
ffffe81d
ffffc0ec
ffffe4a6
fffff2b4
ffffcfa6
ffffdbbb
ffffee2d
ffffd4a8
ffffdef9
000009f7
ffffdc6b
000000a8
ffffdb46
000018a4
00000236
ffffdeea
ffffde6f
fffff243
000010c2
fffff8e0
ffffd972
0000386e
fffff3d1
00002ef8
00000d49
00002f72
00001b27
00001287
ffffe1cc
ffffe10d
00002562
000013c0
ffffd386
ffffea59
ffffdf26
ffffb8a8
ffffb67d
00000db9
00001dcb
ffffcf56
fffff96a
ffffe6ba
ffffdb49
000005da
00001626
ffffdc26
ffffeb83
00001bcd
ffffe29e
fffff857
00002a96
00000f41
000029f2
00001e5d
0000155a
000025db
fffff72c
ffffe782
00003206
fffffee6
00001d7f
fffff6bc
ffffee4b
000006e1
00000e03
000016eb
fffff18d
00000c21
00001a7e
00002571
fffffe2f
fffffd15
ffffe6c9
fffff955
ffffd8ad
ffffefe0
000024c7
0000199f
00001ce0
ffffeaba
fffff020
00001e4a
00002387
ffffdbe9
fffff055
ffffe4db
ffffe792
fffff3a1
00000c52
ffffe0f8
fffff582
000021b2
fffffb23
ffffe279
00000ce2
fffffec4
000002c3
0000052c
fffffec8
ffffdbdd
00001582
00001563
fffff294
000016fd
fffff658
000014f6
ffffdc73
ffffd82b
ffffe808
ffffe076
00000559
ffffd8d6
0000283c
ffffd79e
fffffe3c
ffffe1c0
0000217c
ffffe3c2
ffffe5d2
ffffe014
00000d8d
ffffe359
00000171
ffffd977
00001962
fffffba6
00001851
fffff99e
ffffeb22
00001b28
ffffeb19
fffff2ed
ffffd6b1
ffffe732
ffffe8dc
fffffa3e
00000ea9
ffffe965
00000e57
ffffd500
ffffe441
000020f6
000012b2
0000134a
ffffd808
00001fe6
ffffff7a
00000701
ffffe0b9
00002769
ffffe0c7
000023a9
fffffe63
ffffe69d
000000f2
00001645
00001ec8
00002a70
00001ea2
000021f5
00002993
ffffe329
ffffdfad
000024fb
00001573
00000284
ffffd894
000021b8
00001797
00000ed0
0000233b
00000c1f
ffffe481
000019e4
ffffe34e
00000db9
000019ed
000010ff
000022ce
fffff305
ffffe0ef
fffff403
ffffecfd
000020cf
00001fcd
ffffd926
00001817
00000d5f
00001726
00000493
00001036
000018f7
0000195a
ffffea47
000024fd
ffffe752
000009d5
0000283e
00003697
ffffe8f5
0000373c
ffffe1b4
00000a61
000016ef
000017e3
fffffe9c
ffffddf7
000018b6
fffff2ae
ffffd753
ffffe0fc
fffff62b
fffff716
fffff31c
00001283
ffffee60
ffffe179
ffffdbd3
fffff107
0000222b
00002e53
000003cf
00000a22
00002184
00000b86
00003a76
00002838
00002827
000032f7
fffff069
fffff5af
fffff492
ffffe2b6
ffffe0ca
fffff3aa
000012dd
ffffca28
ffffd8cd
00002712
ffffef36
ffffe945
00001537
ffffe769
fffffc03
00000445
fffff42a
000033ad
00004457
00004e34
0000168d
0000170f
00000a98
00002d11
00002af7
fffff389
00002ed0
000014c5
000014c6
fffffb1e
000019f4
00000574
fffff1ae
000002c6
ffffd7f1
0000188a
00001037
00000e4b
00000cc8
00000a60
00001f64
000028dd
0000109f
fffff119
0000303b
00000da6
0000319c
00001813
0000129c
00001ed3
000005c9
00002618
ffffe32c
000001f5
00000755
ffffc79a
00000e40
ffffe8b3
fffff168
ffffe437
ffffcc59
ffffd92f
00000487
fffffbbd
0000189a
ffffe654
0000189f
ffffdd41
ffffdc1a
00001961
000019fc
ffffde64
00000e5d
00001955
fffff788
00002d44
00001a88
fffff604
ffffc338
ffffaffe
ffff9573
ffffb5e9
ffffa7bf
ffffbd02
ffffef42
00000ccb
fffff7c7
fffffe19
ffffc790
ffffd4fc
ffffbd24
ffffe7a7
00000261
000013f3
fffff9b3
00000db7
0000199c
00001687
00002674
ffffe2f1
00000f19
00000071
00000927
000007a9
ffffdd1c
fffff395
ffff9686
ffffaddf
ffffd7d4
ffffb38a
ffffc7b7
ffffce5d
ffffb8d4
ffffb842
ffffef87
00000c7b
fffff520
ffffddad
0000063f
fffff82d
fffffc98
00001777
ffffe041
ffffe784
0000038c
00000109
ffffe48c
fffff06e
00002978
00000bc8
00000c57
ffffda68
ffffd88a
ffffb8e6
ffffc1f7
ffffd55d
000008a3
00003559
0000526f
00001f69
fffffe88
fffff543
00001a0c
ffffe02f
000003a0
00000a97
00001127
0000064d
0000205b
00000f6f
00001984
0000255e
fffff906
fffff8d7
fffffa58
000032ef
ffffe229
fffff12f
ffffece0
fffff3ef
ffffb60a
ffffc423
000019ea
00001e96
00003e78
000090c6
00004e7f
000013cf
000029ec
00001288
00002a0e
000002ac
ffffe3ce
00000935
fffffd85
000012e2
00001f49
fffff9b8
00000e0d
00001514
0000269f
00000736
fffffdc7
ffffea0c
00000c36
00000f49
00001556
ffffd1ad
fffff81e
fffffca1
00005342
0000467b
00005dce
0000747e
000033c4
000023ed
ffffddab
ffffd420
ffffdafa
ffffe068
fffffdb1
ffffd29c
ffffe100
000009ae
00001e08
00001994
00001e2b
ffffe880
ffffeda4
ffffe50e
0000216c
fffff329
ffffec5c
00000a8f
00000b1a
00002f2e
000037a7
00004b67
00002536
000027b2
00005ba8
000022fc
00000c48
ffffe172
ffffe112
00000498
fffff799
ffffebca
fffff66c
ffffeb71
ffffe5c2
ffffde26
ffffcc98
fffff32f
00000ca7
fffff2cf
fffff1ec
ffffd567
ffffdb70
000004d1
00002101
00000003
00000b65
00001146
00001fa6
00003d61
00003a4c
00003cc3
00001016
0000016f
ffffdcfa
000020f3
fffffffc
ffffecc1
fffff2a8
fffff236
ffffeb45
fffff92a
00001755
00000c9f
000009df
00000e6e
00000116
fffff2f6
0000215e
000004e3
fffffa31
00002cf8
000025fa
fffff850
fffffd1e
ffffde24
fffff0a5
ffffd36b
00000a16
ffffb6bf
ffffedcf
ffffb725
00000d83
00001299
fffff8c0
fffffcdb
00000c19
00002956
000018fb
00001032
ffffe9cb
00001c2c
ffffd7e9
00002408
ffffe34a
00001fdf
fffff7db
000018cc
fffff249
ffffe2ca
ffffef07
00000ebe
ffffdefb
ffffd97f
ffffdccb
000000dd
ffffc06b
ffffd9f8
ffffd568
ffffbae0
ffffeb2b
00003198
000003f1
00002553
ffffe793
000025e9
000047b4
000026a5
00002588
00001e28
fffff329
000003c0
ffffdd2e
ffffe4bf
00001296
00000140
00002014
fffff655
ffffd027
ffffd8bd
000002bb
00000735
ffffb6b0
fffff71e
ffffc626
ffffa43c
ffffca5a
fffffea7
fffffcc3
fffff170
00001749
fffffd33
00001a93
fffffaf5
00000b3b
0000118b
000028f6
00001cb6
fffff920
ffffe59f
fffffa45
00000486
0000242d
000022a3
ffffe431
00001496
ffffdb40
ffffcf61
ffffbd58
00000aa3
ffffeb6d
ffffb567
ffffcf86
ffffa8ea
ffffdd60
ffffdec8
fffffb0c
000009a4
ffffe703
fffffa81
ffffd878
fffff156
00001f15
000036d3
000033ce
000007c1
0000068c
00001416
000006bc
fffff2bf
ffffd85b
000010c5
000006a5
ffffe7a6
00001963
ffffe3a6
000002aa
ffffdb64
fffffa9d
ffffe307
ffffee45
fffff909
ffffb40c
ffffc47e
fffff835
fffffa9e
fffffee2
ffffef70
ffffccb2
ffffe260
00002507
00000086
00003861
fffffb5c
ffffe070
ffffe653
fffff642
000024c2
000027ff
fffff25c
00002912
fffff68e
fffff6c7
ffffdce6
ffffea4c
00000925
00002498
00003115
000014c8
fffff7fe
ffffefd0
000015c1
00000dc6
ffffee00
0000109c
fffffde1
0000045f
000003ca
000027e2
000004a1
ffffe580
0000235b
0000238c
00001d8c
fffff5bf
0000075d
ffffe97b
ffffda4c
fffff20f
fffff6bb
ffffcbe1
ffffdfd0
ffffe606
000004b4
fffff446
000019e3
fffffd8e
00002813
ffffdebc
000004de
000005ab
ffffd603
00002756
00000da6
fffff141
0000162a
00004683
00001d3b
0000343f
ffffed94
ffffe28f
ffffe92d
00001658
000027e5
00001130
ffffe904
ffffeee4
fffff32e
ffffcd4a
ffffce71
ffffca4d
ffffeb32
000016ff
fffff91f
00000450
00001134
00001606
ffffede8
00001a8e
000009ba
ffffe41f
0000223a
fffff824
fffff1e8
00000533
ffffeefc
00000371
00001698
ffffdbb3
ffffeb63
0000221e
0000086c
fffff1d2
ffffe84d
0000234a
ffffe54c
ffffec74
ffffffb1
000004c5
ffffda8f
ffffeadb
ffffe7fb
000023e0
ffffdfc5
000024b7
ffffe7c9
fffff273
000007a7
fffff634
0000115a
00001bc7
00001fb3
000032e3
ffffe915
fffff53f
ffffcf39
00001665
00001f86
000026e5
ffffe9ef
0000234f
ffffdae9
ffffff29
ffffd6b7
00002a21
ffffdc85
fffff990
fffff91f
ffffd81f
fffffb06
00000d00
00002984
00000d0c
00000c42
00001017
00000a70
0000229e
000039b2
000013b8
000012ac
00001a01
ffffedd2
ffffea03
fffffbf6
ffffe163
00001d3e
ffffed87
fffff7e7
00002a70
00000792
ffffeebe
000006ac
fffff272
fffffe8d
ffffe9b0
ffffe31a
ffffe5c6
000008e2
ffffe9f2
ffffff39
ffffeb14
00000cef
00001512
fffff8ca
ffffe91a
00000d63
ffffe788
000001d1
fffffc61
fffff9a8
ffffd535
0000089d
00002546
fffff08d
000029a5
00001dde
000000fb
000010a9
fffffe70
fffff0d8
000012ff
000014b4
00002ac8
00002003
00001f17
ffffdd88
000024b8
ffffdb8c
00003276
00002b7c
000016df
00001b19
00000a7f
000005b3
ffffed7f
fffff94c
ffffde1a
ffffd736
ffffeace
00001609
fffffaa3
ffffd69b
ffffe9e4
00001189
ffffe8eb
0000235e
ffffe27e
ffffe8ba
00000360
0000279d
ffffde88
00002ecf
000000dd
ffffe37a
00000671
00002ba0
ffffe9e6
000001d5
000009f0
00002259
ffffe426
fffff136
00000a2d
000020b9
000000d3
ffffebf5
0000207d
00001a12
000017e4
fffff78e
ffffdaca
ffffdad9
fffff681
00001458
00000f52
000021cb
00001f54
000023ab
ffffe133
0000022d
0000097e
00000c60
00001171
fffff199
00001959
0000258e
fffffbd5
ffffed68
000012e3
00000ca5
000028ff
ffffdc0a
0000001c
00002995
fffffc07
ffffe95d
ffffdcea
0000133f
fffff1f0
00000f6f
fffffcb3
00000121
00002808
00001f0e
ffffec00
ffffe934
fffff7f5
00001292
fffff437
00002512
fffff94a
0000270a
ffffe386
fffff518
0000185c
ffffe7ee
fffffe18
ffffe6cc
fffffad5
ffffd92e
ffffd6d9
00000f99
0000284c
00000dc7
000028a1
0000258f
00002512
00002583
00000c24
ffffd61c
0000239a
00001e64
00001c70
ffffe53a
ffffe7da
00000bb2
000014c4
ffffeb40
00001415
00001112
00002798
00000028
ffffef06
00000dec
fffffac1
00000b87
000000f7
fffff3dd
ffffde99
00000807
fffffe9d
ffffdb68
000028d3
ffffee1f
00000a3d
00000376
0000297f
000011bb
ffffdae3
00002b0e
0000191d
00001d65
00001c35
00001635
ffffe0e1
000002d0
00001bcb
00001f51
fffffa04
ffffedd6
ffffdc98
00002674
fffff217
ffffe248
ffffde18
000011a3
fffff67d
fffff43f
fffffde8
00000652
00000db4
00001b71
00000202
fffff3d6
fffffde8
00002486
000008e8
00000d5d
000003b4
ffffd691
0000245c
000008b7
00000643
000000d4
ffffdcf7
ffffe3cc
000017c6
00001ff5
000000d0
00000cc2
000010e0
fffff3b3
ffffd5ca
00000716
ffffe173
ffffd8a5
000011ae
ffffdbb4
ffffedbf
00001bc8
ffffeaa4
0000014e
000001e8
ffffe4fb
fffff51d
ffffe959
000007e3
00000678
00001ec0
ffffe26d
00001afc
fffff13f
ffffdf4d
ffffc8c9
fffffe82
ffffd061
ffffd9be
ffffeb04
000001ec
000018fb
ffffcf82
fffff31f
fffff186
ffffff76
ffffe84b
00001b0f
0000039a
ffffe35c
fffffaf9
fffffdd7
ffffeee6
ffffe6ff
0000216f
00001e07
00001469
ffffe3a2
000013ce
00000270
00000f8f
ffffed9b
fffff3f8
fffffdb0
ffffded5
ffffe79b
fffffbb9
ffffe02e
fffff287
ffffeba4
ffffd7ca
ffffe39a
00002231
ffffdf20
fffffb3d
00001f42
0000236e
00000cf0
fffff91d
000000fa
0000277d
00001a89
fffff224
00001485
fffffa61
00000a6c
fffff865
ffffe022
ffffd733
ffffd9a7
fffff5ba
ffffd7a1
ffffd07e
ffffea63
ffffc4c0
fffffe4f
fffff9d9
fffff783
ffffe1d6
fffff5d7
ffffd3fc
00000437
fffffc53
00001ef8
0000073c
00001f8e
fffff88a
ffffe7c5
fffff63c
ffffd5fe
00000e53
00002d0a
000019b7
fffff90a
00002a7c
00003943
00000f6a
ffffe78a
00001592
ffffe7b7
fffff28e
fffffab3
ffffd249
ffffe953
ffffd43c
ffffdf13
fffff709
00001040
ffffd9fa
0000036f
00001c30
ffffd539
ffffe168
ffffef1f
000004f9
00000f89
00001e87
00002937
00001e74
0000133f
000015b0
000005dc
00003cbe
00000a81
0000214a
0000090d
0000193a
000036d2
fffffcb7
fffffc96
00001599
ffffff02
ffffefe3
000010a5
00000ec5
ffffc93f
fffffbe7
ffffe92f
fffff016
ffffda2a
0000123c
ffffeffa
fffff065
fffff3b6
000017af
ffffe8bb
ffffe5a0
00003a74
fffff863
00003810
00003846
0000328f
0000308e
00001e0c
0000349d
00002eff
000028a3
ffffeda5
000017f9
ffffeaaa
ffffdc68
00000712
0000069c
ffffe0a4
ffffe85d
fffffa68
00002e10
00000863
fffff92f
0000265b
fffff87c
ffffdfdb
000008bc
ffffef03
00002172
00002cae
fffff956
00002b7b
ffffebd3
0000361e
fffffee0
00001f1c
fffffcd7
00000c83
ffffdef7
fffff316
ffffe5ce
ffffffa5
ffffed80
fffff91f
00002802
ffffdd19
ffffe6b9
000018f9
000010fb
00002080
00001db9
000001ed
00001290
fffffdb2
00002986
00000c66
ffffe671
fffff6bb
fffffb37
000001a1
000010c7
00002658
00001788
000015c3
0000217a
00003b4f
0000296e
fffffa29
00001efe
00002bf9
0000264e
00002f32
00002171
000008fd
00001890
00003333
00001a13
000004fb
fffffbdf
00000e83
000026f9
fffffd5c
ffffde4b
00000bbe
ffffe202
fffff544
00001b18
fffffc6e
00002e62
00001d5d
00001e2b
000023fd
fffff491
00002d4b
000010a0
00001adf
0000325c
000008bb
00005056
fffffe93
ffffe853
000028b8
00001029
00002f32
fffffda3
0000052c
fffff6c6
ffffe398
ffffea24
0000283c
00000324
ffffeebf
fffff463
ffffffc2
00000f39
fffffca2
000014bf
00000c89
000013d8
00000409
00003047
0000140c
000011e3
ffffd5a9
ffffd8f4
ffffecdf
000030ac
00002307
00002333
000006fc
00001a57
00001fae
ffffddbe
ffffd173
ffffd8f4
fffff42a
ffffda24
00000217
00000b48
0000273a
00001e95
00001e56
00000fef
000020c3
ffffe183
ffffee6e
ffffda81
00000af7
00002f63
fffff427
ffffcfb7
ffffd127
ffffe5f9
ffffa3c0
ffffdf73
fffff399
ffffefc1
00000ba3
00001791
00001e23
ffffe4fb
00000b75
0000226c
00000f68
000008ea
00001a99
ffffed42
00001328
ffffdfa9
000013bc
00000638
ffffdd19
fffff2db
00000a7b
ffffda5d
ffffda95
ffffd04d
ffffc905
ffffe571
ffff9d10
ffff9ff7
ffffd0b8
fffffba4
00001019
0000279a
00000cf4
00001ea8
fffff6b6
fffff517
00002695
000012ae
0000057e
00001277
00001dab
fffffeed
00001b8d
ffffe9aa
0000090b
fffffe69
00001a42
00000886
00001367
000008e8
00000a2f
ffffe185
ffffb638
ffffcb80
ffffb555
ffffa912
ffffcc13
ffffdff1
000024ee
00001e5d
00001495
0000294e
00000976
000014db
ffffdf55
0000064f
00001238
00000d26
00000e79
00001322
ffffe90e
000021ae
00001321
00001c73
ffffcf07
00000d0e
ffffd241
0000072e
ffffac7b
ffffefbe
ffffe54e
ffffcd23
ffffa715
ffffe1e4
fffff78c
0000328b
00004a72
00001241
00001f05
ffffefe0
fffffeb4
ffffe82f
00001805
0000109e
000013d4
000002ab
00002565
ffffee41
00001351
ffffdbbd
ffffeeee
fffffd75
fffff70b
fffffe50
00001426
00001169
fffff6ce
ffffa991
ffffdabe
ffff8f3d
fffff78c
000004d1
fffffecc
000020cd
00003160
000002ca
ffffd9a7
00000590
fffff7c6
00000b03
fffff060
000004c6
fffff413
ffffdfd9
ffffe636
ffffd79f
000004c9
ffffdd22
ffffea99
00001193
ffffcd03
fffffb2d
000006ce
ffffd8db
ffffe9bd
fffff1f0
ffffb3ed
ffffb24f
ffffb905
fffff1e2
0000307e
ffffeda9
000029f4
00000a87
00001aaf
fffffc50
fffff3fd
ffffcdc5
ffffc4a4
00000d46
ffffe790
fffffceb
fffffbed
00002763
00000195
ffffed30
ffffd675
ffffeb89
fffffaae
000007fd
ffffd3be
ffffe5c1
ffffcce4
ffffab31
ffffd87c
ffffd8da
fffff786
ffffef2a
00000bd6
00001dee
00000dbf
fffffcfa
ffffcba1
ffffe24b
ffffb00f
ffffcb9f
ffffc72e
fffff3b9
000002b0
00000feb
00000a6e
00000127
ffffe776
00001957
ffffda2f
ffffe09b
00000a06
ffffcb4d
ffffffad
ffffcbb2
ffffbf4b
ffffbf27
ffffca02
ffffc2f7
00000415
000004d2
000021cd
00001b46
ffffe2c1
00000d72
fffff864
fffff5bc
ffffde91
00000b57
000019c0
fffff43f
fffffb31
ffffe414
ffffe70f
00002714
00001dfe
00000c87
ffffea49
ffffe8c7
000005c2
ffffeb10
ffffe1ed
ffffef36
fffff2c7
00000efb
ffffec0f
ffffd759
0000050a
00002ba9
0000219b
000005bb
000012f1
00001875
fffff131
ffffcaf9
fffff071
fffffffb
ffffd98a
000001b2
000018e0
fffff5b9
ffffeb0e
ffffe4ba
000013d7
ffffeb87
ffffdd6f
000001a8
ffffe9eb
ffffebea
00000d3d
0000156c
ffffcc42
ffffddc5
ffffd60d
00001798
ffffe1ee
00003f24
fffffa20
00003b82
00000bb2
000012b5
000005d9
fffff672
fffffc02
ffffe17f
ffffeb8a
000000b4
00000c0d
000024ce
ffffe132
ffffe74a
ffffe835
fffff9a1
ffffe847
00001991
ffffdcd6
000011a3
0000184b
ffffe021
ffffdca8
ffffce54
ffffdd0e
fffffc0c
000028b1
00001fbc
00000643
00004238
00004072
00002148
fffff911
00000c1f
00001806
00001419
ffffe3fd
ffffff1f
ffffd957
fffffba5
000004c2
ffffdb48
00001052
00001c9e
ffffe195
00000295
fffffb2b
ffffdb24
000020e9
ffffeb12
ffffd2e4
00001348
fffff367
00002191
00002fbe
000035d1
00003d83
000011ca
0000031f
00001b49
00000dfb
00001abd
00001838
00002037
ffffeae0
ffffdf37
0000236e
ffffda34
00001b6f
000028e7
00002a87
000025e8
0000246c
000025a0
0000123f
ffffd785
000022e5
000017b3
fffff63e
ffffecab
0000154b
fffffcd6
0000062b
00001ecd
00003246
0000019c
00002897
fffff0a6
00000c03
00001114
00001c03
00001e57
00000ff7
00000b6e
00002051
fffffa70
ffffe81a
00001bc8
00000d14
00001b94
fffff4db
ffffe93f
00001374
0000118c
00002b68
00002af8
000018bd
00001653
ffffefbe
00001408
00001568
00001b4b
000006f9
ffffe2b2
00002884
fffff733
ffffef18
00000bdc
00001c47
fffff905
fffffbd3
00000bb0
ffffd66e
00001899
ffffdfc9
00001a11
00002428
000013b9
ffffd6d2
fffffdb8
ffffde11
ffffe398
ffffdd67
00001b08
fffff017
00001453
00002168
ffffe5f8
ffffe14b
00000612
ffffdb0e
fffff3eb
000021b2
fffffd31
00001d9f
00000d43
00002158
fffff229
00001831
ffffd945
00000475
000010fb
fffff8f5
ffffdfd2
ffffda6c
0000035f
ffffef23
fffff233
000022d8
fffff7d0
00002ade
ffffecb2
000027ca
ffffff97
ffffec53
ffffde91
000029a0
ffffedb7
ffffe6b5
ffffffe6
ffffe267
ffffd817
000015c6
fffff9e9
fffff9a2
ffffec1a
fffff54b
fffff15f
ffffe0e0
ffffe7d5
ffffd4f0
000024c6
ffffe85a
fffff75c
0000029e
00001998
ffffda71
ffffdcb7
ffffe211
ffffea8b
fffff61a
00001fb0
00001a64
ffffd74a
fffff223
00002732
00001377
ffffe80e
fffffe33
0000042a
000003dd
ffffecc2
ffffeac1
ffffde4b
00000b5c
fffff91e
fffff0b9
ffffeb13
ffffec21
00001579
0000086f
fffff9f5
fffff2af
ffffd9af
fffff2d5
ffffe9db
ffffe8f9
0000137e
fffff9b5
00001946
00002372
ffffd5c7
fffff75a
ffffea14
000024b0
fffffec9
fffff278
ffffeeb6
0000276f
fffff09e
00000121
fffff5fc
ffffeb53
ffffff5f
00002185
0000009a
fffffb54
0000196d
ffffecd5
00000065
ffffe098
ffffed09
000012ca
ffffdca7
00002b5c
ffffe8d6
00002b45
fffff6f4
000025a7
ffffe2f1
fffff079
ffffe32a
ffffde23
fffff391
00000f41
00000494
0000149d
ffffdb33
00000cdf
00001b70
00000f90
00002adb
ffffeb3a
000021d8
ffffd8f6
00000208
00002ac7
fffff811
000018eb
00002948
00000e2b
ffffef6d
00000429
ffffdc56
0000028f
ffffe3d0
ffffe4f9
ffffe70e
00001302
000001ce
00000205
00000fa3
00000f77
0000021a
ffffdbf2
000020a6
00003227
000017ec
ffffe410
00001a57
ffffdd30
fffff73f
fffffb72
0000060a
ffffd98d
000002bb
000020ab
ffffde17
000026b0
ffffe44a
ffffec87
00000033
000001b6
00001055
ffffe254
00000256
00002fc4
ffffea6b
fffff998
000009b3
00000062
ffffff6e
fffffb9b
ffffec9a
00000727
0000183a
00001226
fffffa77
000020cf
00000000
00002148
fffffa5c
00000251
fffff910
000008c1
00000e6a
ffffe1c1
ffffedd8
00002c0f
00001a7d
ffffe285
ffffe08d
00000598
00002c07
000012b8
00000785
00001da5
fffffb8b
ffffec14
000010f3
ffffe0f0
ffffe9e4
0000029c
00000f70
00000cbd
00000b66
000024df
000020bf
00000c6b
000016de
0000001e
ffffd8cc
00001d87
0000016a
00002bee
ffffec1b
000004e3
ffffea83
ffffe95d
000010a7
00001e79
fffff5a1
ffffeed4
00000f52
ffffdb5a
00001068
ffffe29b
00000863
fffff76e
00001ff0
ffffd676
0000011d
0000171d
000025bc
00001af2
ffffdccd
000019af
00001636
ffffe6bf
ffffdb9f
ffffe86b
ffffff91
00000c25
fffffc84
ffffe7b0
fffff58e
ffffe162
00000495
000003ca
00002701
00001e21
ffffda53
00001002
00000609
ffffed44
00000f5f
ffffeb04
ffffd822
ffffdf72
000004cf
ffffe57e
ffffd28c
00000aa8
fffff729
0000146c
0000012a
ffffdca3
ffffe6fb
fffff616
ffffe0aa
fffffd7e
00002b5d
00001f6e
000007fa
ffffdbba
ffffe463
fffffec4
0000238e
00001189
000005ea
0000022f
00000e37
0000101a
00002cfc
00001825
00002c0c
00000654
00002595
ffffdb26
00001a15
00002213
00001b88
ffffdb70
ffffd698
ffffdc21
0000036b
ffffeebc
fffffccd
ffffed07
00001902
0000025c
00001540
ffffeefb
ffffddb0
000027df
ffffed77
000014db
ffffb8e8
ffffc064
ffffcaff
ffffd9c6
0000117c
0000360b
000011a7
0000301c
00001c2b
00000f9c
fffffc4b
00001e19
fffff61e
000011d9
0000212a
fffff947
00002744
fffff1b4
00000f6a
000006b2
ffffe040
fffff76b
ffffdfae
fffff558
00001793
ffffcddf
fffff6d1
ffffbed5
fffffb53
ffffe6f6
ffffe57e
00000b14
ffffe6c2
fffffd27
fffff74b
ffffef12
ffffe8ad
00001294
000015e7
ffffe9c4
ffffefb7
00000f8c
fffff74f
fffffd05
00002579
ffffdcfd
fffff967
ffffe10c
ffffeff3
00002144
00001d42
fffff87e
ffffcc02
ffffebb3
ffffe8af
ffffe612
ffffd491
ffffdb2a
ffffd651
ffffdbf1
00001457
fffff67f
000001f7
00001ee8
ffffd926
fffff88f
00001fb2
ffffe670
ffffe04c
00002726
ffffd7d8
fffff365
ffffe44f
ffffff65
ffffd9c2
0000218e
fffff349
ffffed9a
ffffd3e0
ffffeb9d
fffffdcf
fffff99c
ffffdebe
ffffd0d4
00000911
ffffe215
ffffcb92
00000570
fffff552
0000001a
0000040f
000005af
fffff6d6
00000b61
ffffeaf9
ffffe1fb
00001fff
00001fc0
000009c4
00001712
fffff56f
ffffece0
00001bee
0000065e
ffffe8b1
ffffe2ab
ffffdbdc
00001061
ffffd77d
ffffd28e
000028c9
ffffec31
00001e0f
ffffca41
ffffd175
fffff769
000010e4
00000362
00002741
00002a1f
00000592
ffffe579
00001f3f
0000294e
00001e51
0000257e
000005ab
00000236
00000607
00001e81
ffffe5ec
ffffe5cb
ffffd7f9
ffffd7e7
ffffdda2
fffff3cb
00000aea
00002485
fffff066
000028c3
fffffcf7
fffff831
0000034e
00000620
00002ea1
000029f5
fffffb59
fffffe46
ffffec63
ffffe3d1
00002974
00000230
00002975
00002375
fffff86c
ffffee7a
ffffdbbd
00000319
fffff5bb
000000b2
00000406
00000321
000027e4
00002725
0000375d
fffff118
000022ae
00000646
ffffe745
00001415
ffffdf41
00001c60
000004e5
000001fa
ffffefed
ffffeab4
000007bc
fffff81f
fffff6d4
fffff4e4
00001bd0
00001f0f
00002936
00000278
000004e1
fffff8c9
ffffd648
0000141c
fffff6be
ffffe262
00001338
fffffa92
ffffecb5
fffff88e
ffffdde0
ffffbe4c
fffff75b
ffffd33f
00001ace
00001684
0000127b
0000084a
00000669
000011dc
fffff068
000017ba
00002a02
ffffd893
ffffdef7
0000225e
ffffd63d
ffffdf6a
00001a70
0000134d
ffffe973
ffffeb6d
000015fc
fffff84e
000029bf
000012ee
ffffe010
000007e4
fffff352
00000503
fffff148
fffff3a3
00003cf9
fffff583
00000aa9
00002a52
ffffe2c0
ffffd1d3
fffffe27
ffffda64
ffffd4d2
000001a5
fffffe58
00002214
fffff899
0000121e
ffffdc81
ffffec6b
00001390
ffffe6c4
00001aa8
ffffdde7
00002612
00001320
ffffe8de
00000bf6
ffffdc5b
fffffc66
00000c9b
000011ee
fffff969
00003012
ffffd497
ffffdf61
000009f5
fffff5cc
fffff29f
fffff38a
00001d96
0000077e
00000629
ffffe65d
00002972
000002a6
0000055f
000024c3
ffffe6ba
fffffd9a
00000cfb
00000372
0000173b
ffffde60
ffffdeab
00000a50
fffff8af
00000a43
000005d7
0000075e
000022f0
000021bd
fffff0d0
ffffe2bf
000012ba
ffffe6e1
00002553
ffffdc95
fffffafb
00000f3e
fffff0ef
0000095d
00000645
00000f95
00002458
ffffdf6c
000025c1
ffffece8
ffffe73e
ffffeb77
00001aa0
000012fb
00001c0d
00002551
00001831
0000175c
fffff2b2
00000faa
ffffec52
000019f4
00001473
0000267b
000002db
00001d80
00002acc
0000123f
00001400
ffffd666
000011ef
ffffe044
00000cdc
ffffe1e1
ffffe462
00001c67
ffffe0f1
ffffebb4
ffffecfe
00001bee
ffffff52
00000298
fffff133
fffff865
00002b99
000026aa
00000cb3
00003109
000000b8
fffff4d7
fffff6df
ffffefb3
ffffee7e
00000bbb
fffff097
00000369
000006c6
0000042a
ffffdc47
00001f61
00002697
fffff12d
fffffd08
00000ee5
fffff247
fffff248
ffffea46
00000f0b
fffff14b
000005a2
000003b5
ffffe29e
ffffd78a
00001e66
000015cc
000020b4
ffffec73
fffff9f5
fffffaf5
00002607
ffffe510
fffffe02
00000f68
ffffecd3
000028bc
ffffe146
00002aca
000010a5
00000178
ffffffa9
00001100
fffff97a
000022d0
00001861
ffffd63a
00001a51
ffffe4ff
fffff7c6
fffff7dc
fffffb47
fffff284
ffffff5e
00001efd
fffffba6
ffffdd9c
ffffda1f
00000df2
00001127
000027ef
00001f6b
fffff235
00002796
fffff457
000020e1
0000281b
fffffecc
000019d7
000000ce
fffff157
ffffef0a
00001e4d
00002432
fffffc9f
ffffd7ff
00001ef5
00000413
000021d4
fffff496
fffff797
ffffe697
00000212
000006c7
00002087
00000742
fffffbc0
00000f37
00000b27
0000024d
fffff18e
00001a08
fffffff5
ffffe8d9
00000fae
00001c15
fffff3ab
00001322
ffffed0c
00002592
ffffee31
0000052a
fffff1f1
ffffee0e
ffffeb7d
00001ef0
0000060e
00001443
0000250c
fffff050
fffff32b
ffffe5b8
ffffe623
ffffda3e
fffff39f
00001d76
000008d4
fffff40a
fffffbee
ffffe4bb
ffffe93b
00002a26
000015c0
ffffe087
000004b7
fffffc74
ffffee74
ffffd7ac
00001a82
00002603
00000429
00001de7
ffffd715
000002ca
fffff797
00000bc3
00001532
000003b7
000010d5
000026cb
fffff16e
00001e8d
ffffd5f8
0000106e
00000e92
fffffb3d
000007be
000024c1
00001f92
00000b41
0000133e
ffffe9d7
ffffe2aa
00002a42
0000098c
ffffdfb5
00001c9c
00001447
fffffb37
ffffd981
fffffef9
fffff7d9
ffffdbce
fffff15c
ffffeb66
0000258e
0000124b
ffffdc65
ffffe4cb
00000c3d
0000271f
00001b1e
00000c57
00001003
00000eb9
0000118d
ffffe954
00001218
fffff0b4
000003b9
ffffdbd6
000024bf
00000be5
00001eb4
00001776
00001bad
fffffa0e
ffffec64
00000dc2
fffff120
0000178b
00000275
00002a86
000019c0
ffffff4b
ffffe873
fffffcd6
00001302
00001f06
000003c0
fffff0f4
00000ee9
0000040b
fffffb50
00001045
fffff2c6
000003fb
fffff0cd
0000272c
000029b9
ffffed7f
ffffe99d
00002073
00000ea1
000022bf
00002761
fffffab0
000027ff
fffff910
00002a9e
00002540
000010e7
fffff45d
00002106
00002c58
00002fc2
ffffe399
fffff3f1
000015a4
ffffd88d
ffffda14
ffffdb2d
000011e1
00001fda
fffffedd
00001755
fffff625
00001bb6
00000329
00001d15
fffff6b0
fffff3b5
ffffef4c
00001a6b
ffffe413
00000b60
fffffb1d
ffffd8d4
00001b8d
0000024b
fffff343
ffffdf8f
ffffe7b9
000004b4
fffff2a4
ffffe330
000007b0
ffffeed5
00000805
00001d4f
ffffe2bd
ffffe23b
0000099c
ffffd984
ffffea7f
fffff503
00001ac7
fffff105
ffffdd29
000006de
0000193b
ffffea86
00003442
00002191
00001579
ffffe725
ffffeb79
00002477
ffffd66e
000027af
ffffe6a6
ffffe064
00000ca5
ffffcd84
ffffc101
ffffeb1b
ffffcc6c
ffffd6a2
ffffe5c2
0000083a
fffff236
00001c91
ffffe801
0000211a
0000171f
fffff141
ffffff39
ffffec28
fffffd22
fffffa2a
ffffdac6
fffff2fc
00001e3a
ffffe4f1
fffffcc6
ffffe419
00001be5
00001e73
00001497
ffffdfa0
fffffbdf
fffff27d
ffffc5cf
ffffc642
ffffed92
ffffe386
00001846
000000d2
ffffe59d
00001a24
00001418
ffffdffe
fffffcd8
ffffe338
00001f26
00001976
00001da0
fffffc70
000006ad
00001c63
000001e0
00002f5f
00002dc4
fffffb64
000005e7
00003321
000008e7
fffffb07
ffffdd40
fffff0fe
fffff662
ffffc3ef
ffffdbdb
ffffbd88
ffffde77
ffffe5d9
00002167
ffffdc65
000021c8
fffffbd8
000011d7
000029e1
ffffda82
00002730
ffffda57
fffff541
ffffef12
000017aa
ffffe241
ffffecea
ffffec45
000015ff
00001e59
ffffeef4
ffffe661
ffffd722
00001c5f
00000605
00001262
ffffd144
ffffc70b
fffffe2c
fffff5ca
ffffead1
000025a2
ffffef8d
00001673
fffff257
ffffd525
00001478
ffffd72b
fffffbbf
ffffd873
ffffed71
ffffda04
00001c06
ffffebb3
00000a55
00000a66
0000277a
ffffe388
ffffdc1c
0000049e
ffffd9f7
00000877
00001fb6
ffffd508
ffffc5b3
fffff6d3
ffffd3c3
ffffe024
ffffccc9
ffffea90
ffffda78
00001ba6
ffffdf3d
00000dea
ffffdc5f
ffffee40
00002800
00000fa2
000020a7
000003ff
fffff912
fffffced
00003d67
fffff8f7
000029fa
ffffeff5
fffff6ca
ffffd197
ffffe5af
00001cc3
0000319d
ffffe092
0000090f
ffffd87a
ffffd0f9
fffff3bc
ffffe817
000022d7
0000129e
ffffe64b
000015aa
ffffe27d
000004cf
00001247
00001a7d
00002b8b
00000936
ffffea1e
ffffe9e2
00000f81
00002896
ffffe8ef
00001b3c
00000eaa
0000061f
ffffed1f
ffffeddb
00003600
000002c1
ffffe623
ffffcc2f
fffff0f6
fffff41d
0000042a
ffffd362
fffff877
fffff967
000013bb
00002b0a
fffffdbe
ffffe75d
ffffd571
ffffe5f6
00002832
0000028b
ffffda42
fffff1bf
00003813
00000f66
ffffe94f
ffffd997
fffffaac
ffffca4b
fffffe8d
00003110
00004de8
00003a63
000003ab
000014e9
ffffe8c7
0000053c
000001ff
ffffe07e
ffffe5a0
0000237f
fffffec3
ffffe9c2
ffffeccd
fffffab5
00001984
ffffea62
ffffeea5
00000bd2
fffff776
fffff992
000020b0
ffffe039
fffff7ba
00000720
00000e05
ffffc7c6
fffff4e9
000044e0
000043d3
000025e0
ffffdde7
000008d0
ffffe927
ffffe40c
ffffee88
fffff646
0000097d
fffff385
ffffd6d1
ffffd595
00001cf4
ffffd8a6
fffff7c6
00001069
000017a0
fffff62d
ffffd71b
ffffdb0c
00000cc1
000014b5
fffff5ac
000012f0
ffffc8a0
ffffec3a
fffff20f
00000b1a
00003541
00001953
00002890
000010b8
ffffeb72
fffffafa
00001d6e
ffffe4be
000015b3
ffffe514
fffffc2d
ffffe0ba
fffffe72
ffffe64e
fffffca1
000011d4
ffffe30d
ffffcb35
ffffc6c7
fffffcfb
00001306
fffffa66
0000226a
ffffe5d2
ffffef88
fffff5c9
00002e92
0000131c
00002194
00000561
00003149
ffffee24
00000c1f
00000662
ffffe0b0
00000a9b
ffffe8e1
000016e0
ffffe5bf
000025ea
00001ea6
00001003
ffffe725
00001676
ffffff32
fffff0f4
ffffca37
ffffe54d
00002cb3
00004217
ffffd915
0000198f
ffffef4a
00002cca
00003728
ffffe4e9
00002c9d
00000cec
00000409
ffffe5b9
00000b01
000016a8
ffffe362
000019f2
ffffe74e
00001d1a
ffffe0c1
000015a0
000020dc
ffffdc6b
ffffd2cd
000019bc
fffff100
ffffba4f
fffff408
fffff8b3
ffffed19
0000466c
ffffeef6
000017ad
fffffb18
00001f66
00000c1f
fffff09a
ffffe1b6
fffff86f
ffffe81f
fffffa58
00000bb9
ffffe86c
000006e1
ffffe548
fffffd51
00001384
0000280a
ffffe761
fffffda6
00000a8e
fffff27e
ffffd589
ffffd9cc
ffffe580
fffff1c6
ffffb24d
ffffd63c
000019d7
00005023
00002518
0000078a
00002058
00000acf
000021b5
ffffe68c
00001ad8
ffffd7f9
0000048d
00001ef2
00000277
ffffe107
fffff400
00001aae
fffff844
00001c23
0000038d
00002182
ffffe994
ffffe706
ffffdb29
ffffeaf6
00000660
ffffc63b
ffffbde0
00000e34
000045f8
00005fd7
000053fe
00001f71
000014b7
ffffef68
fffff18c
ffffed0d
00001bbf
fffff93d
000011aa
ffffebe6
00002a8b
00000b3b
00002a84
ffffeb88
000005cc
ffffdc56
00001dce
00001842
00000351
ffffd0c4
fffffc58
fffffc12
ffffd566
ffffbea8
ffffd6ef
00000607
000030f9
000003c8
00000aa3
00002415
0000199e
ffffeb84
ffffffae
fffff4b2
fffff039
00000a8f
fffffc3d
000014d8
fffffff2
00000173
ffffd466
000020ea
ffffede7
00000742
0000130e
00001356
00000d67
fffffc09
00001258
fffffa14
000002e5
ffffd7c6
ffffd1d8
ffffffed
ffffe577
00001e57
00001914
ffffff3c
000014fb
ffffe6e6
ffffe54c
ffffeef8
ffffeaa1
ffffd7bc
000021dd
ffffdcfa
00002c77
000018f6
ffffeac4
000017e6
0000101e
00000efe
00001aed
00001520
00000b57
00001bd9
000013d2
ffffc023
fffffa01
fffffc79
ffffea2e
ffffce7e
ffffcece
0000124d
ffffeaba
00000c05
00000b62
ffffdfb4
00001d35
fffffee6
00002e4e
00002171
ffffd4a2
00001924
ffffd8bd
000013f1
ffffe347
00001d7b
00000b0a
000006de
0000059a
00000c23
00001bdc
ffffee70
00001b00
fffffc89
ffffd7be
ffffd23a
ffffd6d9
00000d33
ffffe93c
ffffe4aa
00001aa8
fffff62d
ffffe5f6
000023c7
ffffe2ad
fffff3e3
000036c2
00000f9f
ffffe1be
fffff8b2
fffffb97
ffffd769
00002852
000002b5
00002222
000023e2
ffffe10f
00002085
ffffecba
fffff98c
00000032
000011d9
fffff19f
ffffb86e
fffffd85
ffffca07
ffffddb4
fffffe49
ffffe529
fffff34e
00001c24
00002a6a
ffffecd2
ffffec55
00000732
000024b5
0000159a
fffffb02
ffffefd0
ffffdda3
000029f7
0000039b
000001e1
0000237a
fffffd28
ffffdcc2
000001b9
ffffee6a
fffffc9b
000016bd
ffffd725
00000a2b
ffffed04
ffffdde7
00000b34
00000735
0000031c
fffff9ac
000018f2
ffffee51
000003a3
00000f3e
00001a32
000009d5
ffffe1c3
0000228e
ffffde27
ffffeac8
000027a0
ffffd786
fffff603
ffffed10
000000fc
fffff3dc
ffffdea9
00000113
ffffe3fa
fffff6b4
fffffd6e
fffff98f
ffffe60a
ffffe119
ffffd751
ffffff1d
00000d30
ffffebdf
00001739
00001523
fffff770
00002932
ffffd9b5
fffff33f
fffff793
ffffe7f3
ffffda5e
000015b7
00002842
0000232c
ffffef24
0000265e
fffff0d9
000001d7
000017cf
00001376
ffffed30
000026c6
00002319
00000e09
00000765
ffffe8be
00001004
00001832
00002663
ffffdb14
ffffee36
00000127
ffffec12
0000186a
00001e53
ffffebe2
00000c5b
ffffd70b
ffffe619
00002958
00000a30
00001c09
00001418
00000a83
fffff7e5
ffffdbaf
ffffdade
00000bb3
ffffd587
00000eac
fffffdfd
00000558
ffffeb9f
00002a84
00001b5c
ffffe5a5
00000a83
ffffda53
00000a3f
000013dc
fffff088
ffffe399
000014a8
ffffd50a
00000570
00000a54
ffffee4e
fffff21f
00001692
0000083f
fffffdb4
ffffe3b3
00001c23
fffff78d
00000007
00001aac
ffffdb64
ffffe244
ffffe1ba
00002266
fffff2be
00002a8f
ffffe875
ffffe243
000023a7
ffffe7a6
000009dc
00002088
00000656
ffffd572
fffff9d9
ffffdff3
fffff58e
fffff866
0000060c
00000c80
ffffd5cd
0000167c
00001a7c
000004cd
fffff8dc
fffff0a2
0000227d
00002915
00002a25
000019f9
ffffe100
fffffbfa
ffffeec5
fffff03a
ffffe845
fffff19c
ffffddb0
ffffe155
00001d25
ffffeeb7
fffff659
fffffb87
ffffed34
ffffe32b
00001e89
ffffd6de
ffffefe3
ffffdaa2
00001c36
fffff0fb
ffffdcfe
ffffe521
fffff6bd
00001520
00002b03
ffffffa7
fffffb6a
ffffe6e4
ffffee31
fffff2c4
00001446
00000df0
ffffef3b
00000fd9
00000cd9
fffffdb2
fffffb27
ffffd152
00001e84
ffffef96
00000189
ffffdd55
ffffeed8
00000820
00000776
000025e4
ffffd878
000009a3
ffffe5fa
ffffe414
ffffe3e8
fffff41c
ffffe1a5
ffffdad1
0000029d
fffff643
000026a2
fffff933
ffffeb45
ffffeff8
000009aa
000012ea
00001e51
ffffff20
ffffee2a
00000dcf
ffffe14b
fffffe93
00001af5
ffffd2b9
ffffe18e
ffffe924
00001f64
ffffe9f4
ffffd4c9
fffffccc
000029a7
00001455
0000154f
ffffd9bd
00000d1b
ffffd597
ffffde67
00002782
00001de8
00001c50
ffffd9a5
ffffda45
000006d2
ffffd138
fffff75e
00000cf2
fffff3ea
ffffd254
ffffdf1c
ffffe416
fffff070
00000bbb
ffffce6a
ffffe89e
fffffd23
ffffe137
ffffdbe3
0000093c
000014b7
ffffddb8
fffffe79
fffffc6d
00001ccb
00001a92
00001b54
000010fc
ffffe648
fffff5cf
ffffef7e
ffffe27d
ffffcc06
ffffdaa7
ffffbd56
fffff4d4
fffff648
000003e2
ffffb701
ffffcec2
ffffea01
ffffc78a
0000110a
ffffd658
000016a0
fffff4c7
ffffdfcf
ffffe729
ffffee92
000018a7
00001465
00002080
fffff3bb
00002b25
ffffdc37
ffffec34
00000bb8
fffffe9c
ffffe042
ffffd2e2
000006df
ffffe31f
fffffefb
ffffe4e3
ffffe72d
00001498
ffffcb92
ffffc673
0000089f
ffffdb8c
ffffeb36
ffffd00f
ffffe944
fffffbf1
ffffd757
fffffb78
fffff16d
fffff336
ffffd9b5
00000cd7
ffffde2b
ffffe6ab
00002d55
ffffddc5
fffffd74
0000259b
ffffeb14
00000f03
ffffd4a2
ffffd5d8
000009a7
00001ce7
00001fa6
fffff2cc
00000d7b
fffff5ca
ffffd900
fffffcd2
00002117
ffffe389
fffff3be
ffffdb2d
00001246
ffffed58
00002719
00001e04
000020e4
fffffd70
00000b67
ffffe785
00001b67
ffffe0bc
00002923
0000160e
ffffe027
00001603
00001681
ffffeabf
fffff7fe
fffff2b6
00003811
fffff6a6
00000d41
00000b4c
0000164e
00002240
ffffda07
fffffb77
ffffff07
ffffe37e
fffff6ce
ffffe7a0
ffffe3c0
ffffd864
ffffdce0
0000038a
00000b80
00001194
0000014d
ffffe6bd
00002bf5
00001923
00000c2c
ffffdf57
000004d9
00000b10
ffffe40d
00000905
00001377
00000100
000010d2
000028dc
fffff34c
fffff187
ffffd961
00000695
ffffe8cc
00001589
ffffe56a
00000032
00000c78
ffffddbc
00000bf1
00000910
ffffd896
00002adc
0000074f
ffffeddf
000021f5
00000b96
fffff337
fffff7ac
ffffe65c
00000bca
ffffec21
ffffd005
fffff076
fffffc2f
000021ff
fffff3db
0000130f
00000b2d
fffff550
fffff1bf
0000008b
ffffd89e
ffffea33
00000400
ffffde8e
ffffe9be
fffffb6f
00001690
00002a34
ffffd684
00002277
ffffe85b
00001188
ffffd5a0
ffffe7da
ffffc7b9
ffffd0ec
ffffd4e0
ffffb593
ffffd9d4
ffffd0a2
fffff40b
ffffea33
00001e3e
0000186c
ffffd790
00001026
ffffcc3a
ffffef74
ffffd7f8
00001473
fffff054
00000b12
000018a4
00002269
00001d20
00001c41
ffffdf97
00002735
fffff35f
ffffd7cd
ffffcc33
fffff55e
ffffe59d
ffffb9a2
fffff983
0000054e
fffff7a6
fffff400
ffffdf30
ffffdfe4
fffffea0
00001b69
ffffe704
000005db
ffffd025
000002dd
00000dbd
000029a0
ffffe377
fffff7f8
ffffff09
000002cd
ffffefc6
ffffe3fb
0000177a
000023f6
ffffeadf
ffffdebe
fffff8c7
ffffe2f9
ffffd7b2
ffffb0f0
ffffabb8
ffffcfff
ffffeaac
00000904
ffffcccc
0000076f
ffffdb23
ffffea82
ffffe018
ffffdf73
fffffd82
00001ef7
00000e35
ffffd852
ffffe13c
00001044
00002aaa
00000756
ffffd67c
ffffe8cf
00000909
fffff6a5
00000cf5
ffffc4cf
ffffc696
ffffdb00
ffffaf31
ffffe181
fffff030
000006b1
ffffdf01
00000e6b
000018e6
fffffdcd
000002aa
ffffd5fd
ffffd28b
00000f6f
ffffceee
000005fa
00000fb8
ffffe6f5
00002156
ffffe793
00000101
0000141a
ffffe18a
ffffeb4c
0000110c
00000a28
ffffeab6
0000021a
ffffc05f
ffffbb5e
ffffb811
ffffe367
ffffd42d
000005d9
0000108d
00000eae
ffffdf87
ffffe888
ffffddeb
000003f9
ffffcbf5
0000041b
000019c1
00000ef5
ffffdafc
ffffdce4
fffff9c4
fffffbe7
00000c69
00000235
fffff944
00001963
00001b10
00001925
00000183
000000df
ffffcb2e
ffffdd46
ffffdf79
ffffbdfd
ffffdcba
fffffc52
ffffeff9
ffffe5e0
fffffd86
000013d8
fffff9b0
ffffe31a
ffffd44f
ffffd656
00001523
fffff394
ffffd5cd
00000735
00002726
fffffeaf
ffffe6c2
000012fc
fffffb23
000007c7
ffffd42c
ffffdbe1
ffffd9ff
00000f58
00000f3e
ffffd1ca
ffffbe83
00000005
fffffd8c
ffffd143
000021fd
fffff0be
000009e4
ffffc629
00000988
00000bff
ffffebf2
ffffdfdc
00000aad
ffffe015
0000059e
00001150
00000a8e
0000229f
ffffe862
ffffee89
ffffe8ad
fffffbfd
00001b68
00000cba
ffffd513
00000ba7
00000cad
ffffdcb8
ffffc063
ffffc51a
ffffe4d9
00001e1e
000015fb
ffffe6f2
fffff34b
ffffdcd9
ffffe02a
ffffe613
ffffd7dd
ffffeb79
ffffe637
fffff2af
ffffdba9
00000266
ffffec53
000002ee
0000289d
ffffe12c
000002ec
00001517
000003df
ffffe3ae
ffffdc41
ffffdcf6
fffff15f
ffffd808
ffffc2ca
ffffc6bd
ffffd922
fffff33a
ffffcc5f
000004d5
ffffd6c4
ffffd0c3
fffff410
ffffe128
00001823
000018db
ffffe5b9
00001cd7
00001998
ffffd65d
ffffea38
00000b64
ffffe0df
00002437
ffffe43a
ffffe6c4
ffffecd2
00001397
ffffedf3
ffffd190
ffffc1cd
fffffbd1
0000030c
fffffe64
ffffdbc1
fffff515
ffffdf59
ffffd0d1
ffffc136
0000042b
fffff320
000001a9
00001ee7
ffffd80d
fffff9bb
fffffb87
00001f4b
fffff9c4
0000207a
0000164e
ffffea3e
fffff7a7
0000250a
ffffd572
ffffdd0c
fffffcd0
0000275c
0000123c
000001d2
00000446
00000d05
000012d2
ffffcd6e
fffff322
ffffdce9
ffffbbbd
ffffccbf
000010a9
00001f2d
ffffdc44
0000273c
000001fd
000028a8
fffff09f
ffffe065
00000842
ffffdd7a
ffffdb8e
00001d18
ffffdb11
000021cc
fffffb71
ffffe977
fffff271
000008c3
000001f2
ffffed97
fffffd02
fffff7a4
ffffc9ef
ffffe499
000004b4
ffffe5e7
ffffd44e
fffff60a
ffffdd3f
ffffe9e3
00000910
0000048e
fffffe6d
ffffed8a
ffffd51e
fffff57f
ffffdfc5
0000083b
fffff80f
fffffd7d
000006b1
ffffe52a
ffffd932
0000025a
00000f84
fffff25d
fffff724
ffffed17
00000262
fffff7e8
00000923
0000080a
00001aa0
ffffee75
fffffab8
ffffeaf4
fffff6c7
ffffed44
fffffc18
00000922
00000c9d
00002686
00002857
ffffdde2
000011f3
ffffe493
fffffa7c
000000a0
0000082b
fffff2c3
ffffde93
00000658
fffff801
00002702
ffffe5df
fffff988
00001030
fffffa3c
0000110f
0000045e
00002353
ffffeb9b
fffff503
00002163
00001f78
ffffe336
000013b2
ffffebfe
00000b2f
00000058
000003f1
ffffe861
00000859
ffffeb10
00000f15
00002455
ffffd966
ffffedc7
000023a5
000026c6
ffffdffb
00002c47
fffff917
fffffc9e
ffffea01
0000085f
00002822
00002c17
00001b91
fffff9e3
fffff39c
ffffebe9
fffffd03
ffffff4f
00000641
00001307
0000224d
000025b4
00000ce4
fffff742
0000221d
ffffe87a
ffffdd9c
00000cd6
ffffebd9
00001028
00000824
fffffc75
0000263a
ffffec10
fffffcc8
fffff3dc
ffffda8d
fffffdf2
ffffdbea
ffffe854
00001aaa
ffffff0e
00001568
00001860
ffffdfb9
ffffd997
0000229e
ffffd57b
fffff3a3
000010b7
00001496
fffff779
ffffd5df
fffffe4c
fffff1e4
ffffdb69
fffff1ff
ffffddc1
000023ae
ffffe828
ffffdb37
00001a13
0000186c
00002821
00001911
00000e7c
00000f45
00001085
00000845
ffffd7bf
0000221c
00002651
00001806
ffffdfd5
ffffe992
fffff91a
fffff491
00002422
00002918
00001606
fffff7e9
fffff5f0
ffffe9da
00001d61
00001f35
000000d9
00002479
ffffe74a
fffff63f
00000e4d
fffffa26
00002516
fffff8f7
00000140
000013a9
ffffd4c8
ffffd70e
00000247
ffffe32a
0000241f
000009c4
00001f15
ffffdbb9
00001b0e
00000aed
ffffe756
fffffc9e
00000de2
fffffedf
fffff438
000017d9
000022fe
ffffe0a4
0000210d
000027da
000025e1
ffffe492
fffff1f6
ffffd5a9
00000612
fffffb40
fffff389
00000604
000011ca
ffffe4eb
00001b7f
000004af
000019b7
fffff228
ffffe62f
ffffec47
00001c00
00002352
fffffdcb
000018b8
ffffedf2
00000462
ffffdbed
00000679
ffffeed2
ffffd8d6
000002a4
fffffe49
000015ca
fffff5c4
000018f4
000006bd
000029e6
fffff263
ffffe51d
000007ac
00001b9f
000003af
fffffe1e
00000f9e
ffffedea
0000019c
00001fd4
fffff146
00000981
00000c94
00002899
fffff080
fffff0af
ffffee03
00000e34
0000021d
ffffe100
00002322
00000af4
00001cde
00001d13
ffffdd9d
00000561
00000f2e
00002652
0000017a
fffffca2
fffff27a
0000238b
00001909
00000e1f
ffffda58
ffffdb97
000002f5
00001722
fffffb43
ffffe31d
00000b5b
00002a32
0000355f
00001782
fffff83f
ffffe2f0
fffff548
fffff987
fffff9f8
ffffd8e3
ffffe127
00000944
ffffda0d
ffffdc62
0000180a
fffff86a
fffffadd
00001080
00001f90
00001590
000004ae
00002d32
fffffd30
00002234
00000eae
ffffe8c7
ffffee94
00003313
0000354a
00000e56
000038bd
00003f16
fffff64c
ffffeadd
00002497
fffff6cf
ffffda5b
00000954
0000013f
000005c2
ffffd855
00000e39
00000dc4
fffff898
ffffee8b
ffffef42
00001782
00001385
ffffd81c
ffffefd9
00000a21
000020a0
00001cc7
000006e2
00001e5c
fffffde3
000019c7
00002a32
000006e6
0000149b
00003457
000022a0
fffff019
fffff0e3
00002472
fffff4c6
00000f24
00001094
00000fb1
ffffd964
ffffe4e6
ffffd769
ffffe0e4
ffffce9f
ffffde8c
00001755
ffffff53
00001ffa
00003121
000031ed
00002920
00002773
fffff24f
ffffd946
00002310
fffff038
00000805
00000b9c
fffffe0b
ffffdbab
fffff369
fffff8fb
fffff07d
ffffe337
ffffe0b4
ffffd3e2
ffffea0d
00002329
000003fd
fffff730
ffffc56e
ffffea95
000006d2
ffffea28
00001da2
ffffe9ba
ffffff09
000015a7
00001c8c
00002d1f
00000af3
ffffd0ec
00001a51
00000a8e
00000b1d
00003087
ffffed29
0000196e
ffffe9e9
00000c14
fffff953
ffffd92b
fffffec4
00001d35
ffffe85a
fffff3a6
fffff526
fffff765
ffffd1e1
ffffc9f7
00000e85
ffffecf4
fffffbd9
00002dd0
fffff6dc
00001816
fffff74c
fffff9c4
fffffbee
ffffecb6
00000cac
ffffcc01
ffffcf23
00002259
000003f0
00000bc1
000017bd
ffffe2bf
ffffed3c
ffffdea0
00001d41
000006c8
00001b63
00000311
00000d6f
00000f32
ffffc874
ffffcc58
00000d96
ffffd7ec
00001258
fffff1f0
ffffeb7d
fffff7c4
ffffb324
ffffe4b4
ffffcee8
ffffb87b
fffff27c
ffffd37b
00000a7d
00001dd1
ffffe0f5
ffffe2d6
fffffdfb
ffffe4db
00001b1d
ffffe931
ffffe265
ffffeb9a
0000102f
fffffba9
00003327
fffff9f4
fffffe19
ffffee96
ffffd6ac
ffffc43e
ffffb808
ffffb539
fffffb27
ffffd31d
ffffae90
ffffa6f0
ffffddac
ffffbd29
ffffda97
ffffb191
00000317
ffffe67d
fffffcdb
ffffe6ad
00000480
ffffe8d7
000001ea
ffffde45
000010bf
0000323f
0000053d
ffffe626
fffff873
ffffe8fc
ffffcfca
fffff8d3
ffffe1f6
ffffe348
ffffbf0b
ffffd84c
ffffdeb2
ffffffe0
ffffad9a
ffff9c88
ffff9461
ffffb837
ffffe5ae
ffffa1ab
ffffc6dc
ffffcd42
0000281f
fffff201
ffffee5b
fffff159
ffffe185
ffffdbb8
000020cb
ffffffa3
ffffead1
00000012
00001e75
00000c45
fffffa14
00001fbe
000007ff
00001aa3
ffffebfd
fffff718
000025a4
00000386
fffff358
ffffe611
ffffe1ed
ffffdc88
ffffe4ad
ffffedc0
ffffffff
0000056e
00002f02
fffff84a
ffffd8db
00000955
00002025
ffffd85b
000021ef
fffffc72
fffff7fd
ffffeea4
ffffffd0
00001451
ffffff32
000007a5
00002192
ffffee5e
000003bd
ffffeb07
00000a25
00000f2d
ffffe94e
00000b7b
00000a8c
ffffff63
fffff7c7
ffffc27e
ffffc787
00000977
000009e2
00002bef
0000046b
ffffd97f
fffff5d5
ffffe42f
00000ccb
0000033b
ffffefe5
fffff10a
00002896
00001a07
00004006
000012c7
000011f3
0000262a
ffffd7b7
ffffd4b5
00002b4e
0000350f
00003deb
00002826
000029da
00000556
ffffc20b
ffffec6f
ffffcf17
00001686
00002efc
fffff06a
fffff425
00002833
0000214d
0000079c
ffffee96
ffffdcde
fffff4c7
0000337f
00001659
000054e5
00001cbf
000015cc
00001fc4
ffffef86
00002b35
ffffec0c
00004de8
00003eec
000029a5
00002a5f
000022ec
00001597
000028da
ffffeb19
ffffec87
00002aa9
00000876
0000140b
00000ab0
ffffff03
fffff30f
ffffd800
fffffae1
0000042a
00003707
00005e37
00002915
00006975
00003f53
000028c0
00001bc8
00000d11
ffffec5a
00003187
000058f8
00001f6e
00002816
00002183
000032c9
00005e70
000007c3
000031bf
fffff385
0000335a
00002041
000031a4
fffff6bb
000013fe
ffffd7b2
ffffe36e
00000ed9
00003799
00003b5c
00005d7d
000046bf
00001b38
0000403e
fffff827
fffffcad
00002ff2
00002bbe
0000124b
00000557
00000dc0
00001bdf
00000e48
00004072
00001fd8
000028a1
000019a7
000038cc
000049f5
00000cbe
fffffff2
ffffe399
ffffdd8d
00000c0a
0000274c
000025db
000038d7
00002e89
00003df4
00001908
000032a2
fffffbb4
fffffde8
fffff79a
00001af8
00001de3
00001893
00001707
00001826
00003565
00001c95
00000d76
00003213
00001d0b
00002bd7
00001b7a
00001da7
00000e38
00000bc8
00001365
ffffe2b7
00000324
ffffddd4
ffffddc9
00000515
00001988
fffff8e7
00003fa8
fffff37d
00000313
ffffe8d5
fffff2bc
ffffebca
ffffc8da
000012bc
00000fb8
0000261f
ffffffa7
00001572
00002c8d
0000037b
00003a69
00004097
00004627
00002c49
ffffedf7
ffffe510
ffffdcce
ffffd8f5
ffffd6ff
ffffebfd
ffffe5d5
000016b7
00000c95
00000899
000004d4
00001046
ffffdf9d
0000157f
ffffd2e5
ffffeae9
ffffea18
000025a3
0000077f
0000108c
000006d3
fffff7b1
00003a65
00001be7
0000218d
000038fc
000045b6
000030db
00000609
00001959
0000114e
ffffffaf
00002ab9
00000825
00001fa0
000028d2
fffff021
00002a9e
00001765
ffffd2e3
00001b2e
fffff89b
ffffea5c
ffffc5e6
ffffd79d
ffffb961
ffffe290
ffffeba1
00001722
ffffe512
00003857
000037d9
00004dd0
00004815
00000866
00000afc
0000211e
ffffeb9b
00000d38
000011bd
00000620
00002027
00000c0f
ffffe66b
00000832
ffffecf6
ffffd3e1
00001378
ffffd801
fffffdd5
ffffd604
ffffd724
ffffc118
ffffe491
ffffde99
ffffc652
fffff066
00000ef4
00001c84
00004243
00004574
fffff4ad
000020d1
0000051c
fffff4d0
000008cb
000026ea
ffffe527
000022ad
fffff859
ffffec8a
ffffd7c6
fffffbe0
00000775
fffff36a
ffffc2fc
ffffde48
fffff166
ffffcead
fffffb82
ffffaf0b
ffffc2f1
ffffc5d3
ffffd4aa
0000039d
00002015
00000454
fffffec0
000031cc
00000647
fffff058
0000110d
00000caa
00000f5d
ffffef74
0000150c
ffffe832
fffff81f
fffff64a
000007cd
ffffda9a
0000175f
fffffe81
fffff300
ffffe867
0000090f
ffffcfc2
ffffc43d
fffff770
ffffe219
fffff7d1
ffffd232
ffffd90d
ffffcfa0
ffffc863
00001d19
ffffe9d2
ffffeef6
000016f7
00002426
000009ec
00001597
00000351
00001ca7
0000154e
ffffe1dc
fffffdf2
ffffe491
00002652
000006a6
ffffd810
ffffe7b6
fffff1b5
fffff5bb
fffffec5
ffffddfe
fffff1f3
00001aac
fffff2d4
ffffee24
ffffdc62
000007f6
fffff4a2
ffffd984
ffffd869
ffffedc8
0000121b
00000415
0000223f
fffff33b
0000204c
fffffeb2
ffffdea2
fffffe0a
00000b99
ffffdd2a
000006ff
ffffd848
ffffdc72
0000127e
fffffed1
00001836
fffffd69
fffff819
ffffd91e
00001123
00001849
00002591
ffffd969
fffff40c
00000acc
ffffd850
ffffe120
000020e6
00001e2d
00001660
ffffe19b
ffffe723
000006bc
00001ad1
000029b9
00002276
fffff91f
00000ada
00001198
ffffd848
fffff3a5
fffffee2
fffff900
fffff8da
0000058a
ffffe95b
fffffa76
000010bb
ffffda1b
000017ed
ffffff68
00000dd0
ffffe9d3
ffffda14
00001f1a
000009b6
ffffe572
000024ad
00001450
ffffe005
ffffe698
00001b1b
fffffb30
fffff596
00001ef5
00000a01
000005b2
ffffe1ad
00001a63
00000b1f
000002b7
000022c5
00002595
ffffdc66
0000031f
ffffe934
00001776
000019c9
fffff0fa
00000c58
ffffe26e
fffffc1e
ffffd695
ffffe519
00000528
ffffd8c9
00000597
ffffef07
000028ea
00000142
00001e12
00001c6d
ffffe87e
000012fa
000028eb
ffffe245
fffff88c
00001d2d
00000eaf
00002f17
fffffee5
ffffe92d
00002558
000014c3
00002ca4
00000858
00001a25
000006fd
ffffddc2
00001dac
000011a6
00002097
000020cf
000014c2
fffffd19
fffffd47
00001c8a
0000280f
ffffd731
00001a56
00000379
00001cfc
00001c85
00001ae4
fffff08c
fffffbb6
fffff6d0
0000105b
00000c8c
00001fba
fffff616
00003a41
000031d5
000008ce
fffffecd
00000cf4
00002a24
00000c7d
ffffed68
ffffe3e8
ffffe723
ffffedd0
fffffe3d
ffffea23
ffffe011
0000070d
00001808
00001245
fffff1fc
0000027b
fffff2fd
00000282
ffffe8a4
ffffdf25
00000bea
00001bc3
00001464
00000050
00003d21
fffffa28
0000423d
000036af
0000001b
000043d4
fffff23e
00000a5c
00001826
fffffe61
00000b66
fffff63a
0000268e
ffffec97
000017cf
ffffe76b
00001f75
ffffec59
ffffdca9
0000021b
fffff2b5
ffffc8e9
ffffd32c
00000ab7
0000218b
00003ee8
000016a8
00001b0d
00002543
000012b3
00001378
fffff420
fffff4f3
000026a9
ffffd5b6
00000380
fffffec8
fffffb7b
000008f8
ffffdc1d
ffffde25
fffff6b1
ffffef8d
ffffed4a
fffff1dc
ffffecd4
ffffde65
0000123a
fffff935
fffff7cf
00001686
00001fda
fffffbf5
0000217d
00005c26
00005244
0000145a
0000161d
ffffcfa6
00000312
fffffd6f
ffffc285
ffffdc88
ffffadc7
ffffeb59
ffffc82e
ffffe4be
00000f18
ffffe509
00002719
ffffdbfc
ffffe10a
0000073b
00001cc1
000013de
ffffddf7
00001314
ffffd56c
00001068
00002bec
00000852
00002d19
00002933
fffff193
00002538
ffffe6f7
0000051a
ffffcdbe
fffff922
ffffda0d
ffffe47c
00000a66
ffffb023
ffffcbb2
ffffba42
00000216
000005de
00000241
ffffe88a
00001be1
fffffe98
00002945
000007f7
00001708
ffffe7f3
00000f40
ffffd9df
0000414d
000029f8
00003ce5
00003125
fffff9b2
fffff030
0000023f
000007dc
ffffffca
ffffb20d
000012d9
000011ec
fffff2df
fffff11c
ffffde9a
ffffd520
ffffd368
ffffd586
000025df
fffff1d2
ffffdb9c
00000e0c
ffffe94b
000012c2
00001488
ffffdee0
00002eef
00000b54
00001db8
00004471
0000545b
000003ef
ffffafe8
ffff9d40
ffffdbec
ffffda9b
ffffd90e
00002129
00003016
ffffe71c
fffff45c
ffffcd9f
ffffc08f
ffffa781
0000082b
ffffd0ab
ffffedfe
000007ea
0000166c
ffffe3e8
ffffe4ae
000019c5
00001709
00000aed
00002d54
00004ad8
00001d2e
00007043
000043c1
ffffe01e
ffffecd2
ffff92c4
ffffcb9a
ffffbc82
000024fd
00001206
00001b22
fffff008
00000c8e
00000cdf
ffffd8dd
00000122
ffffef64
00002044
ffffe86e
000006d0
00001e75
fffff19b
ffffeec7
000016b6
ffffe909
00002e71
00004deb
00005a5e
000041fc
000048ab
00000b53
ffffe8f6
ffffbfa3
ffffa89a
ffffba20
fffff697
00002596
00002c2f
000019a5
000017fa
00000de1
00000169
00003b56
fffffde4
ffffe326
00000d47
ffffe7e4
00000042
ffffd990
00002906
00000fee
00001955
fffff573
0000496e
000028dc
0000637f
00005dce
00002a64
0000180e
ffffd3c2
ffffb0ff
ffff847e
ffff9fbc
ffffea23
ffffda86
00002c20
ffffe701
00001e99
fffffb1d
00003959
000041ad
0000360c
ffffe4ce
00000836
0000056c
0000207f
ffffef7f
00002057
0000255a
ffffe7a7
00001ffe
0000435c
00005261
00005f0a
00001c9d
0000392e
00001e27
ffffa024
ffff76ba
ffffa43c
ffff8a34
ffffd92f
fffff52a
fffffc96
00000906
000028d1
fffff3b9
00002a81
00003ee9
000039e5
ffffe952
ffffe2d0
fffff74a
ffffd9fc
000028d8
00000ce6
0000268b
0000338f
00003c45
00005b14
000012fc
000047f9
0000555e
000052e9
00001252
ffffd429
ffffbd87
ffffa8c9
ffff8e88
ffffba76
ffffd7a6
000034f1
00000ca1
000013c2
000043c5
00000183
0000273b
0000304c
00002432
000001d8
00000c7f
ffffdb5d
ffffe1d8
0000224a
ffffe94d
fffff349
00000290
0000290e
00003b57
000025ff
00005f9e
000051ce
0000344c
00001be8
ffffe008
ffffbba5
ffffa14b
ffff7558
ffffbb08
fffffd9a
fffff28d
00001f64
00003790
0000054b
00002005
fffffbb4
fffff550
ffffffef
fffff93b
000017e1
00000e0c
ffffef81
ffffea9b
000002d1
fffff15f
00001323
000029a0
00000cb5
000039bc
00001255
00002d8e
fffffb13
0000059b
ffffc74b
ffffc2ad
ffff8706
ffffed0c
00001a27
00004369
00001bbd
00002112
00000b2c
00000783
ffffe576
fffff785
ffffd1e3
fffff3d5
000005e7
00000520
ffffdf10
000008fe
ffffcc98
ffffeb5b
0000050d
00002620
0000284f
00003362
000021e6
000034b7
00002424
ffffcd5f
ffffe330
ffffb71b
ffffadcf
00000611
00000c84
00001dd2
000006bd
000009d8
ffffe9be
00000952
ffffce09
ffffdf17
000010ed
ffffee9f
00000f12
00000a43
000017e7
00002314
ffffe2ab
ffffee41
fffffe81
00000172
000001ab
fffffc4a
fffffda3
00004f82
000035cd
ffffe105
ffffda36
ffffd50f
ffff9acb
00002034
000080da
000055c4
00000606
000027ff
fffff0f7
00002030
ffffede8
00000523
0000114f
0000129a
ffffd8af
ffffdd1d
000006b9
ffffefa3
0000069e
fffff191
00000ad4
000026cc
000031cd
000034a7
fffff361
00002bd7
000001dc
00000508
ffffa230
ffffdf19
ffffd2e1
00002ed8
00004077
00000d31
0000091a
000025c4
0000150d
ffffea65
ffffe5b5
00000eb0
ffffe0a2
fffff00f
0000044f
00001e04
0000283a
ffffe18d
ffffe60e
000016c7
0000183d
fffff3af
00000d7f
ffffce31
ffffe6da
ffffe5b6
ffffdb30
ffffd797
ffffebd9
ffffde2b
000010de
000044e7
00002330
00004892
00002c19
fffff127
ffffe03f
000016ae
ffffd6ae
ffffe2c7
fffffe76
000010a7
000002ca
ffffe403
00000e0b
fffffa6d
00001e14
fffffc5d
00002460
00001592
ffffbd14
fffff9d6
ffffe541
000019ea
ffffdd7a
ffffea61
ffffcdba
ffffcfd0
000016b4
000023bd
000002cc
0000188b
ffffd47a
00001cd1
00001d19
ffffe6f1
00002022
ffffee5f
00001067
00000226
ffffd88b
fffffa96
fffff078
000025c8
000008de
0000160c
ffffec28
ffffcc18
ffffe47f
ffffd734
ffffb575
000003bc
ffffe972
fffff1a7
ffffe9b0
00001509
00002eb6
0000006b
000037c0
00001dad
fffff463
00003b08
00000af2
00000781
ffffee80
fffff579
000015ee
0000109f
00000e0e
00000a57
ffffebc2
0000210c
fffff6da
ffffe09d
ffffe3d0
ffffc907
ffffc822
ffffe716
ffffe9fe
fffff8bc
fffff0cd
ffffd6f9
00001edb
00002285
00002421
00000ced
00003064
fffff375
00001edf
000040fc
00000d74
000011cf
00000010
ffffe111
ffffff60
00001a58
fffffd81
000004ef
000026f7
ffffd577
ffffdd0d
0000088c
000020f9
ffffed6d
ffffdb63
ffffd764
ffffdf0e
fffff82e
00000ba5
fffff1c3
fffffc23
ffffd6e8
00002b18
fffff582
00001ee6
00002594
0000472e
0000599a
0000094b
00003530
00002058
00000074
fffff163
ffffd867
ffffef48
000019b0
00001378
ffffd807
fffffb99
fffffb40
ffffe173
00002413
00000ec6
ffffc9f6
00000330
ffffbc6f
00000150
ffffc79c
ffffdd1e
000009b4
000014cc
fffff8e2
0000001d
00001ff4
00004131
0000152c
000023bf
00000277
ffffeca9
00000463
00000c33
fffff71a
fffff194
ffffebe6
00000d04
ffffec0b
fffffe26
00001d35
00000f32
00001559
0000214e
00001f7b
ffffd88d
00001b51
ffffec1c
00000618
0000291b
00000cac
ffffe4da
00002d60
00002110
00000bc3
00003614
000000fc
000019c3
000010b7
0000160c
00001390
ffffda6f
ffffe125
ffffe9c7
fffffcba
000002ee
00000f50
00001616
ffffec16
fffff4ad
00002238
ffffec53
fffff933
00002488
000011e9
00000989
00001651
fffffb35
000016a5
ffffdc7b
00001e53
ffffd76f
ffffd5f1
00002aaf
ffffd84e
0000170e
ffffe114
000013d6
000012e0
00002744
fffff198
00001750
000026fd
ffffe33d
ffffd881
0000165f
ffffe7c8
fffffa84
ffffe9ce
ffffdbfd
00000e22
ffffe63b
ffffde46
ffffe8ab
000012c5
00000f71
00000158
ffffe6a4
ffffed0c
0000242c
00001370
fffffb55
ffffe633
fffff5b3
ffffef4a
ffffdd09
000008e6
fffff7d9
0000297a
00001cf5
00001b9f
fffffee6
00001fc7
fffff08a
ffffe1a5
ffffe7df
ffffe5b4
000006d9
000008e8
ffffe15f
00001e0a
fffff17e
00002a24
00000188
ffffe9ad
00002279
000029dd
000009e4
fffff17c
ffffe455
ffffd6bd
ffffe47f
fffff036
ffffed77
ffffd50c
ffffdcd2
ffffe0cb
00000530
ffffed22
00001148
ffffe2a9
00000082
00000ed1
000028b9
000001f2
000000ec
000006b2
ffffd554
ffffe0cc
ffffd541
fffff50b
00002605
00000dd8
ffffde62
00000d27
ffffd97f
000008aa
000016b3
ffffd959
fffff473
00000bca
ffffe2c0
ffffd646
00001078
ffffe17c
ffffef96
00001123
00002867
00000a00
0000278a
fffff2a0
ffffecb0
00000a41
ffffebc6
fffff081
fffffe55
ffffdfc3
ffffeafe
00002195
0000165f
0000161c
ffffeebb
fffff226
ffffe6ff
ffffeb81
ffffe123
ffffe8e8
00001960
00001b5a
ffffe606
ffffd630
00000a0e
000004b2
000008e1
000008fc
0000103a
0000043a
00001df9
ffffe4e9
ffffd7b9
ffffe59b
fffff4f6
ffffff30
fffffd80
00000059
ffffda08
00000f7b
ffffe13b
0000199b
fffff15a
ffffe01f
00002650
000018a1
fffff756
fffff4d4
fffffe53
000025e2
0000222f
0000153e
fffff4bd
ffffe55d
00000e47
000027ee
00000244
000007e6
ffffd5bf
00001d2c
ffffda92
fffffb10
00002462
0000072f
ffffe9ab
ffffffa0
fffff5da
ffffcd82
00000a81
0000192f
0000071d
000015fa
ffffecd0
ffffd734
ffffef5e
00000be0
00001844
ffffd728
00000bee
ffffe3ee
ffffe823
ffffef6a
ffffeadf
00001fa7
000022ef
fffff0ea
0000084e
000016de
ffffd940
ffffe1bf
00000026
ffffe536
00000bb5
ffffdd17
fffff97f
00001189
ffffead9
ffffc748
ffffc3eb
ffffce5c
fffff702
00002602
00000be9
00001476
00001c31
00002e72
ffffde2d
ffffe2a2
ffffe4fb
fffff8f4
ffffec41
000004ae
ffffda83
000003f6
ffffffa4
ffffdc7a
ffffd9ca
000021a5
ffffec47
00002bd4
00001060
000001c8
ffffee75
00000f26
00001825
ffffcc3d
0000067c
ffffcd31
00000b2c
00003871
000042fa
000007ca
0000091c
00001017
00000b20
ffffe881
00000d3f
0000121e
00001db6
fffff5b8
fffff939
fffff818
0000197e
000025b8
fffff10a
0000112d
000040b9
00001e28
000031fd
000018fe
000005d2
000017e3
fffff8fe
00002cf8
00001103
0000298b
0000352c
0000429f
00003d98
00001697
000008b8
fffffeba
00000875
fffff105
ffffe222
ffffd9d5
00001343
00000f39
00001ecf
ffffe633
ffffeff8
000003a0
fffff5e0
00000517
00004582
00002159
00004298
00001ad9
0000368f
fffffa52
000037c7
fffff89d
00002b2b
00000153
ffffff29
0000407d
fffff3fe
0000173c
00001f97
000002b5
0000087e
fffff1ba
000028b1
fffff73e
fffffa89
0000117f
00000d12
00000877
fffff076
fffff441
00002b27
ffffdf85
00001393
00000774
00002d07
00002197
00002e67
fffff0de
ffffe7bd
000019f1
ffffd3b6
00001df1
00000c71
00003820
00000846
ffffe91c
ffffe9bd
fffff08a
ffffee50
00002b10
ffffd7ae
00001606
fffffd06
0000093c
fffff278
ffffedb1
00001aa1
ffffe0ca
fffff025
ffffdf22
0000114d
00001934
fffffe42
0000177e
ffffde8d
fffffcb1
ffffbbb8
ffffd6e2
ffffdee0
ffffca9a
00000271
000026e8
fffffc31
ffffe849
ffffe7dd
00001f20
000019c2
ffffebd2
fffffe47
fffff4c9
ffffd965
ffffd8db
00001bba
00000b16
ffffdf35
fffff1f5
ffffd720
000011dc
00000a8a
00000960
00001307
ffffdebe
0000159c
ffffe140
ffff9c73
ffff93d2
ffffbe04
ffffdbe0
ffffed50
00002e01
ffffe50d
00000811
00000341
00000550
000005d7
ffffe0ae
00001818
00002231
00000de4
ffffdbbe
ffffea35
ffffd72c
fffffa25
ffffece4
00001606
0000134c
00001793
00000591
ffffe59e
00000b79
ffffe033
ffffa288
ffffd133
ffffda25
ffffd876
fffff54c
fffffa2d
00000031
ffffcd94
ffffd9c0
ffffb640
fffff36c
fffff8e1
fffff9ca
000018cd
00001218
0000069d
ffffe7db
ffffeaca
00001d32
fffffe74
ffffcf72
000022aa
ffffedfb
ffffe9ae
000011d0
fffffae5
ffffe54f
ffffaa03
ffffd9d4
ffffc057
ffffbecd
fffff325
00002370
ffffde3a
ffffd18c
0000062b
ffffabff
ffffcc97
ffffe192
00002026
00000673
00002238
00002acf
00001702
ffffe2d7
ffffdc11
ffffe12e
00000704
ffffe5bd
000015d1
0000087a
ffffeace
fffff8b8
ffffff8b
ffffefd5
ffffa526
ffffa9c2
ffffe8c7
ffffd74a
000007b1
00001b51
00000d12
fffff728
fffff27f
fffff0b4
fffff8c4
fffff5df
00002ab3
00003220
00001e75
fffffd9b
ffffef36
ffffe45b
ffffe928
ffffe667
fffff9b4
00001f0b
fffffc11
fffffdb9
00002450
ffffeb28
ffffcd14
ffffae2c
ffffbab1
ffffbedb
ffffc00d
fffff754
000006fa
ffffdb0f
ffffe43c
00000e90
ffffd53d
ffffd11c
00002291
00002268
00002c1a
00000d30
0000143b
000027dc
00002096
ffffe7fa
00001280
000026a6
ffffd72e
ffffd20f
0000041e
fffff485
00000fa3
ffffd711
00000da6
ffffbe07
ffffdc4d
ffffd0c8
ffffe407
000015fa
000015a4
ffffef2b
ffffd802
fffff27e
ffffe9bf
ffffee3f
00000e3f
ffffdf8c
00001b66
00000a9b
fffff353
00001817
ffffe584
0000216b
ffffeeb4
00000fa1
000018c3
00000829
00002719
fffff387
ffffe25c
ffffcd80
ffffe13a
fffffa53
ffffbeaa
ffffbeaf
00002b13
fffffbf4
00000b08
0000164e
fffff350
00000b2c
00000815
000029ea
ffffde55
fffffb91
000014a4
00000403
fffff5a7
00000ce8
00001ac1
00000cbc
fffff5dc
ffffdabc
00000f46
00001453
00000513
fffff81d
fffffc3d
fffff9bb
ffffc6fb
ffffabf3
00000a20
ffffe8be
00002d8e
fffffe30
ffffc65c
fffff1c2
000014c1
fffff400
000018fb
000022a3
00001417
000004f4
ffffdf40
ffffe27e
00000595
ffffe507
00000c47
00001d69
fffff738
fffff249
fffffa26
fffffd82
ffffff0b
fffff640
000000f8
ffffc9a2
fffff161
ffffcdfe
ffffe483
00002411
ffffe4f9
00000757
00001572
ffffff7a
000011d7
ffffeaec
fffff408
fffff71e
ffffc3c3
ffffda9d
00001b36
0000089d
00000c49
ffffe9c4
000017fa
00000618
ffffed65
00001463
ffffd4bd
fffffbb9
ffffe929
ffffd75a
ffffdbc3
fffff32c
ffffc59a
ffffea48
00001760
00002206
0000052d
ffffea77
ffffe0ad
fffff757
fffff79f
00001656
00001cd7
fffffd4e
ffffdada
00001821
0000032a
0000112e
ffffd708
ffffdf9c
00000282
000012ce
ffffd643
ffffea97
ffffdf05
00001e1d
00001663
fffff7ee
00001576
fffffd8d
00001fd7
00003b3b
00000b20
ffffe9e4
ffffdd25
ffffe260
fffff6f4
00002bf9
00000d59
00000da5
0000012a
ffffe753
ffffeac7
fffff384
ffffeec3
000011ec
00000273
000027d8
00000d81
00001a0f
ffffda8f
00002683
00000869
00002844
0000095f
0000017d
fffffd04
fffff473
00000778
000007c7
0000304b
ffffe0b5
00001f78
fffff7ff
00000c2f
ffffeb9b
00000933
000002bb
ffffe6a3
ffffdf68
fffff139
fffffafe
00000a05
fffff36b
fffff288
ffffdb89
00001b24
ffffdf08
00000bd0
000016c2
000012b7
00000282
fffff2fe
ffffdd94
ffffedcf
00003b72
ffffed88
00003409
0000231e
00002d00
fffff590
ffffdff1
0000067d
00000e27
0000021c
fffff0a7
00002df0
ffffccd7
ffffd3fe
ffffe1bb
00000d8d
00002a26
00001222
00002532
00000ef8
fffffc3d
00002355
000004ba
fffff124
ffffeac9
00001d50
fffff6c0
ffffffb6
fffffef1
fffff2cf
00000332
00002040
0000192d
00002000
00001b36
0000025e
fffff147
000032ba
fffff7f8
ffffe339
ffffea74
00002568
00000959
00001d25
00001679
000029b0
fffff83b
000007c1
ffffeea0
000017f1
ffffe85b
ffffea50
fffffa71
fffff2c4
000023b1
00001f8a
000019eb
fffffc11
ffffe388
ffffe786
ffffd515
00001ab2
000018a0
00000478
ffffffa1
ffffe303
000006d7
00000890
000023f1
00000388
fffff9a0
00001ac2
00000e4b
ffffe4eb
0000255b
ffffe450
ffffdb18
000006a3
00001353
ffffe294
0000193d
00000414
ffffedf0
ffffecc9
00002ba1
ffffe01e
00001d12
00002bc8
000029a7
00000cdb
fffff244
000004b4
0000084b
fffffb15
fffffc4b
fffffa03
ffffe49e
fffff214
ffffea08
ffffdbed
fffff90e
ffffdd52
00000cf5
ffffe65e
0000066c
ffffdced
00000b26
00002a78
000013fe
ffffdf87
ffffe4e1
fffffd13
ffffea2e
0000011b
fffff16f
fffff88f
00001c21
00002328
ffffe094
0000064b
00002399
ffffe26b
ffffe95b
ffffe014
fffff811
ffffe41a
000025ab
000020fb
ffffe673
ffffe300
ffffe2e3
ffffead6
000017bd
ffffe599
ffffede4
000027da
fffff8eb
ffffe281
ffffd953
00001039
ffffede6
000004f8
ffffdcac
ffffe341
ffffdc59
ffffdde6
00001beb
0000101e
ffffee73
00001231
00000038
000020a0
ffffd51e
000018ff
000016c8
ffffe2f5
00001824
00000205
0000243b
000009a1
00001559
000020cc
000015e2
0000142f
ffffefaa
00000865
ffffe746
ffffe3ed
ffffdf21
00000bb1
fffff0e9
ffffe890
00001b23
fffffdd1
ffffe17b
00000028
fffffb70
fffffb23
ffffe545
ffffd3c0
ffffd2dd
ffffe70e
00002595
000002ed
0000255d
ffffe60e
00002781
fffffcec
ffffd625
fffff5a5
ffffdfcb
0000190b
00001a31
ffffd60b
fffff563
fffff065
fffff8f8
00000178
00000e75
00001d8e
0000296a
000009ab
000039b2
00000a01
00003edf
00002451
00000168
ffffcac3
fffff5f3
ffffcef2
fffff939
0000135f
fffffe27
00000a57
fffff614
00001a3f
fffff588
ffffdff6
00001382
ffffe210
000017bd
00001b92
ffffff67
00002b0f
00003c05
00003f37
0000261c
00003f75
00006134
00001bc0
00003b4e
00002e7b
00003694
00003726
00000ec3
00000055
fffff264
ffffe928
fffff6a2
fffff4c9
00001022
fffff337
fffff9fa
00001f94
ffffec5f
0000086a
00000233
ffffefed
ffffdc8f
ffffe17e
0000155c
fffff04f
fffff015
000023f9
00002889
ffffe883
0000219b
00003388
00001713
00000d73
000050d9
fffff936
0000312b
00003910
ffffefce
000009ef
ffffdf7e
ffffdfef
ffffc5ac
ffffdc7a
ffffd800
00001f6e
0000204f
ffffe870
00000e25
00000deb
ffffef87
fffff6cf
ffffd1d5
0000087a
ffffb00c
ffffd86c
ffffe2e9
ffffb31d
ffffdc25
ffffec77
000036ae
00001c50
00005dcb
00000f75
000046d1
ffffe533
00000835
ffffe538
00000760
ffffbb14
ffffff77
00002559
fffff865
ffffdbe5
fffff36d
00001c73
00001fad
000004b8
00001f5c
ffffe03b
ffffd7fb
ffffd9c2
ffffa1bc
ffffaa34
ffffaed9
ffffc864
ffffc164
ffffe60f
ffffffa8
00004683
00002ba5
00000108
fffff3ce
0000130a
00000805
fffffd88
00001ace
000001bb
0000033b
000012e6
00000178
fffffccb
000027e6
ffffd9ba
fffffd93
ffffd6fc
ffffdff5
0000023d
ffffbb6c
fffffb54
ffffba78
ffffd0c6
ffffdb9c
ffffdb66
ffffd641
ffffd025
00000d9e
00003dcf
00001be7
fffffce0
0000133f
00002c8a
ffffed79
00004e68
ffffffb7
ffffe6ac
000004c7
ffffc925
000016e8
fffff352
fffff96b
00001f57
0000168b
ffffd867
fffff22d
ffffb646
ffffdbde
ffffb321
ffffc33b
ffffeef7
00002211
ffffde6d
ffffcee0
fffff525
ffffbd49
000011db
fffffbd8
00000858
0000523a
00003216
00002852
000013ee
fffff9b3
ffffd760
ffffe9ba
0000140b
000015c0
000025d9
ffffedc3
ffffe424
00001d94
00000343
ffffe10b
fffff610
ffffc68b
fffffc2c
ffffdbc7
00002374
ffffe392
ffffe2a6
0000049e
ffffbafd
ffffd52a
ffffdb6f
fffffd6f
00001bc0
00002aab
00002cd7
0000418e
ffffec4e
fffff90d
ffffe8ce
ffffe50e
000018d9
00001011
00001985
ffffd61f
00001d88
00000380
ffffd6d3
000007bf
fffff187
ffffce78
000008cc
00001b4d
fffffe03
ffffd83d
ffffdddd
ffffe678
ffffd22d
ffffb798
fffffb85
000001e4
0000191d
0000349e
0000609e
000050fd
00002db5
ffffec7f
0000010e
ffffc70a
ffffce7a
ffffd67f
00001a5e
ffffdcaa
fffffbe5
000007af
00000c3b
ffffca30
00000d1c
00000641
00001eb5
00000d61
fffff3bc
00001aa9
ffffe2ad
ffffbef9
fffffbfc
000019fa
fffff4aa
00000f90
00003ba1
00000f45
000072b4
00001fc4
00001510
ffffd8c9
ffffb9e2
ffffdfb5
fffff7f4
ffffff8b
00001ca7
fffff0a7
00001cf7
000010e1
000007e6
00001a08
00000f5e
fffff2cb
ffffe3af
00000a6e
ffffd727
00000816
fffff8d4
ffffeedf
00001432
00004576
00000f8a
00002d17
000011e8
0000354c
00001e8d
ffffff60
ffffe4c3
ffffd67c
ffffbea9
ffffc90e
ffffd83a
ffffdb1e
00000068
fffff11d
ffffe80c
ffffe557
000020c1
fffffccb
00001cac
fffff6eb
fffff4d5
00001096
ffffdf11
fffffaa2
ffffd497
000019f9
00004ce7
0000240f
0000589f
0000182b
00003f3b
00000d0f
ffffe210
ffffd4cd
ffffd252
ffffdd9f
fffff1dc
ffffff24
ffffd76a
00001cb5
00001dba
ffffeea9
fffff22b
0000040b
00000c97
ffffeb4e
000046b4
00004671
00000465
ffffe745
000011d8
ffffd294
000010f8
fffff369
00002761
00001a53
00000b79
00001adb
00001dad
00000cc0
ffffee00
ffffd626
ffffd315
ffffda68
ffffe4c0
ffffe32b
fffff677
00002309
00000c83
00000336
fffff757
ffffdab9
0000217e
000031b0
000030a5
00000a51
000008b6
fffff00f
00002aa1
ffffe00c
000027ed
00000943
00004ae7
000025e6
ffffda2e
00000191
fffff635
ffffe8a9
ffffc12b
fffff0ea
fffff2ec
00001dba
ffffd537
000016a9
0000122f
00000f7c
0000204a
ffffe107
ffffd90a
ffffff56
00003562
00003c9a
00003b2f
00002ca0
00001b28
00000feb
fffffcfb
0000357b
00004786
00002e45
00001eb2
ffffef73
000011fd
000022b9
000022d5
ffffc719
00000363
fffffa4a
ffffed9a
00002065
ffffe6c2
fffff94c
00001412
0000072f
000007b4
000007f9
ffffe5ad
000015d9
00002e98
00000950
00003a7d
fffff127
00000f3f
fffff3ed
0000049d
00002eb6
00001e7b
000010a8
ffffee64
00001798
000012b2
00000158
ffffee6d
ffffe4ed
fffffe1c
ffffc777
ffffe54b
000025f3
00002956
0000130e
ffffec82
00001f85
000005b1
ffffe1e4
ffffe476
ffffde45
00001e8e
00002a3e
0000204b
ffffe8ac
ffffecc2
fffff8f3
ffffeb46
00001c6c
ffffe346
ffffbbe4
ffffde9f
000005fb
000018a2
00002294
0000118f
00001d0c
00001453
ffffe316
fffffb7b
00000ec7
000016a2
000011e5
ffffe7ba
ffffdb10
000010cd
fffff648
00001644
00001c26
000011b7
00004759
0000285b
00002001
000009ed
fffff742
ffffec48
fffff1ea
ffffe511
ffffd069
ffffe2cb
0000045a
ffffd80a
00003177
00002766
00000066
000023ec
00000709
ffffff3e
ffffe74a
00001609
fffff478
000009b4
fffffcce
fffffccf
000011b5
ffffdd41
fffffe00
fffff0f3
00002584
fffff1fa
fffffcf1
00000410
0000145b
ffffe3df
000008de
00000ff5
ffffc8ac
ffffcdb4
ffffe61c
fffffe8a
000012a4
ffffe76e
ffffffc0
ffffdcee
00001130
fffff524
00002d68
000023cc
fffffc37
00000cd6
fffffbe9
00000de9
fffff870
00000efb
00001a04
00000ca3
0000075f
00000f7f
00001e90
00002238
00000e93
ffffe2c2
ffffef56
fffff146
fffff5af
ffffe726
0000088b
ffffdc94
ffffe466
ffffdf57
ffffec24
00000bb9
fffffdba
0000274b
00003185
fffff230
00002013
0000111b
fffffb38
fffff7cf
ffffed3b
ffffea8f
fffffebf
00002c09
ffffffff
00000418
ffffd1e4
00001fdf
00002de6
ffffe84d
0000192e
000005d1
ffffe0a0
fffff08c
ffffde0b
ffffdbc0
ffffeafe
00002a36
00000639
ffffd67e
00002d79
fffff27a
000017f7
0000163b
00002446
fffff2d7
0000098c
00001eb6
0000154c
ffffe33a
00001887
ffffea6a
ffffeddd
ffffe45b
00001a95
00001dfa
fffff5e7
ffffe898
0000289e
000002d7
000004bd
ffffee27
00001281
ffffebc9
000007cc
000006fe
00000470
000015d6
fffff3b0
00001e6b
fffffee0
0000295e
0000276f
00002a15
00002622
ffffd81e
ffffde0a
ffffe57b
00000ddb
ffffeac3
00000d62
000020aa
00002520
00000fe5
00000f52
ffffeb53
000004fd
00000d37
ffffe8f6
000017f7
00002446
00001743
000027d5
0000161b
ffffe149
0000030d
0000221e
00001f0e
000027bd
0000173c
00001df1
ffffe75e
ffffdefc
ffffe707
fffff8e3
000010c8
00001415
fffff0b1
0000194a
0000028b
fffffa5c
000028b2
000019ca
ffffe4a4
ffffe0db
ffffecec
ffffee7d
00001420
00000747
ffffedfc
00000773
fffff603
fffff8d5
fffff5ed
ffffdff3
000011ef
00002780
fffffce5
fffff0f9
0000252f
00001d19
00001fa1
fffffcfe
000005c4
000009bd
ffffff5b
00002859
ffffe3be
ffffef22
ffffed08
ffffed0b
00001dfc
fffffeb5
000029e8
fffff428
000019b4
ffffec1c
ffffd654
000027da
00000e54
00000bac
ffffeffc
00002469
0000016a
ffffe37d
fffff698
ffffed42
00001db8
00000493
ffffdfc5
ffffff9c
ffffe48d
00001530
ffffdf94
00001473
000007af
000015fa
ffffd9c2
00001510
ffffe159
00002143
ffffffdf
fffff9c7
00000769
ffffe48f
ffffdf2b
fffffc41
00001d4a
0000050d
ffffdebd
00001629
fffffc06
ffffd78d
fffff644
000017b4
0000282e
00000e58
000010ae
fffff9f8
00002b0d
0000104f
0000111f
ffffd790
00001f0a
000027b9
ffffe83f
fffff623
00001577
ffffdd49
00001c8f
0000023f
ffffe74a
fffffea5
00001785
ffffe2f8
fffffadc
000017ef
00001a1c
00001a37
ffffe6bb
ffffde66
ffffefdc
fffff73b
0000058d
fffffc25
ffffda1d
00001dfb
0000263c
00002243
00001730
000004b5
fffff4da
000020a2
fffff739
00000a5a
ffffe90d
0000237c
ffffe2d8
ffffdb50
ffffe0f5
00001b5f
00000877
fffff8e4
fffff21f
fffff13d
ffffe45d
00001826
00001047
ffffe3c1
fffffa5a
ffffdfb3
000008ab
00001d3c
fffff35e
0000288e
ffffe973
fffff521
fffff404
ffffdf5b
ffffe181
00001491
fffff4ea
00001b3b
fffff796
fffff3eb
00001750
fffffa3a
ffffe60d
ffffbda8
ffffd7b3
0000050f
ffffd560
ffffea9b
fffffee3
ffffff3c
ffffd37f
000022d3
ffffe47a
00001f11
ffffe7dc
fffff244
00000af4
000000d4
ffffe23b
0000276c
000029eb
000029c7
00001c70
ffffdf1e
fffff1bd
00000619
ffffc9dc
ffffe312
0000036c
ffffbaf2
ffffc86b
ffffa455
ffffc2d5
ffffc883
ffffc417
00000eb2
00000a5e
ffffffa8
00000829
fffff2b6
