ffffdde6
fffee2c8
ffffe0e9
ffffacbd
00011744
ffff2abb
00001a60
00005dde
fffeef1a
ffff469a
ffff5311
ffff5ae3
0000584c
00005637
fffe9796
00002524
0000c1b6
00016d63
000001fa
00008d99
00016dc3
0000ac43
ffff410f
00000ac6
fffee16b
ffff8083
00001059
0000c0b1
0000b99b
0001be09
ffff47a8
ffff842c
ffffe30a
0001dca1
fffed9c9
fffeb9c0
ffff931e
0001971b
ffff21b7
ffffe0fd
ffffe830
ffff38fe
0000ea75
fffeb81c
ffff31d1
ffffee03
0000c2c8
ffff7380
00002726
ffff53a1
00000283
0000c309
000086d2
00002f7e
0000580f
fffebe9a
00003ec9
0001a478
000013d3
ffff9284
ffff846a
ffff6bef
ffffad8f
00009262
ffff7866
ffff7e6d
fffecac2
000107ee
fffee2e8
ffffd461
00003d80
ffff01e6
fffec4c3
0000985c
0000d6b1
ffffd11c
ffffad30
ffff40ae
0001df2c
0001e464
ffffb5b8
ffffd071
ffff7294
00001ef5
ffffde7a
fffff9b2
ffff6cd2
ffff8ed9
fffeed67
000001cb
0000f3ff
00014b3e
0000ae70
ffffb315
fffffa4d
ffffc0bf
0000a1ba
fffecf99
00013aec
ffffdc4e
ffff4252
0000bc14
ffff58e1
00006e1e
fffeed51
ffff99c3
ffffe263
00008888
00016807
0000d537
0000e27b
000061c7
ffff7373
0000ca57
0000b1e2
fffe9b6d
ffff0d83
ffff3714
0000cd75
ffff2412
000145d0
00006afa
00009f48
ffff4cde
0000682b
0000ae73
000072a5
0000859a
ffffc39f
0001d90b
ffffd35a
000031a9
fffeea9c
ffffb82d
00015b92
ffffe19f
0001187c
00012864
fffed5c1
ffffb017
ffff780f
fffef86e
fffe8f95
ffffd738
0001cd80
ffffd4bb
000097bc
fffeebce
fffff536
ffffd03f
00015eb9
ffff68c4
ffff6641
000068d9
fffff614
0000fb1a
000018da
ffffa797
fffec3d4
ffff95d2
ffff714e
ffff9f78
00016b08
fffeffa2
fffefdcd
fffe6b2f
ffff7061
0000aace
000056f5
ffffcd56
00001b3d
000100c7
00000e8e
ffffa4ed
00002d87
fffebe11
ffff6b68
00007b5f
00008393
0001588a
000026d4
00004df8
ffff9ad0
00015414
00023380
00000186
00006a97
ffffbf8f
00002cd2
fffe99bd
ffff7fad
0000c896
00000c51
fffeceb0
000015b2
fffea5f1
000105e8
fffed445
ffffe6dd
00013b1c
0000ef5e
00007f9a
ffff94f3
ffffe545
ffff6a31
ffff5717
0000ccd9
fffeb8ef
ffff504f
000162b5
00007bcf
00005755
ffffca82
fffffee2
fffedc4d
ffff0519
fffeeba0
0000bf9b
fffee62e
0001b177
00008729
ffffc709
0000233b
ffff77a4
00000696
ffffaf4c
ffff3a72
0001998d
0000080a
00004185
fffed151
00007fad
ffff313b
ffff6bcf
00022362
0000ee08
ffffe1a4
ffff6188
fffed9cd
ffffe164
ffffe081
00000e80
0000038c
ffff0aad
0000111a
00007e78
00019891
ffff5238
ffff513b
ffff7626
00000ac0
000008b4
ffff80cf
000015d6
00003a2c
0000a1df
0000216c
ffffca71
00018141
0000147d
0001144c
00013d87
fffea7ab
00003ba8
ffffb33f
ffffba2e
fffed6ee
0000437c
ffff7868
00013754
00008a4b
00001103
ffff8063
ffff5441
ffff7200
fffeeddc
ffff01c0
00002d14
fffea971
00017154
fffe665d
ffff832d
000023cb
0000b0d1
0000b5d3
000007dd
ffffd8b6
ffffa509
00004eb8
0000f7a8
ffff6928
ffffbcee
00005fb8
ffff13a9
0001800c
00006132
00002682
0000f844
ffff834b
ffffd052
0000bd49
000133bc
ffff67f2
00002f28
ffffcbee
00004099
ffffb14c
fffeb4cd
0000a7b3
ffff1db4
00017954
00018a56
00007b8f
ffffd9b5
fffed289
fffe9c39
fffff232
ffffd5fb
00015676
ffffc96f
