ffffb638
ffffa726
ffffc3cb
00004994
ffffa60b
fffff402
fffff523
000078c8
ffffc782
ffffb376
ffffa989
000070a6
ffff7d49
00005bc5
0000d04f
fffff5e4
ffffeb9e
000024d7
00003bdb
ffffabf5
000012a6
ffffed6b
ffffcc8a
00005014
00003638
ffffee0d
ffff9d86
ffffc172
ffffec30
ffffbe89
ffffde73
ffff931e
ffff9c1a
ffffc8c3
ffffa9d3
0000615d
00001f68
ffffb329
ffffb54c
ffffd252
ffff98fe
ffffd69c
ffff6f47
0000540e
ffff9026
00005087
ffffe445
ffffc1f0
00000043
00002c6e
fffff7e2
00003deb
000014aa
00001ed8
00001b37
ffffa318
00004125
ffffd2f1
00009292
00005ff2
0000508c
ffffc196
ffffc893
00001024
ffff9f3e
0000b359
ffffd085
000027c8
000086f4
0000141b
000052f9
ffff9370
ffffd2a4
0000219b
ffff6649
ffffcded
ffff7348
ffff9c80
ffffd36d
ffff9187
ffff8085
00007932
00004355
fffff6a7
ffff54d1
00000445
ffff412f
00007f64
ffffe7b0
ffff6f10
0000c904
00000187
00002f71
ffff43b9
00000f0d
ffffadeb
ffffc4e6
0000be28
ffffc4f0
00004328
ffff8e09
ffff869f
fffff435
00004f29
0001400e
000021bf
0000176c
000103fc
ffff9453
00000848
ffffcf8c
00009c7b
ffffff10
00003e38
ffff5ac6
ffff7095
000104fa
00012ff2
ffffaf81
0000902e
ffffd28c
000046e2
00006817
ffffe42c
ffffdaac
ffffdadb
ffff39d1
0000bfe0
ffff7c0b
ffffc4d9
000003fb
ffffa024
ffff4d37
00007ffd
ffffa0c8
ffffe933
ffff7e5d
00000be2
ffffda46
ffffa37e
00003f8f
ffffdd35
00003082
ffff03e8
ffff2c08
ffffb285
0000ba5c
ffffe07c
0000211d
00005c02
0000404f
00003c37
0000bfd3
0000c129
fffff82b
ffffd251
ffff71f9
000046c4
00003140
00006ed2
00000ca7
0000bb2e
000090b8
00008455
000038c4
ffff7578
ffff66ad
000035d8
ffff5ace
fffffa6c
ffffd1b0
ffffc657
0000735f
000057cf
000021ea
ffff91e0
000037dd
00000d67
00000770
ffffa581
ffff8401
000094f6
ffff517a
00009840
0000336e
000020c6
ffff670c
0000a118
ffffc3c9
00003dec
0000a4de
ffffec1d
ffffde08
ffff7a42
0000345d
ffffeadd
00003885
00001023
0000e260
0000798e
fffffa4f
ffffb6ec
00004054
ffffce4e
00009545
ffffe4b4
000091a9
0000a0ef
fffff967
00001c03
ffff57b1
ffffd5ce
000050a2
ffff92a8
ffff6a6c
00001766
ffffbe61
ffffcfcd
00002a0f
0000e332
00004498
00001eea
ffff7f1c
0000b307
ffffb35e
00005ee2
0000bcdd
000000ec
00004352
0000c6f3
0000278b
000011a2
ffffa5f1
00002e3b
ffff8e85
00005ae2
ffffe269
000002a8
ffff524a
00000a14
ffff8f2d
ffff8a28
ffffd04b
0000d48f
ffff9a01
0000217c
0000563a
00008b5f
ffffaa91
ffff97e0
0000bf82
0000a284
ffffa699
ffff9a80
ffff6dd7
00004626
00007ea9
0000822f
000016d4
00007a7d
00003502
000004fb
00007489
ffff5dfa
0000bfc7
000069ee
ffff1b05
0000835e
fffffbea
fffff480
000064b9
000081cc
ffff7808
ffff914b
00002f45
00000e6c
ffff5103
0000c7ce
ffffbfd5
ffffd9af
ffff9507
ffffaebf
ffffbb2c
0000026c
00006b87
00006bff
00005463
00000312
ffffe5ff
00009d44
00000891
000004d3
ffffd3de
ffff875e
ffff79d2
ffffd8f6
00002799
00000a0b
ffff2689
ffffebce
ffffc8c1
ffff93cc
ffff76ea
ffff7458
0000855a
000080e0
ffff2eb1
00000628
000059f7
ffffa3d1
00001992
0000b119
00004cbf
00006685
ffff4296
ffffbd90
00005304
000055b5
0000d584
ffff2753
fffff0bc
000051a7
0000550b
00001420
ffffa2c0
00008d8c
ffffa6c7
ffff72c8
00001f61
00002b0e
ffffd275
fffec9d9
000067a5
00007553
0000269d
ffff8b29
ffff7f36
000021e9
0000a938
ffff9d8e
ffffd75e
ffffa565
000030ec
00005a57
00003630
ffff2e0b
ffffa01d
00007c57
ffffa623
00010db2
ffffae20
ffffcbf1
ffff45e7
0000a8a8
00009066
ffffb7d5
00002bfc
0000d7a4
ffffe710
00008628
000029bd
00005c52
00008c65
00009c5e
00000f9d
ffffb7ef
00001a7f
0000761c
0000e007
ffff8ca4
ffff65af
ffffe7b1
00006aac
000072cb
ffff27b6
ffffab12
ffffbad4
0000021f
00004f5b
00007380
0000667e
ffffd632
ffffe3e1
fffffc43
ffffce19
0000650b
ffffcce9
ffffdd0e
00009ac5
ffff463a
ffff6355
ffffff8d
000085a4
ffffa7a3
00009ce0
0000a1dc
ffff4728
00008b4e
00008dc9
00003c5d
ffffc9e4
ffffefec
000024fe
000063eb
ffff52cb
00007f9d
ffff8fbf
ffffaf82
00008393
ffffdeb3
0000d103
00002672
00007256
ffffeac3
000064d6
000010b7
00006be5
ffffcc12
fffeb950
00000238
ffffa30a
ffff5246
0000120d
ffffe198
ffffdaa4
000094cc
ffffaadf
00003f20
ffff9d90
ffffe2a1
ffffec18
00001ed7
0000167d
00002413
ffff28c8
ffff9618
0000799c
ffffa03f
0000725f
00000eb5
ffffad3a
ffff5df0
00005c29
ffff9f45
00000276
00001783
ffffbf44
ffffe1b6
00001e6b
ffffaa63
ffffe0c9
ffffb1b8
ffff761f
00002f20
fffff110
ffffde3c
00005856
ffffa5a7
fffff862
0000c3d4
ffffa41a
ffffa697
ffff8a2b
ffffdc4e
0000365a
fffffb4c
ffffb273
00000838
ffffebcd
0000d40c
ffffb0e7
00005dec
fffffceb
0000459a
ffff9c12
ffffee15
fffff0a8
00001409
0000cc6b
00007351
ffffa8fa
000045d9
ffffb83c
ffffbaeb
ffffea6f
ffffab4a
fffff885
ffffedd8
fffffedf
ffffa8c8
ffffdbe7
fffff293
00006f58
ffff9052
ffff97a7
ffffb583
ffffaf1c
00006ed2
00000405
00003327
fffff835
00003d16
00005cdd
00002968
ffffb826
00000c50
ffffe418
ffffc517
ffff7f40
0000a7d9
00009413
00001d28
000019da
0000b589
00003de1
00003667
00002f2f
ffffdafe
00003d0e
fffffe58
ffffe365
ffffd588
0000d70e
0000ae39
000034f5
ffff33f2
ffffdfd4
ffffe3a6
00000ed3
ffffc5f5
0000c070
00008261
ffff8bb3
ffffee31
0000006c
ffff9f31
00002afe
000024cb
00006caf
ffffb941
00006cc5
0000304d
000084de
000069ab
ffff88f1
00006cb5
ffff4b0b
00002568
ffffcbc8
ffff7cd6
ffff6566
ffff9c0a
000049ca
ffffbe55
ffffa3d5
00009874
00002f06
ffffdc45
00003125
ffffe632
00000a45
000037d2
00001463
fffefa6b
00007288
fffffa98
0000b6c5
ffffeecc
ffff9ba4
ffffab44
ffff900b
ffffb1ff
ffff7f7f
00001ce0
0000386b
ffffcc81
00000a3f
000070fc
ffffbd11
ffff97ab
00009c79
ffffd45d
ffffa44b
00004538
000035cf
00005889
00007937
0000aace
00000f61
00004133
0000571d
ffffd711
00001eda
00003be4
ffffdb63
0000610c
ffff7b89
00007672
ffffc991
00007276
0000526a
00001125
fffff3e0
ffffb7db
ffff9a8e
ffff8073
000009a2
00000a16
ffff6b23
ffffff10
ffff5123
000028ee
000042b8
fffff245
ffffa4af
ffff73a5
0000456e
000015ae
ffffa96c
ffffa2f2
ffffb67e
ffff9539
fffff8b6
ffffbd76
ffffde57
00005edf
ffff77d9
00005093
ffffb9d5
ffffa16c
00003aba
ffffa74d
ffffb50b
ffffd98e
fffff327
ffffb93a
00000e57
00003c69
000001b5
0000a007
ffffd566
ffffd384
ffffdce6
ffffcb0e
00007506
00006748
0000b244
000018ab
ffffd6e9
fffffbb0
ffffb921
000044c1
0000a9cb
ffff988f
0000bdf2
000000fd
0000131b
fffffe1e
ffff408c
ffffdb35
00008869
ffff8720
ffff0a64
ffffde4c
ffffcbde
00003f2b
ffffb989
00009ce8
0000548a
000106a5
ffff86d9
ffffe419
0000ab12
ffffdb44
00007c7f
ffff92f9
00005413
000109ab
0000ab53
ffffd66f
0000e33c
ffff86ea
00006b5e
fffff973
ffffb78a
0000d74e
ffff9376
00004309
ffffc5be
ffffbf7b
fffff8cf
00000ad9
00007ffc
ffff239c
fffff519
ffff94be
00004456
00000e7b
00008a42
0000f503
00002cfe
00000e75
00000f97
ffffe1e8
ffff4433
ffffa5bf
00002a88
000068a5
00000118
00003678
0000c3bf
000039d9
00001475
ffffa6b8
000007a6
ffffe736
00001391
ffffd8aa
0000b716
ffffa23e
ffffe03f
ffffa176
00002081
fffffee1
000048f5
00007bb2
00005005
ffff6c3a
ffffac08
0000c752
ffffbfd9
ffff8033
ffffb8d1
00006772
00003b61
0000e77a
fffff945
000082ba
ffffefa0
00006904
fffff124
ffff9fa0
0000411b
00007d2e
ffff7e46
000065e2
00000937
ffffc339
0000021a
000008dd
ffffcab1
ffff7ab4
fffff3eb
ffffed72
0000172e
0000a220
ffffe1e5
ffffe222
ffffdb06
00008539
000015cf
0000af14
00007fa5
0000495a
00002b50
0000927f
ffffa923
ffffd3b9
ffffb209
00003b7d
ffff87be
ffff848a
ffffffbf
000008ab
00003ca1
00004f5a
000006ad
ffff8d4b
ffff4d4c
ffff6477
ffff77ed
00001b6d
00004082
ffffd82b
000024c5
ffffe7f9
000031c0
00000153
00002c12
ffff80e4
ffffd341
ffffeabc
00006ece
00001e56
ffffa21f
0000723c
00002de8
ffffcd10
000037c5
ffffd2ea
000080c4
00005cc4
0000d64e
00002a1e
ffffdcc0
00000c4d
ffff6ffd
0000031d
00002d48
ffff8571
ffffca4b
ffff6e39
ffff2304
00006092
0000e229
ffffadcc
00008185
ffffa468
ffffd168
00003224
ffffc5cd
ffffd424
00001699
000035d2
000041d5
ffffcfaf
ffffef50
000087ee
00001df0
ffffdc55
00004601
ffffd97f
ffffed31
0000a944
ffff6985
0000504b
00005216
fffffaa2
ffffdd5a
ffffb16e
ffff9b15
0000303f
ffff49fd
0000249e
00003070
0000a444
fffff27b
0000c10a
ffffadea
00007b93
000025fe
ffff52e8
ffff01e2
00000062
0000e4f4
ffffdca2
000068bc
ffff8ea8
ffff7b5c
00001b44
ffffb0f4
00004ede
ffffee77
ffff1198
00003ee1
00000fce
00009d11
ffff99d3
00002728
ffff9bf2
fffffc4f
0000071a
ffff62ca
000034aa
ffff86bf
ffff729d
ffffed1a
ffffb48e
0000184c
00004536
00008983
ffffdf31
ffff93b9
00005162
00006ac3
000039b6
ffff4bd2
000064af
ffffdb13
0000aa01
00001b81
ffffb170
ffffaea1
fffffc5e
00001767
ffff61eb
0001498d
ffffc7a1
000066aa
ffffe509
ffff6bde
000024e7
ffff80be
000067c3
ffffff2d
ffffd2be
000062db
ffff5c62
ffffe5d7
00004c99
0000d35a
ffffe38c
00007e9f
000046e4
000052c1
ffffd045
ffff88e3
00003048
0000251f
0000bc8d
00001a07
ffff93e5
ffff5284
ffff8c53
ffffabde
00001eb9
ffffdaed
0000e65b
ffffd6eb
ffffbf56
00001ed5
00006972
000072ff
00001cb1
000086c8
fffff816
ffff7dde
ffffaf7c
00007b27
ffffb0aa
ffffe88c
ffff9d4e
0000581b
fffffaa2
00005cee
00006304
00001592
0000bca1
0000340e
0000d4af
ffffa6cb
ffff77af
fffff0bd
ffff5b3f
0000cc07
0000592c
00000127
00010518
0000be63
00001f5a
ffffec7b
ffff2bb7
00010055
000026fa
ffff7473
00005076
fffffdd7
00003e0d
00007644
0000338e
ffffc2fd
ffffaae0
ffff8315
0000dca5
00001c8f
0000f13f
0000b074
000055a0
ffff8282
000048d4
ffff8eb4
ffff7d7f
ffffab59
00003490
00008cb6
ffffa5d6
000043d2
00005afb
00005528
00002ddd
ffff71bb
ffff55a5
ffff9552
ffffd444
00007ef2
ffff8b06
ffffebb3
00008819
ffffa5aa
ffff8ee8
ffff18dc
ffffebd2
000087f2
ffffcb76
000002b7
00001bf4
ffffab11
0000d050
000096ca
ffffbefb
00001f52
00005494
00002724
ffffc9d8
00002135
00003647
ffffc4d7
ffff6262
ffffebcd
0000625c
ffffa82a
00005a00
000071e3
000067bb
ffffecea
000002f6
fffff495
ffffa54d
0000918e
00001bef
000014ed
000045ed
ffffb169
fffff93d
ffffe61b
00009368
0000161a
0000379f
ffffde07
00005e73
000052a8
ffff8f88
ffffc4e9
00006351
0000127c
00008f93
ffffec9c
0000223d
0000ad6b
ffff6c00
00004429
0000ba75
0000bfc7
ffff95b5
00001430
ffffae79
ffff59fa
00008d77
ffffa8da
ffff8c6a
0000155c
000005e9
00007544
ffffcb99
00008505
0000017e
ffffcbc8
ffffd13e
00006bab
ffff7991
00002341
0000841e
00000c81
00007f6b
ffffeb63
ffff6382
00002612
ffff7a4d
00006c18
fffff129
00003743
ffffdc3c
ffffb1eb
ffff4980
00007c20
ffff59ab
ffff53eb
0000f233
0000804b
ffff69e1
000001bb
ffffa135
ffffa2a9
ffff6de9
00001ea0
00003885
0000ac48
ffffd4ff
ffff7cd7
00007a4d
0000174f
00004fbf
ffff7a67
00000058
0000af57
00006c91
0000916a
0000917e
00001dde
0000741a
0000e486
00006e18
ffff9087
00003ef0
0000591a
00003079
ffffe356
ffffba86
000056b5
0000d15d
fffff733
00000cef
00000166
00004d00
000076c8
ffff6887
ffffae4c
fffffb06
000040c4
ffffa230
00001b0d
00000052
0000379d
00003de9
ffffbf2a
ffffd62f
ffffe50b
0000ae92
00004c7a
00007012
ffff908c
ffff29e0
00002e2b
00005ca6
00006bea
0000451d
ffff89b8
ffff7e11
00005704
00003090
ffffe859
fffff337
000056e3
ffff939a
0000130b
00004693
ffffe6a9
ffffdcac
ffffa18c
fffff83b
ffff888a
00000d7e
ffff9208
ffffb474
000028d6
fffff971
ffff9365
00003724
ffffb89a
fffffa59
fffff60f
ffff94f2
00005515
ffff9448
ffff8693
00000438
ffff9b9c
000080dd
00003581
0000299f
ffffbf85
ffff9122
ffffff90
00004eb8
0000528f
000002b2
000010fc
fffff24a
0000536e
ffff982c
0000700e
ffffa3b9
ffffa400
ffffee30
ffffd1a4
00000d43
00002049
ffffda85
ffffa677
000074f1
00002a17
ffffd099
ffffc474
ffffd563
00001a02
ffffa91e
ffffcecc
0000037d
000015b4
00004bf1
00000775
ffffeb6d
00004130
000089e3
000022fc
ffffa47b
000036ec
0000953d
0000a6b7
000055f0
ffff5b2d
ffff3baf
ffffd4d8
00006815
fffffeee
ffffec5c
00003c88
0000401e
00006f26
ffff58bf
ffffc87b
00002715
0000dc1e
ffffd598
00005e67
ffffe8a4
0000a8e8
ffffa873
0000ad3b
ffffedc0
ffff5b52
0000f78a
ffffd534
ffff4e31
00002b2a
00003a78
fffff6c8
ffffe17d
00010fe4
ffffe190
00005769
00000b21
00003a19
0000c116
00005602
ffffa488
0000fb0b
ffff8b12
000080c6
000017c8
ffffc4ca
0000bae1
00003b36
ffff4fd4
ffff86fa
0000368e
0000b323
ffffd331
ffffe6a9
00003d20
0000954a
ffff7dc3
0000075d
000071c8
000064c4
ffff91a8
00006297
00007d1d
0000b647
000053f2
00005ef4
ffff5193
0000a8b2
ffffa3da
ffff8524
ffff1bd5
000013f1
00003799
00005774
00004312
ffff958f
00008758
000016d2
000024b7
ffff9ede
000018dc
00001470
00000832
00000890
00002844
000066ce
00007484
00006d5e
ffffef9e
ffffacab
00004d50
00002ff0
ffffdd90
fffff0f9
ffff8908
000042c5
ffff892b
ffffbab5
ffff950e
00005960
00000082
ffff7da1
ffff82cc
ffffa5fe
000010ae
0000367b
00002fa9
fffffa22
00006526
ffffb684
ffffe4e3
0000573e
ffffcd54
ffff8c1e
00007f5b
000090e1
ffff8350
0000185d
ffffe517
ffffe9a4
00007931
00002a8f
ffffee17
fffff976
00004708
0000374b
ffffeb40
000077a0
ffff9e1c
0000173a
ffff7639
000015d0
000043cf
0000a113
00007e5c
000037d7
ffff88ff
ffffc033
fffff0f0
ffff9591
0000119d
000067e5
ffffb85a
ffffb478
0000633e
ffffb9bb
000064af
ffffd2d0
ffffbc94
00007abc
00007750
ffffee9a
ffffae49
000076a4
0000143e
00005fd9
0000074b
ffffc10e
ffff6e3e
ffffd103
0000328a
000027ed
00009ef6
ffff9bb6
00006559
ffff965f
00006717
00004643
ffffb609
00001c23
00000a2d
fffff987
00002e2b
fffff3eb
ffffc286
ffff708f
0000605b
00005b45
00008cc0
ffff76f0
00005a84
00002477
ffffdf8d
ffffda67
ffffbcfd
ffffe782
0000426f
ffff9168
fffff46c
00005712
00001751
ffff669c
00003af8
ffff34d3
0000400e
ffff1f9c
fffffb27
0001067f
0000994d
0000aec8
ffffae8b
ffff6494
00003274
ffffabf3
00008f84
00004ee8
fffff78e
00008eb9
ffffd681
fffffa88
ffffb373
00005955
ffff7130
00002d94
fffff17c
ffffd805
fffff2e0
00007e80
ffffc801
00007060
00008e30
0000a1c2
ffffea58
ffffb431
ffffb04b
0000084c
00004e6a
ffffeeb2
ffffaa34
ffffb163
ffff30dc
00007b34
000044e0
0000afb3
00004bbd
ffffe142
00008a39
ffff2665
ffffd1ca
0000e703
fffffdae
0000b9b8
ffffbec3
ffffe276
ffffed84
00006322
ffffe8cc
00005ad0
00007cc6
fffffab4
ffff94c0
0000aa53
0000035a
00002d95
ffff2c79
ffff3ffa
000012b6
ffff8aa5
00009d44
00006372
ffffaa11
ffff8b12
ffff9c81
0000247b
fffff428
ffffa9ef
0000788b
0000a55e
0000b2ad
ffff62f9
00000b55
00002868
000069bd
ffff56bd
00001b67
ffffeffd
ffff921f
ffffeebb
ffff7f97
0000792c
ffff6230
00008b31
0000737d
00004885
ffff04a1
ffffb470
ffff0a0e
00000a1a
ffffca6d
0001041d
00009d98
0000ab96
00007c60
000063ab
ffff9cd7
ffff2d43
00007284
ffffbfb9
00005fb9
ffff6c5c
000094f2
0000959d
0000b789
00006110
ffff0ff0
00009f98
ffffdb13
ffff4667
00000985
0000636c
0000ab36
ffffb0f3
000095f7
ffffc64e
000085e2
ffffb393
ffff3fdb
000021d5
0000b7a3
00003d0f
ffff7080
0000377a
ffff9a5b
ffff4c28
ffff8f24
ffffc495
0000c1b7
000072dc
ffffb26c
ffff553c
00007bb9
ffff82a1
ffff71d0
000002cc
ffffcf65
ffffa60a
fffed937
000086f9
ffffabed
0000ee43
0000003d
00009505
00004280
00011988
ffffa7a3
ffffc823
0000a720
ffffbff4
ffffd9ba
ffffa507
ffffdef1
000077c2
0000462d
00007cb6
ffff66e4
0000a8e3
ffffd6fb
000066a3
ffff4230
00001447
ffff76df
fffff9d3
000001bd
00010108
ffff2ae3
fffeae6d
000118a2
000189ad
fffff465
ffffb3b3
ffffd178
00000ef8
00002daf
000038ae
00008322
0000380e
0000732d
00005819
ffffe43d
ffff2738
00001f0e
ffffa324
0000d127
00006001
ffffe173
0000da2d
00004ac9
ffff9925
ffffa473
fffff747
00006e1b
ffff8d74
fffff9bc
00000af9
0000837e
00000449
fffff686
ffff9a76
000038dc
ffff910e
ffffc81a
ffffbe27
000040cb
0000a06d
ffff8d7e
ffffab58
00005c52
ffffb1ab
fffff95b
fffff892
ffff9f6e
ffff75b7
00000499
00005556
00006817
00000468
ffffcfa9
ffffcf00
00000c6a
ffff36fe
ffffe4fe
00002ac2
ffffb8c6
fffff7a5
000034ac
00005ee8
00004500
0000e1bc
00006c4b
fffffa46
ffffa446
00002f94
0000b5c5
000039a5
000075fc
ffffc34f
00000fb8
000027cb
ffff99bc
000074e7
ffffd5cc
000004a5
ffffa6d0
00007ee5
ffff6a36
ffffe7d7
000010d3
ffff8816
ffffd03b
00006840
ffffd9aa
0000099c
000067ee
ffff9bef
ffffceb5
000010f9
fffff809
ffff82bd
0000743e
00008369
ffff559c
00006d1b
0000e8a3
fffff87e
fffffdf8
fffff437
ffffcb57
ffff9e3d
0000254c
ffffcb08
ffffb563
00002072
ffffc0c9
00009d1f
000078d8
00000005
000095cf
ffffb795
00008c24
ffffdbc3
ffffead8
000042a4
ffff6f9c
ffffeaed
ffff9a11
000054a7
ffff6c4d
fffff2ed
ffffaf61
ffffbefd
ffffbc48
000022c2
0000639b
000002ba
00007417
00001661
00009511
00003ddc
000025f2
000036db
ffffee55
ffffbaea
0000223c
000007a5
ffffc032
ffffb3d6
00002513
ffffdc65
0000878f
ffffd077
0000ab16
ffff992a
00006239
00010d87
00003c7d
000126e5
0000584a
00000140
ffff66d6
00000695
ffffd6e2
00003834
ffffa927
00000c63
000032fd
00003b6b
ffffaf6e
ffff84c3
00004523
ffffd484
ffff820d
000050d3
000009f1
ffffa94d
00003b0e
00002c16
ffffc9b0
00007c0e
ffffec7b
ffffeb43
00004e29
ffffc0b6
00004c91
ffff7d31
000122ea
ffff75df
0000640a
ffffc1c0
ffff8662
ffffc99f
fffff43a
000032e5
ffffc2ea
ffff7510
ffffffc3
ffff9175
00001264
0000ac07
ffff164a
fffeef12
00001009
000008df
00008f75
00006622
ffff4ba0
ffff7c11
00005ae7
00003231
000011b6
ffffd431
ffff7813
000064d2
00001003
ffffd3ac
ffffba86
0000287e
0000d4a7
ffffc144
ffffbd1d
ffff7d72
ffffb84e
ffffc1b5
00005aba
ffffec9f
00006ab4
ffffba6a
ffff9959
000021e8
ffff7567
fffffa36
0000333b
fffff441
00000e41
ffffeec9
ffffdc3e
ffffd267
00003a58
00004990
00002bc8
00006636
ffffd01e
000013c2
0000345e
000036a6
fffffc0c
000007b8
ffffd917
00001ca8
000044ef
00004b2c
ffff9bab
ffffeb25
00003632
ffffaf84
ffffe55a
0000298b
000016bf
00001df9
ffff841f
ffff9e57
00000c71
00005bcb
00007415
ffffdc6c
00000a72
0000428e
ffff9b5b
fffffb9f
ffffaa90
00002b39
00001204
ffff91cc
00003867
ffff8ca0
0000508e
ffff8821
000012fc
ffffb215
ffff7e29
ffffea69
ffffbd15
ffffe922
ffff6f5d
00002e15
00003884
ffffa68e
0000384c
ffffde6f
fffff183
00007eac
ffff99a5
ffff8dc2
ffffdff8
00007fca
ffff6a04
ffffa6c2
0000d0a3
0000966e
0000241b
000068ea
00007741
0000a6f7
00007d81
00006326
00000d17
ffff925f
ffff83b2
00004d72
0000b07e
000065ea
ffff4753
0000ab1b
ffffb819
ffffcfb0
000036e8
00006b31
00005a2e
00000436
ffff9adf
00000a3a
000067d3
00002d20
fffff50f
00005083
ffffff08
00008f63
ffff68eb
00003b62
00008d43
fffffc57
00005879
0000c60d
00004215
ffffc0d3
ffff6208
00004de1
ffffe39a
ffff7d88
ffff9cbe
ffffc6f4
ffff87cb
000066f0
ffff3c4c
ffffde43
000024d6
ffff7bad
0000ac2d
ffffb678
000033c8
000083e2
ffffb8bf
ffffed12
000032ee
00002d99
0000524e
ffffcdfe
0000bc94
ffffc194
ffffeb2b
000114aa
00007486
0000192d
00005b3a
ffffe7b6
ffffb14f
ffff18ae
00002aec
000044b0
00005d7d
ffffba90
00003296
000080c5
00005908
ffff81d1
fffff6c1
ffffbc08
ffff4405
fffffedf
ffff2545
ffffcd2e
ffffec72
00008724
00002b14
ffffa38e
ffffc20d
ffffc1ba
ffffae52
ffffa3b3
ffff9d6e
fffff1f3
00001563
ffffdf12
ffff9886
00001237
ffffb462
ffff8f43
000082ee
00006a62
ffffd77a
ffffe170
00006935
ffffa1c8
ffffed6c
00002c38
fffff5ce
0000368b
fffff767
fffffc80
ffff868d
0000822d
ffff9117
ffffbe95
ffffb5a1
ffffbe64
fffff3aa
00006a0d
ffffddb0
00002100
ffffa606
000038d9
fffff184
0000035f
ffffe7ce
ffff9140
ffffed00
ffff956b
0000660b
00006760
ffff9047
ffff9f55
00003e9e
0000b017
00000886
ffffbe85
ffff9765
00000bbf
ffff7bbf
00003d27
000021d5
000026ee
ffffaccb
ffff78a7
ffff765f
ffffa232
000037be
ffffd0c2
ffffeb3a
00003c94
00004663
ffffee59
ffffc55d
ffffd839
ffff8831
fffff33e
ffffb59f
ffffe2f1
ffffce29
00004c57
0000519a
ffffa8ab
00008565
ffffb354
00002b29
ffff9b83
ffffb9b2
0000624f
00003d78
00004e0d
ffffb4ce
0000393b
000062f5
ffff9c7d
000021bf
