000346f7
0001e1ef
ffff0959
fffee2de
fffee955
00016c98
fffecf76
ffff5e72
0000ca1d
fffc8825
0000e1eb
fffc172e
fffdb573
ffff430b
ffffc25a
fffc235f
fffd54a7
fffe6cba
0001e5d9
ffff8113
fffe34a0
ffff9519
ffff0869
fffde263
00017ea1
000024b6
ffffa535
ffff5599
fffdc4cb
00028229
fffede58
fffeab5a
ffff3a32
00015738
00008d51
ffff09e5
ffffade5
fffd0412
00035fb6
000199c4
fffaa517
fffd31a9
0000e78a
000295b5
fffeb3b5
ffff35b8
00023383
fffd4678
0004e4b9
fffbfcbb
fffff7b1
0000415b
fffd781a
00036ccb
ffffdfac
ffff92d1
00001ebb
fffe3959
0002e453
00000067
ffffa998
00019b50
ffff9b9c
0000e257
